犹如精力追求时对方一时兴起的▁TEETH
图书馆后桌的学弟能不能请你▁SHUT▁UP
偶然间感觉那些明星们很▁CUTE
就当做是个▁EXPERIMENTATION吧
形容自己叫▁SNOBBISH形容别人叫▁CHEEKY
我最期望在恋人身上看到▁CONSCIOUS品质
阿萨尔华山文章大草原▁PART高清▁CLIP
拍照的时候满脑子都在想▁PAUSE
▁MEANS抠开看发现没熟再放回去
也是一首快节奏很▁EXCITING的歌
花时间快速补充自己在▁NETWORK上空缺
拜年拜年幽妹成了▁RED▁PACKET收割机
想把米巾和苏打的▁ZIP拼一起
继续过被别人和自己▁PUSH的生活
算是▁MISTED▁HE高会兰拿奖了军女士不哭
客户说这个宝宝是他的▁PASSENGER
英语在没有大一时候的广东▁ACCENT
张韶涵没有机会唱▁FADED
童话▁DRUM超人小子的秒拍视频
我都要躲着▁LAUNDRY▁HOUSE负责人走
梦到▁SQUIRREL解散全员都哭的稀里哗啦
▁CINEMAS地作品像不像坚果之物
有机酸太梦幻了互相▁ARRANGE
十元李美新剧▁UNNATURAL
在我前面的那个男生在楼道里唱▁LEMON
▁RIBBON真的太美这个蓝色太太太好看
▁OPPOSITE▁OF喜茶上海悦达八八九广场
要▁EXAM了各种新课都还没看还不着急
虽然这样▁SO▁MEAN但是我还是想说
片场捕捉▁YEAR迪丽热巴
你和我说▁COAST比星巴克好喝
他理解错了▁EVENLY的意思
动力最满时候是改完一个▁DUE的时候
反正我是被伦敦那个广告▁OFFEND到了
大晚上点开视频看陪姐跳▁GREEDY
▁OPERA口红真的好好用啊
做不了▁FATE的人还想做▁FAT的人
深圳的▁DARLING▁HARBOR想悉尼了深圳海上世界
西安大雁塔其实▁VERY▁BOLD
还有一群假▁FOX互相反杀
我不信方块不知道大家对▁BUBBLE▁POP的执念
▁LECTURER讲话还能再快一点吗
这个风靡是大家都很爱的不是吗▁XEROX
每年的今天我都想▁MEAN一下
▁SKY▁LADDER与宇宙对话找寻艺术最初的冲动
只能躲贵宾厅还有二小时▁BOARDING
▁AUGUST▁CRUDE北京西尔顿王府井酒店
你今天看起来不一样非常▁ENERGETIC
▁OVERLOAD▁LL昨天完结然后七月初第三季
哪个商场才能遇见这么▁INNOCENT小白兔
原来是真的来中国了▁RAINFALL
就在刚才最后一篇▁READING我是全对的嗯
▁SWEETS上次来世夏天我没看到这般风景
越得越深只怪那个主动的人▁INDUCE太过
▁TIRED长春东北师范大学
▁POOR朴树略苍老的脸上还有忧伤
司机师傅又说单子普遍比滴滴少▁CONFUSED
或者说所有这些都是▁GENTLE▁NEUTRAL吗
一写下来整个▁STOMACH就是御姐的感觉
我在屋里带俩娃看▁CARTOON▁NETWORK
该放下何必为这纷扰乱了我心神▁UNIQUE
这条微博的情感分析结果为▁NEGATIVE▁POLARITY
▁FLYING▁COLORS你知道这些都是什么意思吗
在表白节大声说出来你的爱▁INTELLECT
▁TACT老练摸一下就知道了
龙哥真的▁FASHION▁ICON不是随便说说
找调和就可以开始画▁PRIDE▁BODY
阴雨天我来▁ZOO▁COFFEE发呆
身份变得太快就像龙卷风▁RESTRAIN
开机启动的第一个软件是▁TOTAL▁COMMANDER
我的第一个▁MONTHLY▁VLOG竟然顺利出炉了
我一直不喜欢▁COMPLAIN什么东西
这么多概念上的▁INCONSISTENCY
讨厌▁GEOLOGY能说点人类看得懂的吗
我特别喜欢一个词就▁OFFEND冒犯
▁NUTRITION▁CARE养胃粉山鸡哥再吃养胃健胃
之后纽约时报和▁WIKI▁LEAGUES都出来辟谣
▁LEMON▁PEEL适合当空气清新剂
结局不管多么努力去改变都是▁VAIN
▁FAKER好忙你们只要正常兑现就好
这种天气我▁LITERALLY坐在湖外瑟瑟发抖
日常看到他塞▁MERE和小三猫
一千个日夜里有多少▁ROMANTIC▁MYSTERY
最后一支起舞▁LERS给了我很多很多
现在看完了我依旧▁SHOCKED
还是用这个考研单词▁DISORDER吧
闲下来晚上就去打篮球▁FLAG
这些青春励志剧都是要来的▁SURFACE
也不能抹去你圈▁TOPS某人奥运书本子
我的▁PROBLEM▁QUESTIONS怎么办给自己点一首凉凉
明明要的是而温的▁TOBY美式
我▁OMIT了不是所有人都会▁AGREE你所想所作
不懂有些人总喜欢做一个▁FOLLOWER吗
▁DUSTIN德斯蒂百分之九十九可可含量巧克力幺二六区劝后二十九
晚上做了好久的▁LOGICAL简直头晕
出道了新▁QUICK的测试规则
听非主打▁HEAR▁ME原来小狐狸唱歌是这样
▁DAY▁DREAMS是在这里创作吧你真的超棒哦
▁CASUALER跟我说在西宁银行办个卡
这曲风▁HOTTER一定是的啊
为什么就不能把那些个▁SOCALLED人圈起来
这么短的篇幅也能迷上▁GANG神
哎听说去旅游了打电话不接就▁DISAPPEAR了
▁INCIDENT到底是什么也还是令人疑惑
魔法少女▁SIGHT看到一半
▁BRUNO▁MARS火星歌二零一八上海首场
奶茶店我推荐▁POT▁TEA蒲茶
▁ORTRAVIOLET▁RADIATION紫外线辐射
我们家▁VOLCANO深海阳光灿烂的微博视频
学校广播放了适中的歌又放了▁WIVES
关于那保安▁BRAIN了啊可以问问荷兰地
这学期上的▁UNDERSTANDING▁MORALITY讲得超好教授
迅速回想原来刚刚错把▁OSTER说成▁LOBSTER
很多时候被▁DAMP都不再伤心难过了
今儿下午只放了个▁BOMB
第一次接触▁BLENDER制作流程深受启发
史上最厉害的▁ATTENDANT马上就要出现了
▁GRAVER的一法也有点乱七八糟的
小心肉一个▁TYPE我不看中意的原因吧
一九九五年记得▁CARTOON▁NETWORK播到八点下课后爱看卡通
月底没钱了转让戴森▁V六▁ABSOLUTE一台
你就做你的▁DAY▁DREAM去吧了
保护牙齿还剩贴片就▁MISSION▁COMPLETE了
▁FINANCIAL▁ANALYSIS我们组都是妹子两个中国的
以后你就是我的全部永远爱你的▁MUMMY
▁BLAKE▁LIVELY的竹木绿耳环太好看啦
温柔有耐心又细致又▁GENTLE还可以切换
季情越来越不好了和牛姐一样▁FORGETFUL
可能真的是▁RICH和▁WEALTHY的区别吧
若能像电脑一样可以▁FORMAT▁DELETE
在模拟法庭比赛上遇到恶心的▁DEFENSE▁ATTORNEY
▁DAY▁THIRTEEN腿痛炸武汉将汉路步行街
从零开始我真的不会拼▁BANANAS
▁SHELL是用于操作系统服务的用户界面
这次▁RENEW被要求重新考试
通过转发和模仿表达情感没有▁OWNERSHIP
我必须要说▁SNAKE大佬真的是太厉害了
发现自己竟然还有十二个▁FOLLOWER
谁来拯救一下我的笑点哈哈▁WOOLLEN刘烨
也不允许考回去做别的就不想当▁TEACHER
▁PROSPECT记得是前景的意思
吉他独奏春江花月夜▁DOVE
两个人两天搞定▁BOOT到▁IDOL
明显到达▁RUNNERS▁HIGH的跑步者
诶去之前被通高有猫狗大战▁WEAR
不仅美而且太▁ARTISTICALLY▁ACCURATE了
上周为了演讲课买的▁VISUAL▁AID
去年▁JINGLE▁BELL表演幕后采访
本来以为当甲方来▁APPROVE东西会很爽
我竟然开始想念又▁BRIEF和▁HAND▁OUT的生活了
我的脸让人觉得生气因为我有▁ANGRY▁FACE
虽然可能是故的▁INTENTION但是还是觉得很打扰
看了一下午的▁INDIA没有无偿观
单曲循环▁COSMIC▁RAILWAY一边放声大哭两小时
做一个像▁ANKLE那样因简单而美好的人
顿时梦境和真实有点▁OVERLEP有点懵
我不管我一定要把▁POLLY想起来
这不是曾经的鸡蛋笔▁SAUCE
买完四件▁MARVEL▁TEA心情很好了
同一篇文章用▁PAGES看看不到错误
第一次抢到捧花▁LUCKY▁WEEKDAY
你就注定是一个▁DECADENT嘛
还有等了一学期的▁FLASH三终于到手了
论文请自己写好▁SUBMIT股票自己看着
觉得▁PENNY▁DREADFUL这一集就是对爱情的探讨
▁FATTEST里头的两台机器真的很让人佩服
自己是个▁WRITER也是个▁WRITER我想要的不多
哪一枚▁EXTRA▁LIFE硬币拯救事件
花花唱了呐喊也算没听到▁FADY的弥补
真是看着▁INTERVAL一点一点减少
黄老板的▁CONCERT看你们几个这么好
虾米上唯一能找到的一首▁SCOFF的歌
那不是无关紧要的▁STATE图
再见四月份的五月▁KEY▁POSITIVE
买几件衣服希望▁DOOM的最大款能补货
很为▁SWIM成员担忧希望有个好的发展
听▁STAR主角其实可以但编剧不行
最喜欢的舞台就是▁CRUSH
之前天天自己抱着▁PAID看直播
认清现实很重要不要太▁NEEDY很重要
第一个离队上岸的是▁ARCHITECT
超强的▁DEADLINE▁FIGHTER还有四页论文没写
大表哥▁MAJOR决赛来个二十秒转点
实在手残可以用▁KINGDOM的眉高粉
今天真是▁ROUGH▁AGE丧到希望赶紧过去
▁BOW▁BOW你不要再推些这种给我了
西澳大学山坑▁GARDEN是许多人兴婚的见证地
目前还不会平图有一点儿▁P▁T
不会▁FOUGHT▁BY环境别人一句话
电视剧也是挺好的▁PROVERB
连煮个红酒▁PORK都能把酱打翻
我第一次要填报▁WEEKLY▁FORECAST给总部
就要出发了急忙去看眼▁TIMETABLE
在广州三家一二零零▁BOOKSHOP一二零零书店中
新年新风格想做个不▁ROUGH的女人真累
喊▁SPIDER▁MAN的时候简直不要太棒
▁CG技术修一下再放送▁REVENGE什么的
▁ADVANCE饭兔瓦斯的小小号的秒拍视频
如果能重来我要选择▁DANCER
视频式颁奖结束走向▁FENCE区
▁OFFEND到我的私信我都不会回的
▁THREE▁AM是上等海南黄花梨木
每日英语▁BOARD▁GAME棋盘游戏
希望下次看到他捧着▁JAVA▁CHIP的时候
微博上为什么不能写日志▁FATAL▁DRAWBACK
虽然自由组现在也就▁LAG
搬来了▁WHEEL特别好的公寓
冗长的培训班终于▁ENDING了
▁FARMER太多动作大嗓门大闹红红的
有人出这个手服▁SET吗
这么大的风浪居然还可以有▁CABLE做
发现▁EMBARRASS真是一个很可爱的词
没准没他我就▁QUIT了吧
都走的差不多了▁DOOR了▁R六的那帮人没怎么走
谢谢某人寄来的▁HEATING▁PAD和药
促成一个推广的合作没功利化的▁PROFIT
问题中使用了▁MANKIND人类这个词
后来我到美国去一家剧院看▁OPERA
其实一年的▁OVERLAP里我们完全没有交集
微博热搜大半夜的就搞了个小▁TRICK啊
我们此刻就是需要去行动的时候▁TUCK
看来真的需要到处走走了▁SHAKEN
▁CREATE▁IRON并不能让我卷出花篮
所以用▁LIKELY更趋向来界定
用来▁ISOLATE镜头新▁MOUSE的单个单元
可能是晚饭吃太饱了粒粒▁FLAG
十五天了看了几个▁TEXT▁STYLE教学
都是顶尖的篮球运动员干翻勇士▁GO▁THUNDERS
翻看家人去▁WILDLIFE▁PARK心情好了很多
五人回到中间舞台是▁CLOSE▁UP了▁NINO的眼睛
然后拿积分对了一次▁LABOUR的护理
于是今天才下决心把西瓜卡放▁WALLET里
▁SUMMARIZE中观点都写不出来
陈▁NECESSARY蜜糖笑容让人星空
▁BELLY金属链条装饰黑色毛面两穿▁LOAFER
把结婚生子这件事从你的▁BUCKET▁LIST中去掉
日子忙碌找快乐着好好策划一下▁FLOWER
接下来几位分别是生煎包▁FRIED棒
▁COW这个系列的沐浴露都尝试了一遍
在姐姐家看到这本▁WORKBOOK
第一次逛回龙窝这家▁LISON还挺不错
没想到▁DETECTIVE▁GORDON居然真的和医生结婚了
▁THE▁CROWN看完第一季了就这么点儿啊点儿
作为庆祝▁MUMMY送了我第一杯属于我的▁COFFEE
你在和普通人▁SUFFERING一样的东西的时候
这九个月可谓是▁DRAMA不断
我的努力终于换来了不是▁UGLY▁REFUSE
在羽田机场体验了一下▁SHOWER▁ROOM
今晚跟我可爱的▁PARTNER吃饭了
▁TWENTY▁NINTH可以历经几个月的努力
保证是你见过炫形最美最性感的▁FLATS
十年多的好姐妹在胡姐的▁CONCERT上重聚
在数学中▁TEN九十度其实是不存在的
会吃又会评论情商还超高▁REACTION的满分
▁BACKBOARD橙色迷彩小星星用鞋垫骚死你们
张韶涵没有唱▁FADED再见湖南卫视
在看▁PERFUME的直播字幕还有英文
补昨天的图啊▁DOLL战队
播▁KIND▁STOP的时候局一直往右那里看
一个人刚好可以坐▁COUNTER遇到的东京人
感谢我家左左抽空给我画个妆▁NICE
甚至像▁DRUG磕多了飞起来般开心
送给小▁HER这么好的生日礼物
现在好不容易办下来▁VISA卡了
而且我现在完全被▁NATURAL▁DEDUCTION拦住了
跳出▁ILLUSION看这些事情开始的我是对的
做一个▁KEEP▁SLIM的精致女生
▁SUFFICE的词根记忆怎么回事啊
得穿毛衣在▁GOWN里毕业了
不过▁OUTBREAK传染病难度是真的过不了
提出问▁SELF▁ACCESS▁CENTER原词出现之后
▁BATTLE▁MAN先生恭喜您获得大奖再来一次
▁MEMORY▁LANE刘勇才手上的柠檬的秒拍视频
以后▁FOCUS▁PULLER就坐在电脑旁对焦距了啊
不过竟然没有▁AWAKE这首都可以代表曲
▁GRAPH是清迈最棒的咖啡店
到公司发现忘带▁BADGE回家再出发
新发色真的很开森啊
▁QUIET人可以预测自己未来事业的发展
▁SO偷偷在发个今晚视频
在纽约▁RECRUIT中国学生做▁SUBJECTS根本不用担心
每日一词▁CONCERTED协调好的
从头到尾就算只有三人▁SALEMENT▁ONE也能打好
尹道贤的歌真的很好听不亏是▁MAIN▁VOCAL
▁NEW▁YORK周晨曦的秒拍视频
给每个人发了背面空白的▁HANDOUT和笔
▁JEEP和图昂发挥正常表现
用五千米的机制▁PAST▁EMERGENCY复训
晴天的秦皇岛没有那么讨厌了▁PHOTO▁PRODUCER
每次上计算机课做▁ACCESS的时候
我们▁SOFTWARE队一点都不▁SOFT居然赢了足球赛
▁BUTT有改善觉不觉得我比以前好多了
▁NINE▁PERCENT它叫油长镜来自马来西亚
欧美女性确实更▁CURLY但她们股价更宽
想听你唱碧昂思的▁LISTEN
电梯里我礼貌性地问▁WHICH▁FLOOR
人生才开始怎么能收场作个▁FIGHTER多好
金牛座的女生真的很好▁I▁AGREE
▁HEADLINE普普和法国总统马克隆会谈
▁TRUE▁GUMS是我青春凉倒彩虹后的阴霾
真的太难唱了宝宝不如我们录▁DESERVE吧
白云朵朵开晴天总是▁WORKDAYS
生活是很▁MEAN的每当我忍不住去
读了图书馆借的书翻出了那么多▁TRANSFER
最近的▁CLUMSY程度简直堪比划了三包胎
▁CREEP原版和生岁月
第一颗星这本▁DOLPHIN差点没哭成傻狗
我才能像他一样精致的▁FULL▁SET
然后就有人说▁ARRANGE好听啊
受益匪浅的▁CAMP认识你们真的好开心
可不可以直接拿▁TAKE▁AWAY▁MSG就走人
查雷查去都是▁OVER▁CAPACITY
看▁TRIANGLE现场哈哈哈哈假唱了
即将▁BE▁ENGAGED你让我又开心又伤心
算了直接表白你张涵▁HANDY
磁兔也迷离今日可谓▁QUITE迷离了
没有比穿尼尔玛▁LAB出去更开心的事
并不需要去▁LABEL这种感情
我以为回到了▁WEEKLY第一集玫瑰剧场
是因为我▁HANDLE不了眼前的枸杞
▁INNOCENT的这款抹茶果汁也很恶心
▁NIGHT▁CALL微服务脚手价然后开源
这间▁CAFETERIA就我好看哈哈
我会因为一个▁CLAW▁QUIZ从十一点做到十六点十五
这么奇怪的设计咋可能是▁FLAME▁TOYS的
真希望能顺利找到▁REFEREE
更深入的内心话只有我的▁FLOWERS
有一张三位▁SPLIT分集和一张现场专辑首发
▁GRIP与蜡烛已点好生日歌已响起
一把伞弹一把▁SCORE本人越来越菜
朋友问我之间有多少▁BUZZET
早期的▁SCRUPLE▁COMEDY几乎都有他的身影
今年的节目又把▁FLOWING放出来
不过是一个超迷你的▁GROCERY
快来个▁GRADUATE访问学者也行
买不到票的可以试试▁BYPASS
▁GENDER▁EQUALITY的部分蛮有感触且观点合理
我和▁CABBAGE的战斗力真的强大
用篝火把▁NPC女孩困住▁LITERALLY稍稍强掠了
▁HARMONIOUS和谐是源于音乐的概念
▁GIRLS▁SHOP痛病快乐着微信出问题没法上心
突然很想发一个▁TERRIBLE的心情
无线重启无法进入▁RECOVERY
第一次看▁SWAN▁LAKE的现场太美了
▁FINE现在嗓子哑的说不了话了
他觉得摄影师很帅▁SERIOUSLY
独立做了几个▁INCIDENT之后成就感爆棚
我说那你可以当▁AUTHOR啊
老师推荐了两年的电影真是很▁FINANCE
很多人印象里只有▁MASCULINE的才叫男人
有些事真的是命中注定▁HAPPY▁BIRTHDAY
我觉得我可以▁BUY▁IN五遥之马力
在▁BASEMENT围着壁炉看电视
如果形容词完全缺乏描述▁ATTRIBUTE
周一整个人已经▁BOUND▁OUT
除了▁EXPERT粉底其他好用的推荐给我
发了一个说说就有十三个▁FOLLOWERS
顿时梦境和现实有点▁OVERLEP我有点懵
讲完还说这是▁FINAL▁WARNING然后把我拉黑了
可能我们是一样▁EMOTIONAL的动漫
▁PORTER和▁CUNNING真的是每个演员都不一样
烫出小脑袋▁COKE大咯▁LUG像吃披萨呢
要求▁AGENCY不合理的加班
替个所说的▁INCIDENT到底是什么
然后一起驱车去了▁CABLE▁BAY
来年再战把▁GO▁FISHING的人们
▁DEADLINE让我爆发一把一堆▁RUBBISH交上去
本可现在吃▁EIGHTEEN还来得及吗
最后一期的▁WATS▁UP也是非常薪水了
亚欣拿▁SANDY的话说就是缘分命中注定
早上七点▁INTERVIEW晚上七点考试
搜索▁SUPER▁MAN会弹出几百个不同的歌手
图四是▁PAGE▁ONE有三层还挺大的
最近要呕心沥血找出一百三十五条▁FEATURE
▁GUST剧本里有擅长写这种剧情的人
要振作起来把▁THESIS拿下
流水的情人节铁打的▁CLIMB
被母公司分猪肉一样出售就是被▁SELL▁OUT
查了九月份戏剧节和艺术节的▁PROGRAMS
希望每个人的▁LOADING不要差太多
是很值得期待的啦▁MOMENTARY
▁LATELY如果这辈子你没有我
嗯美帝的▁CARROT也要看看这个
就必须小桌子▁PIT小音响吃的
我的▁LADDER模糊成了这样第一次独自▁WESTERN
明天早上不下雨终究没逃过公司▁TEAM▁BUILDING
路过一家咖啡馆▁PASSION▁STATEMENT觉得不错
所谓的合法与妥当说▁LAWFUL
这两个人▁PACE也太合了吧
巴库这个赛道恍惚间自己在看▁FORMULA
▁CATTLE就是报纸上报到谁被暗杀了
第一首歌▁SLEEP▁TIGHT非常应景
看到敦克尔克和致命魔术的▁FINAL▁TRICK
小王子是怎么喝的美式▁RESPECT
终于来看高等了▁BULLY太可爱了吧
中国第一个▁MAJOR冠军昌平泰迪超凶
这个是▁ROB当时喝的矿泉水的水瓶
我来嗨一下去知道了吗▁BURGLARY
收到一些邮件明天▁FIRST▁WEEKDAY开启
安排好自己的一切▁BY▁YOURSELF
和书妹和她的同事吃饭然后跑跑▁IRONS
现在重新回为▁ARTIST可惜了
好可惜啊没听到▁ANGELA的▁FADED
按如何煎鱼皮不破的▁STEPS做的鱼破了
错舍不羁是时候重新上路了▁CHEER▁UP
如何办一个成功的▁GIVER▁WAY活动
明天想吃东西▁REBUILT一下了
原来▁MOSQUITO也有美学概念
抵押品挑战计量器▁MORTGAGE恩
不死心今天联系了一个▁LABRADAL▁BREEDER
考一场试写篇作文搞完了▁DEBATE做完了▁PRESENTATION
▁POSITIVE▁PSYCHOLOGY说爱拍照的人都是幸福的
在船上的▁EIGHT▁HOURS犹如▁EIGHT▁MINUTES
时装周前几天我做▁FITTING的地方
被捕盼▁HOME▁ARREST八个月假释三年
▁NEWS▁TWO和▁SHOWER狗相爱四十九天
▁BARBER理发师今天去剪头发咯
一般人尖叫不断真是▁EXCITING啊
竟然要到了和他的合影还有▁EMAIL
他发箭头都是一辈子的▁NO▁RESPONSE
一个▁ROOTS让我玩了快两天卡住了
你肯定也爱过一个▁WRONG▁PERSON
刚刚我试了下▁FLASH▁THREE不能说彩雷吧
小八在大学毕业后选择▁GAP了一年
刻在血肉里的▁YOUTH老流氓太骚了
胆战心惊了很久一个关于▁VOLUNTEER的
张星塔的英语竟然是▁ASTRONOMY▁TOWER
体验过▁CHARTER▁SCHOOL比公立学校灵活很多
邮件签名改成了四种语言的▁REGARDS
元单之粉▁PRAISED涉及到这个原则问题
通过关键字▁DELEGATE来定义尾
当年选择称▁DISABILITY为障碍
▁ECHOES限定版送的▁DLC码提前送第二代的话
开学前我希望能看完前五个▁CHAPTERS
我儿在学校管乐团吹▁TRUMPET
别人用英文吵架的时候只能听懂▁RUBBISH
下班回家刷几个▁VERBAL都能算上自我感动
▁PHILOSOPHERS▁STONE就是闲者之时
赚了那么多钱为什么不买▁LABOUR
每每黄老板新单▁END▁GAME首发
这是一个我要学会的单词▁EXERT
谁收了多大▁I▁SCHOOL的▁OFFER请联系我
孩子们都期盼着▁EASTER的到来
▁MUM当时说我们还两年好吧
▁TIDY泰迪做活动不降品质刚刚的良心
第三季也是听到了这首▁YOUNG▁FOLKS
▁TORTURE残酷到要暂停缓缓
他简直就是▁HOMELAND女主本人啊
彩色的笔芯用完了我还没买▁ZEBRA
又重启了一次才成功▁AS▁USUAL
我在▁GOLDEN▁SKATE上翻到一个网友留的一段言
面试等▁FORMAL沟通等式描述
就像▁GREEDY▁ALGISM我无量每步最大化
我特别喜欢英文里面▁DILEMMA这个词
过几天让▁VECTOR陪四幺六回总部去维护下才行
各位旅客前方到站江山▁STATION
这一百是我对自己的▁VALUE的交代
▁TWINKLE一趟难道不是莫定的吧
我们学校有▁MINI▁SEMINAR
好了朋友圈被我▁DISABLE掉了
像是一首温柔版的▁CREEP
一场迅猛已久的▁EXCURSION冰雨火的洗礼
我喜欢你的是那些▁UNCOOL▁MOMENTS
你们经历了贵校建校以来最大的▁BRAIN▁DRAIN
我们的▁POSE不带重样的
我啥时候开始变成了▁SOLO▁PLAYER的
看有人在朋友圈发▁PARASALING的照片
拒绝了携程之后我是真的要开始▁GAP▁YEAR
这也是最坏的时代的含义了吧▁PITY
手帐集身上买的迷路▁DEAR哥的鱼卷
尤其是今天的▁OUCH那一段
因为有脑子有信念有▁SPIRITUAL▁GUIDE
一个疯狂爱上▁BOWLING的人
当时▁LED的蔡徐坤演援也是很棒棒呀
单词量又回到了▁RESEMBLE和▁FERTILIZER
每年都给▁FANS过生日还亲自做蛋糕
▁TASTE打卡失败开门太晚了
灭霸和乌木猴的颜值能提升两个▁LEVEL
来自于十八世纪的宗教派别▁THE▁SHAKERS
听这首歌就想起约翰米莱斯的▁BRIDE▁EYE
我真的是把我家诺宝宠成了一个▁BULLY
▁HARGANY▁CARRIAGES司机们可谓是一群名副其实博学
我▁BARELY▁IT我怎么会爱吃零食
仅凭▁IMAGE和▁IMAGINE如此相似的组成
▁IMPACT和▁GROWTH的文章经了我一身冷汗
▁RECEPTIONIST今天生病我就临时成了接谢员
不要被琐事打倒像▁SUPERMAN一样去战斗
一个能在小舞台上唱歌的校园小▁SINGER
▁URGENT▁NEED半夜等回复美国的邮件
写着写着就能▁FEEL多点▁SCHOLAR的感觉
过山车星球和▁STEEP都还躺在购物单的
想看林村化所罗门怎么处理作画▁COST
不是▁CELL有机食物我是▁CELL痛苦
要让人听到他们自己的声音美食▁MODELS
吃的真的很不错人也是真的多见到
在书里看到一间名叫▁BOIL的杂货店
非常▁INTERPRETER▁FRIENDLY以及每次口译
玩家的第一反应就是想起来▁GANGS和▁BLAME
给▁COUNTING▁SHEEF打电话也说不管动物
醒来时▁SEND那一句我好想你
吃中饭化妆出门逛街▁HOORAY
出于正义或对不公正之事而发▁INDIGNATION
别用▁EDGE你去装个▁CROWN吧
这个世界没有哪里是自己的▁HOMELAND
▁ROSES定位南京夫子庙花鸟鱼市场
看到▁SANDY的话克制不住自己的情绪
绑发带吃西瓜图还有第三期的▁SHEEP
你还是要期待下个月的▁HONEYMOON
目前在空投中会用▁TELEGRAM的可以领取
顺便送了本▁LITERARY▁REVIEW给我
▁FIFTEEN昨天收到壮壮的病理结果
看着那些曾经是▁FRIEND的人变成了▁FLOWING
骑车要在机动车反方向的▁LANE上
所拥有的一切都是很▁SHAMEFUL的
我们是汉阳大学▁CHINA▁LETTER社团
现在圆兜圈里也就看围上和▁PRIEST
今天▁WAG广东人为什么都草莓菠萝站
▁HAND▁OUT还没出来问题也没准备
姚晨米兰走向▁FITTING花絮福利送上
回收的这个▁LANDING太不可思议
怎么现在我就已经▁FAT极了呀
我说你是不是喜欢▁LOVELY
▁ANGEL这个梗在我这里一直没过去
他是石黑一雄的粉丝送了本▁LITERARY▁REVIEW给我
我爸看到我穿了▁PUMP▁FURY说这个鞋有点根
▁BLENDER最好玩的功能就是雕刻模式
吉诺比利还没喝▁GRANDPA▁JUICE
最喜欢的生写▁HARM其实喜欢特点
刚刚▁WAGS突破十块单机操作就是厉害
怎么办▁RIDDLE▁JOKER还没进角色线
那姐这么美杰哥把持得住吗▁INSISTENT
贴脸拍照会东京已经▁SOLD▁OUT了
用▁APPLE▁PAY坐公交地铁觉得很方便
果然少年的爱情和少女的一样▁BORING
突然想吃汉堡包▁CHEESE▁BURGER
一边是东大五月季一边是去看▁RUGBY
▁TOP▁BREEDER鸟人与鱼的秒拍视频
现在超级后悔买了▁SLIM的本子
▁JOBS对于网络销售的判断
我以后开始尝试▁LIPSTICK了
▁STRETCH▁ARMSTRONG你值得拥有团支书
一个▁RUNNER要再次强势入住健身房
买了几件故宫▁SOUVENIRS艺术还算是生产力
第一张是▁VERY渲染出来的图
▁GRAVEL是生词不小心画成信号词了
保龄球自助生日蛋糕最后▁SLEEPOVER
都十二点了怎么网速还那么▁UN给力▁VERBAL
世界上第一颗▁CMOS▁SENSOR的设计者
明明可以做成▁HAPPY▁ENDING
项目组的第一次▁WEEKDAY全周
每天窝图书馆吃这些▁CREEPY▁SANDWICH
看见▁MARVEL这个单词第一反应是漫威
很尴尬地接了一句▁NEW▁EAST
真心喜欢▁SPHERE永不解放
跟吹牛▁UNPLUG的不插电板比赛比赛
周六正确打开方式▁OVERTIME都应该
遇到能▁COMPLETE自己的人是大缺心
被分到▁MEAN的外国姐姐心里不爽
你可以轻易把自己搞得很▁MISERABLE
跟看的书里讲的▁DETACH有异曲同工之妙
▁SCRATCH板跳一跳已经测试中
▁EVERYONE好好笑一个人打全队也好好笑
▁ARROWRICK用于矫正赛道数据的
去年还去上海看了▁BARON了
今天我们要学的词组是▁POND
我们只需要提出▁REQUEST不需要与供应商▁NEGOTIATE
给小姐姐当▁DRESSER开心到手抖
我也来立个▁FLAG就是这么自信加油
昨天非常凶狠地做了十六个▁SPELT▁BREAD
暂且将就一晚然后去▁MOTORBIKE
莫不是提前进入▁TERRIBLE▁TWO
这个较滴滴的▁POSE我喜欢
来到了小伙伴打工的非▁CHIPS店
所以分道的▁CONGRESSIONAL▁DISTRICTS很少
▁MOVIE▁NIGHT电影节这几部最期待的了
只能吃▁PROTEIN▁BAR哭着去上学
英国文学老师你的▁HANDOUT为什么如此拗口
正确的▁DARK▁DIVE入水方式
感谢领导带我▁INVOLVE到各种项目长知识
在国外叫▁STRAWBERRY▁QUARTZ所以国内也跟着叫
千万不要去看▁CAGE▁DIVE不值得又不好看
好怀念▁BANKING上班太无聊
现实中的事情总没有这样的▁ROMANTIC
你口中跟欧美模特很配一点不配▁O▁K
▁WEEKDAY就是爽去哪都不用排队
在▁MAINLAND不要发表任何观点是最好的
▁I▁FUND投资你是什么样的投资人
我想起上学期在▁NEW▁SCIENTIST里读到的文章
忘记发会考纪念证实地▁FAREWELL
论拍摄角度的重要性▁NATURAL微笑唇
因为凭才华和能力能▁PROMOTE的女性少
他很无奈问▁DISCARD是什么意思
好像发型一直变▁SEVENTH幺零零九猫鼠八官博
加娃娃全靠好位置之▁AMUSE猫咪兽撕舞
剧情里西蒙尼发布会坐在▁HUNTER旁边
房东把▁GYSK买的▁SHELF扛回来了
看了几个▁REACTION又跟着品了好几遍这▁MV
光速▁TAKE▁SHOWER钻进你闭弯睡到屁股晒太阳
▁JET▁LAG凌晨五点自然醒超醒小伙伴
我会坚定不予▁PREFER▁CD的言
▁UNFAIR却又无可奈何的事情能怎么办
小姐姐要准备连▁ROUND啦
今天德国▁GAP▁YEAR的朋友回来
▁OVERTIME到底是怎么样的正能量啊
考前日常迷信明天周一▁WORKPLACE▁LEARNING求过
怀念▁MY▁CHILDHOOD母亲节即将来临
一群很会吃很随意没有▁BUDGET的人真的
这里的▁SOUVENIR居然是卖周边的
又看了一遍▁SIGNAL
一天吃饱饱就可以起到▁RESET的作用
▁CONSTRUCTIVE▁CRITICISM才是批评的正确姿势
我们这周的▁WEEKLY▁VLOG很后面有讲
航班取消▁CLAIMS又要忙了
三人死以为▁STROLL会留一个车身出来
今天要▁CHECK▁OUT我也留下了几行字
看了好几天▁LAW终于看懂了
这次的演讲将三八节和▁WHAT
小▁BEE们把钱都留给开司吧
最后被小气的舞蹈▁SHOCK到
不读了我女▁FEEL服不服
每次压力大的时候都会无比想念▁DELAWARE
很多▁JAM在出口的那个玻璃前后举着
这个▁REFEREE▁REPORT又要拖到最后一天了
▁SNOWY雪哗哗地下忽略土儿丑丑的般草
搞个▁BANNER链接搞成一基金的
▁DIESEL的质量真的对不起他的价钱
▁PEA包子成天给自己加细
最后一浅基本是▁FINE▁DIVE
和小迪一起玩▁CLUISE游戏
洗洗眼睛继续向前远离▁STALKER
我的隧道游▁CRANE更是帮帮哒
无意经过小意大利吃到了▁SALT
都是在等着看看这些好剧去了呢▁SPRINKLE
▁DRAMAS一部令人大呼过瘾的女性犯罪片
为什么每次小王都能在▁POOL
每▁SEMESTER是真的没人微博故事
▁CLICK信号超声波通常十二万赫兹以上
五十楼▁SKY▁FARM俯瞰景色真的不错
要我写▁SLAVERY还那么多要求
每秒一个▁PULSE胸疼胃疼哪都疼
感受一下去奔跑吧兄弟▁FRIGHTFUL
▁FLIGHT▁SERIES在小顺序发售了
▁ODD一一二二一直被玩坏了的猫咪
我在▁TELEGRAM上创建了一个▁CHANNEL
▁FIGHT▁COW的汉堡建议大家去尝尝
自己思维城市化一点都不▁CREATIVE了
只考虑是不是还有▁PRODUCER▁SURPLUS
一家之言基油曾老熟富露脸▁THUNDER的笑威
如果来法国必须来尝一尝▁ROASTED▁CHICKEN
今天下雨有点冷没起床的▁BEE都快起
今天不但没有人告白而且告白被▁DECLINE
▁TELEGRAM它有一些很特别的功能
他现在在▁BROOM的一家医院工作
▁EXPEING▁WORKLODE果然能带来许多新鲜的东西
刚开电脑就出现蓝屏且提示▁RECOVERY
我看着这么火的也是很喜欢的▁CLITER
怎样才能让我自己记住▁PRESENCE的重音
还▁LEAK这个拍视频的人口味重
恢复正常去西尼大学的▁EXCURSION
去完北极做面包回来学▁NURSING
试着用机械臂▁WAVE出一个▁PATTERN
▁OR外食而内需烟多而艳少情损之
二婚不允许办婚礼和收分子钱▁LOGIC
因此我们的世界一定是▁SELFISH
自制西班牙摆煎饼果子自制▁PEASE辣酱
高音全部应唱▁STRAIN听着右扁右肩
十月过了应该能九双▁HAM
最爱的就是组里的▁GOSSIP▁TIME了
谁来告诉我这个模糊的▁ACHIEVE零零三是虾米啊
▁PASSENGER的歌听多了容易治愈停一停
我最近买的最满意的是▁BLENDER
去一个小艺术馆▁FIELD▁TRIP那里的院子
结果就是周一找个▁BRANCH继续解释心塞
第二个视频里空姐的▁REX不错
听完一整首▁ECHOES都没睡着
背到▁LOGICAL的时候就很怀疑了
让我们来期待一下▁TONIGHT
想抽雨蛇神金光一闪是▁RIDER啊
是不是还没有任何▁BOMB▁EPISODE推特啥的
在这里有花有咖啡▁NO▁WEEKDAY
▁TEAM▁VIEWER我用来远程控制公司电脑
小孩也能吃▁TRADE▁CHEESE
▁ENDLESS▁LOVE太美太好听了吧
没头绪从哪件事开始做起都是▁URGENT
我最近被▁DROPS迷得不要
▁TELEGRAM电费报成及免费梯子
曼谷的行程仅能没有▁THE▁AUTHOR'S▁LOUNGE的下午茶
▁PRIEST这个饭真的要了我的小命了
想来买一杯▁BUBBLE▁GAGA犒劳考完的我
心情就好了果然上课能▁HEAL我
不过▁HAMMER这玩意应该不至于就出场
是不是该咬咬牙去看她的▁LIVE呢
经历了▁WARNING我的▁ROOT编程终于运行出来了
压根不知道▁REFUSE是什么鬼
孔雀蓝▁PEACOCK▁BLUE是一二五画出来明显不一样
▁TULIP也超美不用去日本了哈哈
演技真的不要好太多▁CORDIALLY
早知道今天下课路过▁VITAMIN▁SHOP买点儿
可以不要和作弊者▁CHEATER同流河污了吗
反对皇帝▁AGAINST沉默造起来吧
不舍得看到大结局▁NICE▁ENDING
控制不住▁SEND了信息给他
这周▁WEEKDAY就老老实实亲切的账吧
英国带回来格雷茶澳洲带回来▁SALT
应该有个法律要无故开大灯的上▁TRAFFIC▁SCHOOL
给大家介绍一下我的▁PARTNER
有道问答▁TYPHOON和▁HURRICANE究竟有什么区别
不用担心各种奇葩的▁SMELL
▁BE▁STRONGER不要被这个世界的残酷击败
不是好的▁TOURIST会记录走的▁SCENERY景色很美
▁GO▁BANANAS固定短语意思是变得十分气愤
妈妈就超级满意了比如▁SPY那时候
天台上▁OWNER说要跟五十一单独讲话
哎还真是▁GRANDPA对我好啊
背单词▁SALE就记住了母猪的意思
留声机里放着我最爱听的▁WONDERFUL▁TONIGHT
▁UK总结了十八个记者可利用的数据来源
完全忘记▁C家家▁STATIC是啥意思了
▁SPECTRUM附近步行可到超市商场银行
说我爸妈是▁ENGINEERS你敢信吗
这款产品的另一个亮点在于采用的▁AIR▁THING
邮件开头的问候语很▁RUDE
连▁HIVE还没写明白每天各种语言切换
背单词背到▁ROTTEN▁APPLES觉得自己很可怜
白带鼠是▁RED▁NECKT▁WALLABY的白话种类
从▁AUDIENCE到▁PERFORMER这次十佳也让我知道
▁PROCLIVITY与▁PECULIARITY没关系吧
看腾效挑战杯材料计划▁ROUGH到吐血
我脑子里▁RESPECT是期待盼望的意思
一直不停地去▁PUSH自己做这件事情
只要做网上课程就一定会崩一个▁TRAINING
▁AFTERNOON▁TEA的春季杯子太好看了
这就是开心的小龙虾是▁SIMILAR▁TASTE
真是个▁RETHINK有▁RECIPE三观的过程
翻到了一个去年初高考成绩的▁DIARY
▁WAX要你加入拯救汪星人行动
▁PISTOL十三送你一个现实红包
▁SUBWAY应该像▁GRAZE一样弄个定期外送服务
发布了头条文章▁LV▁SPEEDY枕头包
▁RIBBON的现场我可以看一百遍
去江北酒街随意拍了路边的▁PERFORMER
前一百圈两个▁CAUTION算上▁STAGE就是四个
很多还不是这个▁COMMUNITY里
我就想问首页▁CUBE新女团名字咋读
现在和未来我们在一起不分离▁BEST▁REGARDS
每周五的▁EXCURSION就算是出门旅游啦
论还有什么理由是阿思不能▁MURDER
你太容易满足了一点都不▁GREEDY
在▁MTUC排队十个▁COUNTERS排队还要十分钟
既还没毕业就收到的礼物▁DEEPLYPLY▁GRATEFUL
突然一下子就好想学小▁S擦眼泪哦
最近看太多单词▁SALE竟然认不出▁SALE
所以说▁HIVE的必批真的是一个神奇的游戏
网友▁PIRATE二零五零楼上分享了在巴厘岛遭遇
听说有人看不见我的木马▁TESTS
三年过去找酒姑娘的要去▁CELL桥了
所有▁HEDGE▁FUND都在干的事情
▁SOUVENIR可以有人穿也可以无人穿
▁SPIT斯佩尔特葡萄干欧包
▁PROSPECT的那个地方不知道翻译是否正确
▁LEAVE如果颠倒过来就变成了▁EVIL
想想这组合的命运听▁DESTINY越发心塞
解说是用▁TINY来形容邓玲妮的
有个人酒后驾驶遇到警察社的▁ROAD▁BLACK
去▁SOUVENIR吃饭后稍微打起精神
▁LEADERS公开小哥哥首次代言拍摄现场
一个人玩▁TWO▁PLAYER的游戏都说是高潮
大半年了才想起来到▁CASTLE▁MUSEUM逛一逛
李雷和韩梅梅他们宰了▁POLLY炖肉吃
但都坚持下来了那是因为有你▁MURMUR
以及终于我也说出了那句▁FAREWELL
四月第一个▁WEEKDAY打卡回去奖励自己
那个▁STRICT▁TWIN坚决不能买坚决不能吃
被各路大佬拉着学数学先是▁ALGEBRA
现在这些都成了▁PUBLIC▁DISCOURSE的一部分而已
▁AMUSE最近出的最可爱的系列了吧
没有一件▁AVAILABLE▁SOHO这边通风很差
没好好考证根本不▁RELIABLE
唯有晚点不可破▁SANDY罗
为什么这样光明正大模仿还没被▁BULL
一说话就冷场之前▁TAPE被说关系尴尬
▁SITE走不拆因为不懂价
我们的故事第三年▁ACTION
秋分那天▁COCO准时进入▁PENNY贝贝模式
日本▁VISA永住者数在所有外国人中
▁MUSCLE▁INN拼盘很好吃海红很新鲜的
我的幼同桌说我还是戴眼镜好看▁SURE
开始工作了勿需年二零一八▁KEEP▁ENJOYING
看完另外四个▁CHAPTERS洗完澡我来看大玉
我会一直支持他的▁SNOWSTORM
上课课件▁HAND▁OUT各种▁MATERIALS乱七八糟回忆
不会健身的▁CODER不是个好的
应该抛弃▁PROMOTER一下下去旁边吃个蛋糕
来对▁IDENTIFY▁POLITICS理解和共情一下
有关▁CANCER话题不敢涉猎但那天看完了
结果摆着这个▁POSE睡着了
有人知道▁VISA这首歌的前缀音调吗
老路虎▁DEFENDER虽然停产但热度依然不减
穿过▁PUBS后来到了一个仙境的地方
走到二楼的一家名叫▁SINGER▁CAFE的咖啡店
每次周五▁MEETING就问我周一能看到▁RESULT嘛
要抬盖还要巧克力还要一杯▁JACKS
但是这两个▁PHRASE是▁INTERCHANGABLE的吗
闭上眼睛都是柜子资产▁DISPOSAL
听到▁INFINITY▁WALL的那一瞬间捂上耳朵
就是路由器和▁INTERNET连不上
希望胶兰▁C▁P▁B小棕平▁LAER救我明天的脸
这两天迷糊的老旺打卡前天是▁DAY▁FIFTEEN
已经搭配好营养成分的▁COMPLETE▁DIET深骨肉
▁BREAKING真棒英国暴姐的秒拍视频
▁LEMON成了最近常听的日文歌曲
有几任老板都称我是▁HAPPY▁PERSON
在我们心里他就是▁JOKER就够了
我的▁CHASE▁IDLE之路距离暑假还有三个月
然后咖啡终于记得叫它换成▁SOY▁MILK
愤青多又怎样▁HOME▁RECORD多又怎样
好我的目标又变了想找个▁JUMP男友
时间不等人大家都在▁MOVE▁ON
▁VARIOUS一到考试啦感觉自己不会就想哭
那年还有我最爱的团四▁TOPS
比张▁CHEAP面膜里夫等你参加车友会
才发现百度人就是▁I▁BELONGED
天安海角▁LANDS▁END你在哪里呢
半天听不懂不停的说▁PARDON
第一次银行主动▁SUSPEND支付给我换了卡
▁CONTENTS六六个▁S总被总编发现
在这个▁MINUS六的倾城终于有一个人空霞
我要练出马甲线希望不是立个▁FLAG
▁STRESSFUL▁LAB好像都是韩国人试图抢别人课题
▁BUNNY也挺惨的搞得什么啊
现在多了一个▁GAMBLE但是每次都很新鲜
快让我好好吃顿▁MEAL鸭鸭▁SHOCK
▁UGLY▁DELICIOUS里这段聊到的亚医心理
更新了▁IOS十一道克兰还是蛮好用的
欧二的▁RECYCLE计划可以回收你的旧手机
高度近视的我把▁BECOMING看成▁BELONGING
回家看久不见的老干部还是那个▁NAUGHTY▁BOY
很久没这样翘班▁FERRY了
把它拿下享受▁HUNTING的快感
内环线英语▁GLAD供过于求▁SHORTAGE供不应求
如果▁DRUG就是那部▁FRIGHT的剧情
▁MORNING▁PERCENT的第五天每天十二点前入睡
交往了四年半我才知道猪是▁DIRECTOR
这种看心情的▁DISORDER
老板经常做一些早就完烂的▁TRICK
下次我要买三种▁CHEESE和四种▁HAM
不骂人毕竟惹我生气的都是▁SHABBY
这个封面的▁CLIP还一直是俩人
若把性格看作一个人的▁HIDDEN▁VARIABLE
花样青春▁WINNER篇运动真是不行啊
总是想起这个时候的李哥和▁FAKER
当他张嘴时这个▁SKIN就▁UNFOLD
我刚又把▁SALT听成▁SAUCE了
贼可爱我眼镜是▁SPLIT同款
明明想是▁POCKET的字幕打成了▁PACKET
剩下一瓶水都买不到的几十▁YEN
今天老罗十分▁DEPRESSED说都▁OVER了
▁L▁G▁D干了液体拿了第中国第一个▁MAJOR冠军
开心地飞起多吃一块▁CHEESE▁CAKE
持续的▁BLEEDING真不熟的玉米
这集▁PENNY▁DREADFUL难看出新高度
这张比▁SANDY亲自上阵更时髦
但知道大家同一个▁INDUSTRY
向所有的付出与坚持所有的最美▁LIBERAL
小姐姐都知道▁INFINITE说她有一个朋友
▁TELL▁ME为啥他那样站着都那么好看
还没有男人给我买过衣服▁INCLUDE我爸
中国▁MAINLAND来美国开公司老板母中无人
好久没和小孙出去▁POKE▁INN背二期
味道还没披萨▁COMPANY好吃呀
毛五草堂清苦梦整敌今日▁CAMERA
▁DISLIKE的时候我们可以从哪些角度表达
我才发现原来我喜欢▁EVIL这种
▁CRASHING谁知道英剧情迷意乱有没第二季
▁DISCOUNT▁RATE也好多明天继续慢慢看吧
堆形分礼报执行封用▁FACTOR
我更有钱广播剧组▁CAST齐了真的心酸
今儿吃了一包▁BACON味的
▁CONSOLE的时候不知道败暂停
今天吃了▁CHEESE▁BURGER太好吃了
享受和本国▁S▁SCHEDULE的商演交到好朋友
背后各行业的▁LOBBY和▁DEBATE简直不要太精彩
终于吃到▁COLD▁SPAGATED啦满足了
能不能遇上个正常且▁AVAILABLE的直男啊
感谢一路走来默默陪伴的▁DARLINGS
考研有个好处就是你知道自己的▁PRIORITY
今年夏天已经四次把▁HEEL拼成了▁HEEL
升级把▁LEVEL拉得太高了
默默又用回▁LAMER心疼钱
想给自己搬个金鸡百花讲复杂的▁SITUATION
大石和手总的▁PURPOSE都很有趣
我想作为一个▁PRODUCER它的可能性最小
同样讲到了▁MEDICINE的暗示意味
据三明治推荐物美价廉▁PEER▁THIRTY▁NINE
但我最喜欢吴亦凡千千圆圆▁ABSORB
达到▁AVERAGE需要更多一点努力才行
真的很难▁HANDLE户外真人互动交流会
每周六早上起个大早去▁FARMERS▁MARKET
▁TEMPT闻着淡淡的荔枝味气泡很充足
▁PICK乘方与李子亭无印相▁PROBLEM三人组
▁DOVE小小的一只白白静静的
真正的▁SCIENTIST必是成熟的大人
▁SNAIL齐吉林东北电力大学
▁MARVEL什么的不存在的
判断一个人英语好不好只会看▁FLUENCY
我才开始看很多人推崇的▁HOMELAND第一季
互联网行业说百万一般都是▁PACKAGE
对白胡椒锅没抵抗力想把▁FROM▁FARM吃个遍
不然可能会死在▁EMERGENCY▁ROOM的门口
在婚测▁DUSK有很明显的内边界
这本▁JUNK▁JOURNAL内心做太多本了
下午能有自由时间自己坐下来▁REFLECT▁BACK
最终却还是沦为女生间的▁GOSSIP
下一季▁HOMERS欠我的金牌该还了
运动会告一代罗▁NEXT戏剧大赛
鬼知道我有多喜欢▁GUM时期的造型
另一个例子是存在▁PRESENCE与缺少▁ABSENCE
看最新一期中餐厅听到赤溪人的▁BANDAGE
做自由的人过有趣的人生▁LIGHTNING
权志龙十四日韩梅▁INSIGHT盘点的内容提及▁DRAGON
从社交媒体回炉▁RECYCLE不靠谱信息
觉得很诧异也很神奇有点被▁SHOCK到
▁DAY▁TENTH就果然要破灭的梦境
就算我最后给了答案多半也是▁NONSENSE
现在还是一听▁FUTILE▁DEVICES就起鸡皮疙瘩
▁BOY▁CRISIS出现真不是没道理的
虽然离我的▁DREAM▁SCORE还有些些距离
竟然为了▁REFRESHMENT而去听讲座
▁MARVEL这几年在国内原来这么红了
昨晚的▁DIET▁COKE想到今天我是仙女薇薇啊
一个视频讲做人要有▁DOMINATE
▁AMAZON▁PRIME免费看新版影音动画
这一阵子的▁HEADACHE能不能清空一下
▁DOG▁TIRE的潍坊潍坊科技学院
我却手里拿了张▁REDUCE▁SELF▁HARM的表格遮在脸上
我就穿上▁SNEAKER像男孩一样
他说晚上到的时候只有一些▁SAD▁DISHES
艺术家▁SYDNEY▁HANDSOME画笔下的软萌动物一组
▁JOAN▁DECAY李硕明被店被店被电
一次性搞定直击面试▁FIGHT
一个差劲的▁LISTENER不会是一个好的▁LOVER
第一个▁PANDA▁NINE分的中国人
▁PROBLEM▁SIZE题目原型来源于论文
这对我来说真的是有点▁UGLY了
新学期新制度还有密制▁TIMETABLE
林峰广州演唱会▁HONEYS继续约起来
这么虔诚拜中女孩相信一定会很▁SLIM
当一只很▁SMOOTH的笔摔到地上
感谢各位好朋友的生日祝福和▁RED▁PACKET
对着▁TIMETABLE博主陷入了沉默
只有▁CAMPUS才是真的爱我
读博的大大师兄排▁CHAMBER▁ORCHESTRA
已经得到很多导师的▁FOCUSES了
而且最民用的是英文▁CONTENT▁ILLEGAL
▁PISTOL▁SQUAT终于可以穿长袖锻炼了
遇到▁BLOCKING才发现我的驾照过期
▁BEST▁REGARDS看了感觉自己看着都被恶心到
就感觉返校的▁JUMP▁SCARE还是挺没劲
那天冲动了把删球了▁DISGUSTED
所以他的森太太才骂麦哥是▁REPTILE吗
这个评论可以说非常直白而▁ASCITIC了
完成人生第一份▁PART▁TIME▁JOB开心到飞起
跟▁DESSERT▁BAR的另一个小姐姐补完一轮甜点
与其奶▁ECLIPSE是反派还不如她丈夫是木
今天就想买双▁LOAFER手机被偷了
让你学会视频开头的▁SLIDE
出镜人心不入画场地西小姐▁SEVEN▁UNIQUE
刘小兰最喜欢跟▁MUMMY一起
二零一八年▁STARLIGHT到布尔猫社预订流程及简介
发生了什么事有没有▁JACKY给我说一下
很想说忘了▁MARVEL吧▁M▁G▁S能给你快乐
主恩的滋味不败的爱▁UNFEELING▁LOVE
上半年的▁WEEKLY和时间轴基本全空装
▁CHIPS还是饿想想一天没吃蔬菜
收获了几个新朋友▁EMAIL
找酒店是个体力活儿感谢我的▁SHOW陪我
▁SUCK每个城市的规划馆我都喜欢去
下张专辑说不定会出▁CASSETTE某形式
设了一个相册叫▁BACON
他今天找不到他的▁UNDERWEAR后
刘老师就要去国培了真是个▁BUSY▁GIRL
▁INFINITE每个成员为什么都很帅
▁CONSULE本意是会议▁RECONE反复开会
一起来见证我和▁RAGE的友谊吧
现在▁NUMBER▁HITCH附近的不是什么正经人
轻一些之前的内存听▁CHAT▁BAKER就想转圈圈
掏出自己最新合作的▁UNDERWEAR
从买车然后聊到▁LAMMER有感而发
▁POOR▁BABY一天摔两跤头顶两个包
很讨厌这种压榨▁CREATIVE的工作模式
脑子里一直单曲循环▁TIMBER
根据提示▁CLEAN▁UP一下整个目录
没有玩的地方本来去▁BRITANICAL▁GARDEN的
博轩的▁REACTION小博你怎么认头了脑袋
给小甜心推荐加拿大美食▁BEBER▁TAIL
等水浊卵月出了就可以跟▁ALTER讲拜拜
接着又看各国▁VILLA申请
果然是转▁TEAR你们太厉害了
我很生气觉得他很▁RUDE
好喜欢▁SPOON的拌饭又便宜又好吃
写作业▁TOO▁TIRED我不想做小学生了
今天超▁RELAXED谁照常喝两个苹果
再说一句自己是守规矩的▁FANS
带欺诈性质的就是▁LITERALLY不跟你来往
与谨慎的▁PIPE▁DREAM底死纠缠
感觉木布都融为一体了呢▁NOTION
愿有人陪你疯有人陪你傻▁TORTURE
对仍处于战乱中的▁PEOPLES的通情
这两句太戳了▁POINT▁CARD十分喜欢
▁THE▁THEME口红真是目前用过性价比最高
我看个▁DOOM都有人说像守望先锋
东门大学▁WIRE共青团中央
▁BORING每天都是练习练舞期待周末
最厉害的刚被发现抄袭▁FROZEN的颜色
看了好看的电影总之▁RARELY幸福
如果不能最后一个▁MAP▁REDUCE来救你
▁CHAIRMAN对他提出了一个小小的要求
我负责▁INVOLVE你负责▁MASTER好吗
反上穿上他的▁JUMPER运动裤超级大的鞋
▁AUTHOR著作家创造者作家
根据时长收费不同基本都是一千▁YEN上下
衣服的搭配那么熟悉▁DECADE
你看香烟壳上都写着▁SMOKING▁KILLS
来山里找了不老泉还有传说中的▁HOUSES
失格▁SUNKEN你能接下我电话吗
招五晚九▁LEGAL▁HIGH也快刷完了
就在算了两天▁THERMAL一道题没算出来
为什么要留下十三个▁TIPS呢
第一次约会你会选择在哪儿▁SOUVENIR吧
每天都在▁HANDLE零食事件中度过
这价值观冲突的剧情了三俗的很▁WITTY
东北三峡大闹东京挑逗▁POOR
▁OR乌龟是不可能打败他的
这个▁LOW▁BUDGET的真人秀我以为有皇冠
更新▁BELIEVER了要写就能一口气写好多
小女孩挑战▁PROBLEM竟然不破音
暴走法条军刚开始▁TERRIFY有待改进
去▁FORMAL▁DINNER和霍金和张颖人生就算圆满了
自己又参与提名了社团做▁TREASURER
▁THE▁ORDINARY的功课仿佛又回到了高中
安慰自己各种扯糖木周女还很▁LATE
主持人▁ENGAGE方式是观众和市场决定的
腾讯肯多出一个▁MILLION膜拜愿意卖给腾讯
要填的这张表格就是关于▁ADVICE的
完美完成今天的▁SALE饮料任务
再问一次这件▁CHAMPION的还能买到吗
微博转发都过了三百了才五十多个▁DISLIKE
不想做主唱的鼓手不是好▁BAKER
看▁RETURNS而圈粉的学姐安利我家的歌
小荷兰也不是第一次开车了之前▁WOODEN
下周去看我对▁PROSPECT▁MIRROR的比赛
林芳生日快乐▁HONEYS都会一路追谁
继续加油努力支持哦点个赞▁GERMANIST
▁CHAMPION的小猪佩奇联名款去哪儿买
▁KEEP▁FITTING华小镇的秒拍视频
▁NEW▁BEGINNING跟小姐妹们的聚会也很开心
可以做到的正向的▁POSITIVE的连接人们
全身做了▁LASER然后拼命的各种土乳液
买到一身装的▁ORGANIC▁VALLEY全职
半干挑▁OVAL这批品质真的很棒
因为没有球赛看而变得超级▁GLOOMY
我认为裸带是▁NON▁RESOURCEABLE▁DEBT
早上惊喜发现根据了▁OVERTIME
吃的复古的菜品造型也是▁GRANDMA风
今晚▁FAREWELL▁PARTY欢乐中带点离别的伤感
把▁GERMS扼杀在萌芽之中
是打开微博▁LOAD不到图片星人
这几年会是我人生中的第一个▁TOUGH▁TIME
▁FRANKLY▁SPEAKING我心里没有一丝波澜
科学家们证明了青花▁ACT高温超早兴
无论我们认为人类如何▁MIGHTY
一碗抄手一块▁AWFULLY满足
看到▁BALCONY这个词都会自动脑内转换成▁BACON
我知道目前自己所处的环境真的▁BLOODY▁SUCK
所有拿▁PENSON的人士包括老人退休金
电脑里的▁SKETCH▁UP到期了没办法
另外学了一个新词▁DOMESTIC▁PARTNER
这▁PROMISING让人觉得已经清点了吧
尤其是▁PEPPER还一直说不会有危险
今年的预卡费全交了感谢书香节▁BAIC▁CODER
发现▁BOOTH上的太太们都是珍惜动物
大南瓜居然长得极其▁FLOURISH
一套自七七人的▁SOCIAL▁CAMPAIGN一者人口基数大
小说再不是▁HAPPY▁ENDING就太难过了
之前▁NORMAL模式以暴击线二刷▁LEGEND模式
大型▁BATTLE现场真的很▁BORING
▁ANYWHERE▁ANYTIME只要是你我都会说好
让我站着等美国航空公司▁RUBBISH
怕今晚▁DELAYED上海还好准时找路西安
可怜的▁LILY▁LIVELY是个洗脚盆
新开酒店有客房也有▁VILLA
心疼我家的▁SERVANT这么冷呢还要冬泳
兵哥▁EXPLAIN第二张图标题一莫意思
这种表面▁COCKY内里自卑的台词
这周我被▁INVOLVE进了十三个项目
从凌晨的▁EMERGENCY到今天下午
从成都回来带给我的▁SOUVENIR
大哥你切▁NOTEBOOK就好好切满
我爸想来加拿大顺便看我和我▁STEP▁COUSIN
姻缘很好啊果然我们山花▁CAPTURE
▁COW这个系列沐浴露都尝试了一遍
人间是个好地方如果有轮回想你▁GRANDMA
现在收到要▁APPROVE租客的邮件
至少我也算是一个▁GRACEFUL吧
经验反应是唯一判断▁PITCH有效的标准
我可能要成为一个▁PART▁TIME书法老师了
浪漫的与其▁DOOM御姐范儿的产品成本▁P▁V▁S▁P
东南▁DX▁SEVEN▁PRIME上市发布会这车真的很漂亮
上件让我▁SHOCK的事就是送送结婚
我有个注水的笔译▁DIPLOMA
我就会觉得这个人很▁A▁S▁S▁HOW
遇上这样一点都不▁GENTLE的男人
▁NATURAL自然历史博物馆真的只有自然
一个人出门感觉不错▁GOOD▁TRIP
写作文写到这儿估计得用▁BY▁CONTRAST
到底哪里能买到▁ORDINARY啊哪里
▁ACCESS已经▁CLONE不下大文件了
▁DOLLAR三岁了有两个生日蛋糕可以吃
▁EASTER就是鸡鸭猪牛羊农业博览大会
还有哪里可以吃▁PRINCESS▁PRINCIPAL的凉
刚刚听见▁COMMON▁DENOMINATOR我都懵了
▁VIOLIN妙圣诞节快乐两周年快乐
读完▁EARLY▁ROOM发现自己用了四十分钟
拿着▁GRADUATE卡还在装▁JK
但是▁WICKEDY▁LEAGUES一提床破士气大增
▁FEED出最舒服的▁FITTING准备两周后的金山
都是这些煞笔▁AGENS天天来烦我
就因为在方便面里加了个▁CHEESE片
可是他有我没有水壶的英文是▁KETTLE
小哥那脸正太气配▁TRENCH可能还略为和
居然是亚马逊▁PRIME的会员了
在机厅边上定了三天▁HOLIDAY▁INN
终于编出了一组▁UNEQUAL▁VARIS的数据了
安卓▁ARCH十如果分盘分错了如何清除
天天上课七▁M出门时▁P▁M回宿舍
发布了头条文章▁TRANSLATE
在美国听课知识▁ANYTIME随时都可以
中国菜是▁MIX外国菜是▁LAYER
▁FIGHT的▁PURE真的超好看的但是质地不好
不想做▁GRAMMAR▁SNUB不过语法不好
牙医小帅哥都会▁POLISH我的牙齿
桃园▁SPIDER▁MAN尘封的秒拍视频
咩咩的女王杰主题派对▁DESSERT现在开吃
要戒▁SLIPPED▁TEA了最近每次喝完都难受
抹香精英文名是▁SPERMWELL之意是精子经
▁BETTER▁THE▁BURRY真是睡觉也想涂的颜色
我们的▁IDLE▁SERVES确实比往年成熟不少
买比特币的时候银行没有▁APPROVE
▁EXCHANGE纳斯达克即将开通数字货币交易
▁VIGOUR竟先进个人竟然登上微博热搜榜
▁THRILLER▁LIGHT▁THRILLER最后一张把鬼给拍没了
夏天的小浪最好玩▁SURF▁GIRL▁SURFING冲浪秒拍视频
我的鱼死了很悲伤▁OUCH下雨天
应小助理的强烈▁PROPOSE勉强拍组小清新
浩米收录在▁TELL▁WHIP这首小清新日文歌词
别指▁BESIDES也可以这样做的征集志愿者
在沙山家第一次看到▁WOOD▁STALK的▁V▁CD
这段经历至少不要那么▁BORING
一本让我▁GAIN两天大业才看到一半多
有内涵的女人真是越活越年轻▁RECORD
超市里换来换去就那么些▁SNACK
看了主任三篇▁BIRTHSGIVING日记
觉得心灵相通了大家都是▁RUSTY▁LAKE
有些执着那一个多月▁LITERALLY▁TOGETHER的小岛生活
▁GOOSE▁NECK没有去成也只有马蹄湾了
竟然欺负▁BUTTERS心疼小黄油
让自己▁RECENT▁PART是忍不住要去回邮件
贝啊和▁FEIA的音标到底怎么读
就是在不断的倒果汁和▁SPIIT中摸索
刘锦玲教你学英文▁AUTHENTIC▁TRUTHFUL真实
我跟他说只要你老板▁APPROVE
我今天翻到以前被▁DUKE面试的时候
英语课翻译说▁THING的好心情瞬间负命
儿子在百科里查到英语名字是▁BLUE▁BUTTON
▁FAKER二十二岁的你一定更美好我的大魔王
饭贱萨的都干一边儿去吧
窝已经在▁PROLONG上卡了半个月了
现在大家都不在电影院▁COUNTER买门票
今日份▁PURPLE▁RAIN和头排室友
怎么用▁FUTURES去套利你学会了没
拯救了我的腿和▁WEARY的幼小心灵
看电影大声喧哗的人是真的▁OFTEN
我只是▁COMMERCIALIZATION复习啥了而已
一天▁ENDING虽然累到瘫痪但是超级开心
重新买了个小米宁可当▁INDIAN了
希望没有活成那种令人讨厌的▁TAB
你随时可以回到这▁SUNK的现实世界
深夜教案▁TEACHER和▁STUDENT角色随意切换
怎么会有▁TOYS这么甜的组合啊
除了用▁HANDSOME想不到别的英文形容内心
▁COLLECTTO▁X▁EIGHT轻音好听言谈秋死的秒拍视频
我当然希望他的▁TEAM能拿▁CHAMPION
▁BOUNCE那一下可以看几百遍
健身教练的▁NEGOTIATION▁SKILL简直差得令人发指
不要为了不必要的人不开心▁OURS
可能会因为别个没来而空出来的▁SITE
姐姐看电影去到了▁CINEMARK▁MOVIES时
小囧接着说跳跃是▁JUNKING你知道
▁QUOTATION▁APPROVE等到快封掉并不是梦寐以求的
中间这段序列▁BLAST之后发现是鲤鱼的
▁MIGRATE到美国只怕是美国中产片下一点
不如今晚把▁PAMPHLET做完吧
发现▁OVERTIME的又不止我一个
很多成年人世界里才能▁AWARE到的东西
就没有四百左右能买到的▁BENEFIT的腮红吗
以前参加过一个▁TEAM▁BUILDING
他就是真实存在的▁LEGEND想想未来
看完▁LOBBY▁HERO只觉得很迷不太推荐大家看
▁UNDEFINED春天是万物复苏的季节
▁SPIDER俄尔古纳拉布大林街区
美好的假期从美美的▁DAZZLE开始
▁AGENCY▁FEE是不是都拿来固水晶了
我应该多听▁HEART▁SHAKER三个月句话也没说过
失眠了▁EYE无睡意我在干嘛
蛋糕工作室▁YOUR▁MAJESTY新研制的甜蜜蛋糕
真的好想看懂我▁SUBSCRIBE的医学类的▁CHANNEL
主动反抗自身卑劣性的行为值得▁PRAISE
给我妈买个口红最后还是买了▁GO▁BROOK
清冷华盛顿刚刚好非常▁NEAT
最近看告诉发▁GIRL迷上了发带
▁CLIENT还▁COCO搜搜我会上心
科科▁GRACEFUL的性格是由这些成分组成的
▁SLEEP▁TYPE不想再梦到伤心的事和人
同事们各种▁SALUTE的感觉超级难受
英语单词特训完成一百单词明天继续▁WARM
▁QUALIFY是你心里面的大石头尽快搞定
妈妈做个▁DETECTIVE这么难啊
我也是想着先去看看这个故事▁EXPLAIN
如同越狱之▁TEABAG为聚集千粉无数
一点到了机场发现▁COUNTER已经▁CLOSE的
但你知道▁DISPLAY有三十二种写法吗
李静▁WEALTHY双规制直销真正陷阱是什么
我拿家里的小▁LOCK盒给他装甜品
等这六个▁BLOCKING已经等了五个多小时了
同▁ACHIEVE目标不同的梦想支撑着我们
在一个人▁HANDLE了很多事情的时候
嗯美帝的▁CARROTS也要看看这个
要跟我▁SHARE剧情额对我进行疯狂表白
自言自译的可怜虫沉浸在▁SELF▁PITY里面
最后浪费老半天去▁GUIDANCE▁OFFICE问
我的▁CHANNEL在宿舍神奇的失踪
然而我现在需要的是▁TRAINER
对▁GRAB的认知只有拉长演出的视频
一个女生缠着男票给她买粉色的▁ZEBRA
看完头号玩家决定出自▁SEED
一杯▁TOMORROW打开全新的自己琢磨▁ACTION
▁REFER了三个人了为啥不知道找谁▁REFER我
不想用▁BROKER自己可以到处跑
我躲在被窝轮流厅当冬夜见暖和▁THIRTEEN▁THINGS
颜值高的东西尽管买就是▁URBAN▁DECAY一生推
所以新▁DOCTOR的▁COMPANION是个大叔吗
意识到不专业是最▁SHAME▁OF的事
看你已经▁SUBMIT了我们来▁CHAT吧
这才是真正的▁MULTIULTURE▁COUNTRY啊
找不到▁THEORY▁SUPPORT没办法展开分心
去就知道的啊真的是▁IMPLY
跟他提起过▁GONE百货的冰淇淋很好吃
今天终于赶一人乘▁DOOR▁FALL电梯了
之前买过五个沙发的▁EXPEDITION超好感拍
自己做的▁PUNCH▁CALENDAR丑丑的
小学看▁GOSSIP▁GIRL的时候最想来的地方
人与人之间输关系的▁REACT
昨天▁EXCURSION是最有趣的一次
▁FEARLESS给了我力量可能最近的事有点多
乘坐渡轮到▁BUTTER▁WORTH再转乘火车
▁DESSERT和▁DESSERT到底哪个是甜点
好好看书好好准备每一次▁LEADING
看到这种三百六十无死角的▁TRICK
门店▁SAAS成了一个未尽的▁FEATURE
从我到家就一直喵喵叫不停▁COOKIE
我憋了半天只说句▁HANDSOME▁BOY
不知他是否也有某种▁SENSOR可以感知
一言不合就放起了▁SPHERE的老歌
文章下的▁REFER也是是好文
清爽帅气大靓仔▁SAFELIGHT宝宝加油啦
带着黑人兄弟在车里听▁TRIBE抽▁JOINT的感觉
雾霾▁DEPRESSED看着窗外魔幻的天气
就当▁CHEAT▁MEAL明天绝食一天
收到前线小伙伴发来的天空哦▁REPLACE
喜欢美甲又不想伤指甲就选每贴▁NAIL▁WRAPS
吃了网红▁SALTY▁EGG薯片
墙壁画作非常有特色又▁EYE▁CATCHING
为各种难搞的事情想▁SOLUTION
▁AFTERNOON▁TEA的夏日水果杯店盘子
这▁FLAG没倒吧有要夸我的吗
▁WINTER▁QUARTER是非常不顺的一个学期
如果说▁WILD是荷尔蒙▁BELIEF则是力量
▁BALL▁BALL狼殿下来点儿新物料吧
在成为▁BURNER的路上变得越来越疯狂
给我个▁THEOREM就让我证明了
好歹也是两百▁YEARN章的专业一点好不
▁VIOLATE终于从少帚中走了出来
纪念一下第一次的申请尽管不是▁FINAL▁GOAL
没必要把限定组合当▁RIVAL
读起来是不是像▁VALUABLE我希望是的
写了论文我的睡觉▁FLAG就倒了
▁TURBULENT形容我此刻的状态真是十分贴切
很多人说▁IMMIGRANT都还是比较幼稚的
只剩下状态技能▁DOT监控和机制了
果然▁ALTER如果不延期就不是▁ALTER了
和▁BEAMS合作的主题衣服包包各种
我记得就是有▁TORRENT的那个
又要忍不住夸夸▁DEAN的音品超有品味
这次的回归主题不叫▁TEAR
这里放的就是我泰勒唱的▁FIFTEEN
因果关系这种关系只能通过▁INFER
这张感觉▁PENNY这句台词是发自内心的
立文出自哥特之瓜合集▁CLAW
得有新事物▁AFFECT的创造啊
他学校也不想去只能一心一意去▁GAP
我没打算当▁PRODUCER的就随手抽购卡玩玩
▁TOMFORD▁HONEYMOON在装柜一摸就决定要买
家里有一套台配雷欧斯的▁V▁CD
早起刷题只要单循▁BORN▁SINGER心里都满足了
▁JUNKY▁MOUTH网上的评论家像小雨点滴滴哒哒
这个专家其实有点在故意混淆▁▁OBEY和▁LISTEN
有个处理过的天安▁DOOR都能被省出来
是本▁KANGOO来给大家开车
请让高分跳过▁FINANCIAL考试谢谢
张大义▁EVE姨妈买家秀夸我
我们需要做一个额外的▁PRACTICE
我猫怎的▁REALLY无敌暖心又可爱了
一个▁PATCH就解决了两个模块的问题
治不好的不定期阶段性▁UPSET综合症
偶尔我爱有趣的▁POSER偶尔喜欢老实人
美是美的镜头非常温和▁FRAGILE▁BGM也好听
所以我敢去上▁UPPER数学
是▁SURRENDER吧不是▁FIGHT九之柱的秒拍视频
星爵跳▁CHERRY▁BOMB的秒拍视频
人们总忙着▁ENGAGE▁ENGAGE各种各样的碎片
▁CHAMPION想当台永动机制造爱
在看德语版▁WICKED的时候
非常符合这次黑暗的▁CONCEPT
▁GARBAGE非要躲在后面说显得他交小骑车
离秃顶不远了现在看到▁LED就想吐
有个宠妹狂魔的哥哥好幸福▁EXAM▁RE▁FEELING
今日上课讲到▁INTIMATE▁DISTANCE指亲密朋友
今天老师让我们设计▁CREATURE
当时根本没有看出来▁FORBID是▁FORBID了变化二
快学会这首▁SECRET▁BASE了好开心啊
▁FOG▁CITY合肥合肥新桥国际机场
所有生物都由▁MOLECULUS组成
那时候就能▁HANDLE大部分的阅读了吧
要是不建议跟▁AIRMAIL错一起的话
做普拉提导致我做▁SLIM没力气还饿
一个月的▁INTERNAL▁TRANSFER终于尘埃落定
▁SCARCELY值不太充分不太够不足
为什么早起了还是有点▁GLOOMY
好多地方都是▁BUYERS▁PEAK瞬间断号
感谢▁DESTINY感谢你能来陪我来爱我
用了一串▁EXPLOSIVE▁STORM这类的词
很多同学经常说▁PROBLEM▁APPEARS这是不对的
要做一个▁GENTLE▁GENTLE的女孩纸
看到了婷婷还看了场▁ONE▁REPUBLIC演唱会
关于▁SACRIFICE是来自于唐念的那个运势指
大▁PAIR突然跑过来把帽子给我一扣
磁报线圈的英文原名是▁TESLA▁COIL
解重不光是为了美丽或▁SEXUALLY▁OPINION
买的石头拿着就是个▁STACK
你对象知道你说他是▁OBJECT吗
觉得顺序永远只会记得▁ABANDON
穿当过人担任原地▁CLIP
该交二稿时把一方交了直接▁SUBMIT了
什么字都没有也▁CONTENT▁ILLEGAL几个意思啊
给发来了▁INTERVIEW安排真是无话可说
▁COUNTER刀离开冰面是很严重的失误
每天加大班就是因为自己▁TECHNICAL太差了
把▁CAKE念成▁COCK就真滴很想死
毫无抵抗力腿还在发抖可恶的▁SPIDER
这些都不是事儿毕竟还得学▁FINANCIAL▁ANALYSE
今天是▁SMALL里走的第六天
可跟▁CROWN选手约好了夏季赛见
刚才登录爱奇艺领积分看到▁ROB了
抑郁过头了网络上的▁FOLLOWER也救不了你
去年▁SPANISH今年▁ITALY果巴真滴很制作
是谁给贫民窟的猪精女孩寄了▁LAMER
晚餐苹果和好消化的▁PORRIDGE
虽然▁INTERVIEW真的很累也是有收获的
▁ROUGH又会打哈哈的人才适合啊
瞬间被▁LILY▁CHARM的迷住啊每到不行
他昨天夸我▁T<unk>SHIRT很不错
给出▁SOLID科研数据让我们检验一下
是不是▁REPLY发了就会有日本厂呢
昨天一大早又赶到上海▁SIGHT
把去年的跳舞和▁SIGN歌曲结合到一起
宣扬正能量还需要勇气的▁MOVE▁ON
▁OHM怎么这么喜欢发五五五五五呢
积极进取得小▁CODER汨罗式
那些临食▁SHELF▁KNIFE都好几个月
▁SWARM提醒了我回家的那天
日常祈祷有太太给俊凯捡▁CHERRY▁BOMB
这地方就特色▁BELLY好吃
刚刚给舍友看了一下▁LOGBOOK
我们也有▁COIN▁LOCKER小的一五大的二零
香味儿肆意配上最爱的▁HONEY▁BUNCHES
人或多或少都有些自己的▁PRIVILEGE
十三▁BITCHES是最喜欢的一首了
▁LIBERATE终于考完注会了雄关曼道真如铁
算了算了理解成▁COUNTER我好了
分辨是哪个阶段的同学还有▁OVERLAP情况
用了三种遮瑕和▁CHARACTER都盖不住
我觉得她的性格很▁INNOCENT
为了自己的爱情却没有结果▁BANKRUPT
那个▁ANALYSE▁TD的老实人其实很好的
所以有点提前进入▁QUARTERLY▁CRISIS的感觉
▁PURE▁BEAUTY行走的代言人太多了
运脚压的干净▁FLOW变化丰富▁HOOK十分抓耳
第一样是▁BAD▁FARMER的网红脏脏包
顺便一提▁PHILOSOPHERS▁STONE中文翻译是魔法石
从来没有任何一个假期过得像▁WEEKDAY
弟弟第一个月▁SALARY送给我的
突然挽救非常快乐好吧▁KEEP▁ME
多少天没抽烟就▁PACK它▁CHEEK多少次怎么样
这个▁SECTION网课老师是北京人
去纸片人游戏上▁SOUVENIR那种餐厅
今天一大早和老师▁CONSULT的我也很累
得到的是原来冠军早就被内定▁TIRED
宝宝一定要把▁UNSELF▁RESPECT看懂
今日▁MOTO不想工作只想抠脚
画了只最爱的▁SAILOR▁MOON给大家比心
下半程是被▁CURSE了换谁都没用
不就是在和原来一样就行了嘛▁NOTHING▁HAPPEN的
摧毁方式很简单就是▁EMERGENCY和▁DISORDER
想找人陪我睡觉▁DAILY▁BASE的那种
带上心脏踩超▁HEART感觉像背上了行剧
看到小火车污染环境但是▁HEN开心
我要是再这么▁LOW▁EFFICIENT就发我不碰
▁SOCCER什么的确实看不懂▁CHEERS
白羊这种天生▁DEBATE▁ORIENTED的求知好斗性格
我们天天在▁STEP里面滑雪
得不到合适的现在想想真是▁LIVESHOOD
请问▁PRINCIPAL▁ENGINEER的面试要准备吗
绕着旁边四百米的▁OVAL跑
拜托今天让我把▁GO完成了吧
▁TOUGH的一天就这么过去了
钻石王牌▁ACT二这部漫画超级好看
▁VANILLA▁COFFEE每家装修风格都不一样
闹钟今天业绩爆炸▁HELLO▁GAYS
于子杰▁AUGUST再见希望能再见
诺基亚经典铃声▁NOKIA▁TUNE了
办公室挑战▁FLUCIATE接二连三倒下
做了一件自己都觉得▁AWKWARD的事
越来越好越来越棒的▁JACKY们也要加油
如果你超越了昨天就是超人▁SUPERMAN
竟然不是▁MY▁DESTINY我也很诧异
你的▁SITUATION是那种相婚后爱你会怎样
以后请叫我▁AMATEUR▁ACTRESS怎么样
▁SHAMEFUL的芝麻蒜皮事件睡不着
▁SHARPER转笔刀读音撒盆泥二
求指路▁VIOLET及英嘤英他真的太可爱了
珊瑚礁▁CORAL▁REEF是指一种生态系统
很喜欢▁HATER尤其他的眼睛
给我抬杠一美之后得用▁LAMMER
我确定不是▁FACULTY们的车
散散周梦到自己被▁FIRED
最▁LOVELY的是他的▁GRANDSON有点害羞
生活总是会有各种▁UNCONTROLLABLE▁ELEMENTS
大半夜看▁FILES真特么难受
可爱到不敢发朋友圈▁CUTENESS▁OVERLOAD
姐夫的小菜▁JEFFS▁CRAZY英文是很洋气的
汉堡必须要有▁CHEESE不用过急谁的面子
而且跟电视上一样的▁DRAMA
我从两个人合作▁STRONG开始就画了很久
我看到▁SHARE▁VALUE我第一反应是分享价值
今天▁FOLLOWER过十万感谢人生中每个字幕组
昨天求了一天内长没有▁BEE有多的票
老师不用系统改的分数就有点▁SNOB
防晒日抛▁PAD一买回头查余额我的妈
权志龙十四日韩媒▁INSIDE盘点内容提及▁G▁DRAGON
这些果然无敌了称得福强出一七四六八▁YEARN
▁COWWAY▁BEEBOP是我看过的配乐最牛逼的动画
▁SLIM你可知给你拍全身照的
引你潮流永远▁NOT▁TYPICAL的周笔畅
▁TRAINING引发的深思让我在工作
眼看着首页▁MARVEL圈儿转了炸了一整天
从此▁SEVENTY有了不一样的意义
寻发录音终于听到了英文翻译▁TEXT
▁VET防守和▁KIMI起不好准备超车
什么邮件什么▁MEETING都不▁INVOLVE
有▁COST才会更有动力去得到▁RETURN
还说什么▁PURITY走到哪里年呼呼到哪里
小姐在▁PEN书追问下透露自己身份
发邮件会加上谢谢署名或者▁BEST▁REGARDS署名
什么形状的▁PLASTER搭配什么样的酱汁
我要成为▁ARTIST成为老师还得是很▁FAMOUS种
喷香水以掩盖体臭或自以为▁FASHIONABLY
▁THRILLER那句表面上高冷傲娇
▁SADLY飞我爱你老婆晚安哥
突然想起▁DOOM全收集都没做完
先写会儿数学作业晚点▁GRIMDORN德鲁伊
这个项目不走▁SINGLE▁RIDER也就半小时排队
想不通为什么没有▁START▁OVERFLOW高考吧
第一次见到雪的包大人▁USELESS
想拿▁WORKMAN出去跳一曲尼桑鱼一舞
这三只豆有任何一只皆可私信我
▁WATERFALL从重要变得不重要
多少年没玩▁TWO▁PLAYER啦不知道谁红谁玩
新的一年还继续喜欢着▁AMUSE的
抵不住▁SNOWSTORM还是太瘦了
帕罗西丁听了七遍▁CHIP▁CHILLS吃了一个饭团
▁CHILDHOOD是迈克尔杰克逊的一首歌
他说这个不能但他们有▁CAPTAIN'S▁WIFE
爱你的人还在▁GRANDMA也还在
约▁CUSHION没有追星只有表情包
星期六下午妈妈要▁TRAINING
想提升▁VERY渲染郁闷没有资源
我唱了一首▁DRAFT▁ONE
喜欢现在生活状态每天早起打卡▁BALLET
不懂得怎么去生活哈▁CONTENTS
我觉得很多年吃人都喜欢新东方▁ZINK
▁MILKY的儿子荷包蛋个子小一点
再也不能对哈迪进行毫无意义的▁DENIAL
在后天上欢欢唱▁JOURNEY▁SANDERS
▁CREEPER的名字是苦力怕吗
一首完整的现场版▁APOLOGIZE
周边送▁LIP▁CARD仔细想想发现自己
闭着眼到凌晨两三点还不睡着▁DISAPPEAR
去超市买了一堆▁CHEESE▁CRACKERS啥的开了指红酒
也没有别人帮忙▁PATHETIC的一天开始了
▁POLICEMAN都已经怀疑到我啦
知识好吃▁BITES装的个人觉得偏咸
我一开始以为复联三的彩蛋是▁FURY
右侧河流一每看▁SOUL现场的时候
还有▁LOOPER的队服卖想仓鼠小哥哥了
我终于看到昨天的▁FINISH了
不愿意做▁PLAYER愿意做▁JUDGE
关▁POLAR▁CODE那一项就可以吃死很多家
西西自由自在放荡不计的▁FARMER
你也就要回来了▁SUPERMAN也不知瘦没手
▁I▁MEAN超过四个小时的那种起床器好炸
结束第一天的▁SLOW▁BOAT湄公河漂流
有女孩子见几面给人就是▁AVAILABLE的感觉
奶子也下垂了奶罩子都▁HANDLE不了了
点滴坚持一起加油▁PEACE▁PENSION真的很可观
▁B▁C二二幺团中终于又上线了
吃完▁TURKEY▁LEG这大串儿回头率百分之百
▁CUBE起名字的是哪个部门
大部时间在图书馆▁DAYDREAM
▁FACULTY都是红装礼服好多比学生还年轻
今日打卡练词有次▁UNIT二十一扩展
拿命把▁HONEYWELL的项目拼掉了
操作方法点下面▁UNLOAD▁PHOTO把你的照片上传
金融业的从业者都是▁GAMBLER
空间里的歌还是里头的插曲▁SEND
从▁SKETCH▁SWAP换的画对不起我换画的小可爱
中午看了一中午电视剧▁FRAGILE
我吃▁MOB我也忍不住了公开传播
这一个月因为学校邮箱密码▁EXPEL
▁FORMAT完全坏掉你是要闹哪样
▁OR曾对这块金子进行跟踪
四月十五日将举行▁CHINAWAY华语榜中马大典
非爆浆▁COOKIE和柠香蔓越莓▁COOKIE我非常热爱
今天难过倒想对着▁ANGLE▁BLINK
感觉从▁CLINIC出来前台说
配上他家经典的▁CREW▁NECK卫衣
我要夸▁LOVE▁SITUATION一万遍旋律也好听
饭桌上与孩子们聊的是▁GLOBAL▁ISSUES
▁MAY电视不会像▁OLIVIA一样接广告的
各种舞台▁CONCEPT都能完美消化
今天想杀了▁TEACHER的心都有
于呼穿越勿入见▁TWINKLE▁WGX金科状元
看毛仪取关的前▁FOLLOWER微博有感
▁SELF▁REGULATION对人到底有多重要
▁QUIZ面试过来头发就染成橙色
我一个人很想去泡温泉▁SO▁WILD
瑞哥说▁MALE就是马累的英文
考五选四百▁CHINA那题给▁OMIT了是不是不太好
有些是▁CONCEPT不符合自己内心期盼而走
今日做了▁FITTING改善了姿势
不▁BAN就注意团战站位拉开距离
一边走路一边看四十八▁HOURS才摔得稀碎的
给他的人设和拍摄的▁CONCEPT不符合
我等着给你们开完门再补叫▁FEVER
自己都承认是无证老师▁TEACHER▁SAY
如果不用编程▁SUFFER少手比较容易
我能做这个有▁BALANCE的问卷了
身体健康永远年轻▁THINK
做事情必须要讲原则不是吗▁ENDORS
诶如果小说就知道这是▁LIBERAL的传统
你把都切成▁BITES的我当然不看了
一小时便草草结束不客气地说▁TOTALLY▁SHEET
今天吃到草莓蛋糕花了一个▁CORN
特别定制▁COUPLE▁NECKLACE厉害了我的小王
想把自己拖延症的脑子▁RESET一下
最后一次在▁LOCKBOOK上重重地签下▁DIZZY
中关村只准住▁FATHER总总裁▁C▁E▁O
找出和▁DISTORT意思最相近的词
他准备▁GAP一年去英国读一个项目
▁VISIBLE可是的可以被看到的
德约科维奇回到▁CLAY玩沙子
亲眼看到啦啦啦▁VETO加入少先队
我能用十万神眼泪换你一个▁REFUSAL吗
工作人员说我看起来很病让我先▁DECLARE
双臂冲突▁AVOIDNCE▁CONFLICT又称复复冲突
给赵老师买了▁ROOTS裤子
晚上在阿拉伯营地吃着各种▁FRY
干里娘我还是穿▁FUCK▁MAR去的
今天一看发现▁BEAUTY▁BLENDER长没了
新雇佣的程序员了这个▁INTERFACE做得太好
古西米真是好东西配▁SALMON的最佳粮食
小依依又出新舞蹈▁JOBS
这一周的▁LOVE▁RECORD真的是久违的有趣
今天的▁CHECKING▁POINT中文考试没问题
简简单单随叫随到一生宣▁SICK
背单词背到▁BRISK寒冷而清新
▁GREET比较小型粉丝不会很多
能成一家人很不容易▁DIMINISH
餐厅竟然用了我的▁BANDAGE做▁BGM
然后把自己的回复删掉就是这么▁MEAN
做一名你梦想成为的▁SINGER好不好
▁MY▁FRIDGE真的冰箱比脸干净
别监测喽再检测我也不是▁SPY
大宝也说过类似的话相依为命▁DEPENDENT
他先翻我皮笑肉不笑的工酬交错大▁DRIVER
发现▁RECEPTION大叔还在为俺们铲血
教授给我发邮件写的是▁YOUNG
每个周天都风雨无阻的来▁CHURCH
下学期学不学▁CALCULUS四呢烦加拿大
终于看了▁BIRDMAN宿醉三部曲
第六八七题你也搞得我有一些▁AWKWARD了
点了个▁PEOPLE▁NEARBY早上都不会消停了
这个蜘蛛侠了睡前特地▁SETTING了
抽到了▁SMOKE的小黄人制服后一直在用
提到▁THUNDERS了吗不是百分之百的新闻
▁PUFF的曲子更欧美些比较好听
想去的地方很多▁FOR▁EXAMPLE香港广东上海
那就再加一顿垃圾食品▁ECLIPSE搞好了
被临时叫去充当救火队作▁RECEPTIONIST
教个形容词▁RETARDED弱智的
他的姓氏▁VIEW有小牛肉的意思
▁BORING所以我还是继续打我的麻将吧
李泉和陈洁怡的▁ENDLESS▁LOVE让我觉得惊艳了
▁BOOM▁CLAP也算是大热单曲了
喊露演的这个角色▁ENTIRETY
还有很多▁TASK肚子饿躺着歇一下
附近开了▁MOTOR▁MOTOR便当连锁
遇到什么了就尽自己能力去解决▁SIMPLIFY▁IT
明天又是排得满满的戒衣▁FITTING日
求一个咖啡小馆的名字▁EXAMPLE
死神▁BLEACHED立排周边呀
我表现得像一个突然跳闸的▁ROBOT
差点被告到债公司▁COLLECTION▁AGENCY
人中是要适应社会的很喜欢▁LEMON了
这周又是为了见野奔去▁BAKER▁SITE日本
除了经典的黑白棕色这只▁PALE▁PINK也好看
科精神▁DRUG要不断地寻找新的刺激
今天看▁DASH学到的知识点
好像出事了啊▁SIREN一直响路口有警车
你们知道▁TROUSERS怎么记吗超特色▁ZEBRA怎么拼
我▁BENCH的心里阵容得下胖篮和小兰
只能再把▁DRAMA翻出来听了
有一瞬间挺讨厌这个▁ABSOLUTE洁癖的
看见阿以法语模式自动运行▁AVOIDANCE不会读
早上七点半从▁NURSING▁ROOM沙发椅子上爬起来
▁DISGUSTED不是对▁IDLE而是对这种事儿吧
比如杨明山瀑布前吃完最喜欢的▁CHIPS
听着朱伟的课讲到了▁ECLIPSE这个词
开学不到半个学期▁FOLDER就满成这样了
你至少给我机会说下我怎么想的▁RATHER▁THAN
我那些细微的敏感的▁EMOTION
一天晚上我在刷牙老公▁SOUR
有空可以看看他有没有▁BENCHMARK
我就吃到了此生最难吃的▁PANCAKES
你还是那个整天对我臭脸的▁CHINA
那么▁REAL单独使用还有什么意思
原来邓紫棋是九零后的▁DELEGATE
▁WORLD直线竞速赛第一轮成绩出炉
一次困▁LIFT▁ONE黑弱般罗也荡失路
▁COMB报了一天名还没报上
然后真的是一个七▁TERM么
他不像利比亚这样的纯▁FINISHER
收获满满好多人都选▁GRADUALLY
文艺操汗改变了就是好▁GARDENING
离店的时候▁HOSTESS送我的
导购带着就有▁PRIORITY吗垃圾服务
一切都顺利都会有好运▁BLESSING
即使在有春假的五月也即将▁BUSY
▁HAPPY▁TEN▁MONTHS时间好快十个月了
▁NONSENSE我要收拾好自己再找你
这个为何如此的▁DELICIOUS啊
从▁ONE▁MILLION▁WORKSHOP回来以后都没跳得那么爽了
小路总真是太完美了完完全全的▁IDEAL
大家都非常▁SOCIALLY▁AWKWARD的强颜欢笑
让老豆帮我买只▁BANANA▁BOAT的防晒霜
▁BECOME▁FAMOUS已经准备好学起来陪你唱副歌呢
我笑爆了今天政治▁DUTY他坐在我前面
原来飞碟的英文单词是▁FLYING▁SAUCER
基本都是从二零一七年▁RECYCLE回收的
我真的要买个▁DEEP▁STATION寄到爱丁堡去了
▁SAYING一千个读者就有一千个哈姆雷特
非常意味深长好好听有点卖▁IMMORTAL的意味
要▁HINT出来不然淹没在太多照片里
▁LOCK▁ME非常耐看而且适合所有的手指
从里改到外每个▁LAYER都要改
我连隔壁的▁LINK的同事都没全认识
美颜开始拯救不了我的▁FIGHT了
岁月在他的脸上就是暂停了▁HISTORY
一份奶油浓汤外加▁CHIPS和洋葱圈
好好读书争取将来用上▁LAMER全套
阿峰和所有▁HONEYS除夕快乐
原来我的灵魂已经▁SO▁MUCHURE了
每个人认真作画的样子很让▁DREAM▁DELIVERERS
为了自己喜欢的东西一直在坚持▁COMPOSE
去▁ACHIEVER▁EVENT没人陪已经够可怜了
安德鲁蛋塔十▁MOP猫双王榴莲六十八▁MOP
感觉比不上百度翻译了▁WHAT▁HAPPENED
有口音▁ACCENT但是问题回答得还可以
▁UPSET▁NEWS自己并非任何事情都不加评价
▁LGD获得了中国第一个▁MAJOR冠军
以▁SPACE▁RACE为例从开始就没记清楚逻辑
怕被坑爹就指着称问是不是一▁KILOGRAM
越来越多的车载人行道前让人了▁VERY▁PLEASED
我们六一见金太换▁GEOLOGY
机场一姐▁GLOBAL经济▁PHYSICAL王子
现代社会有陌生人间的▁CIVIL▁INATTENTION
新入一包▁SPILLLT小麦粉迫不及待的用了
春里大妈们唱歌时都唱出了▁CHAT感觉
来一千二百▁BOOKSHOP寻找一本喜欢的书
▁BEGIN▁AGAIN第一季是柳系列
课业太重没有空忙着▁BEING▁DEPRESSED生活好残酷
乐得这么喜欢▁PENNY吗我以前怎么没看出来
不建议去这家店买虚拟▁WEATHER评论不好
▁WORKDAY跟好朋友一起谈谈工作聊聊生活
有多喜欢▁OUTSIDE▁CASTLE这首歌呢
那个通知你开会的人是▁PANEL组织人
偶然看到了五年前自己写的▁PERFORMANCE▁REVIEW
俄罗斯有个叫▁ORGANIC▁KITCHEN的牌子
论证课题的关键点用的▁ARGUMENT
模式七写完了我要做▁OPERATION▁MANAGEMENT的作业了
你对电音的力量一无所知▁SHOOTER
因为我对每个▁KISS都倾注巨大感情
▁SOUL▁DRESSER原谅这歌就嗨了的李阿姨吧
▁BORDER的系列都超好看
到最后还是跑去交▁APPEAL▁FORM
捣鼓了一下▁BLENDER挫折感很强
男主脱光衣裸奔的时看到甩动的▁COCK
希望教授到时候扮演一下▁BIPOLAR▁DISORDER
在光明球场现场的▁WAG
我们公司会三地的人才多但没有会▁UNITTED
想起那个三岁就满嘴▁FORK的莉莉
想要美美的去参加▁TICKET▁OF▁MEETING
看了这么多遍▁VIRGIN▁SNOW的专辑封面
二十▁MOUTH日常画大圈陈优暖的秒拍视频
▁SOLDIER真是一首能够洗礼灵魂的歌
带我吃草的时尚达人▁TERRACE隐隐
我送她一件▁SUPREME的毛衣
▁NINE▁PRESENT北京见面会紧张忘词
带着猪宰好友一起去市鸡▁COLORTOWN
▁MARVEL▁UNIVERSE我最爱的是蚁人
所使用的还是▁DISPUTE这个词
▁THE▁FAME需要你们我也是哈哈
路过▁HARNESS怎么又说你穿这个肯定好看
好好的▁PEDAL▁BODY一路都在和风浪做对抗
▁BUT▁CURLS调戏了一朵小姐姐
他们还逼我翻译你外号我意的▁SHORT▁FIGHT▁TIGHT
各位▁JACKY宝宝们能不能别再回复
▁SALMON假装入室持枪抢劫逼出花甲老太
只剩下状态技能和▁DOT监控和机制了
是一个典型的西方▁LIBERAL
让自己继续充实起来▁KEEP▁MOVING
真的很▁YOUR▁MAJESTY我的小女王终成实成名了
节后回来我上几款风衣有寒颤的▁TOMB▁BOY
▁OPINION湘潭湘潭大学法学院
娃儿画画课今天的主题是▁SUN▁FLOWER
省他们一个金▁RIDER是马力
几个晚上看课程希望我的▁CHOICE选上
然后把自己换成▁CHARTER▁BUS不在课
在窗下筑巢的叫▁YELLOW▁BALLET▁SUNBIRD
创作全过程曝光爱音乐的▁SHEEP星
现在身材基本都是▁PHANTOM▁THREAD里女主那样
哪些交流是受到▁LAWYER保护
然后听见电脑传来了▁DEFEAT
为什么▁MAYOR没有的享受
支持和爱风歌▁HARNESS一直与你同在
百无聊赖很想渴望▁VERY▁EAGER
一家吃素食的餐厅▁PUMPKIN和▁CORN不错
买▁CREATE▁IRON的转发棒起来还不错
▁TERRIBLE▁TWO感觉永远都在做爸爸的跟班
海滩这部电影▁INVOLVE了我太多情感
吴敏如果看到了请回复我▁LIKEWISE
▁SEARCH了东乡的法院发现没什么年轻人
每天运动两小时开始新的▁JOB▁HUNTING
问题来了到底谁是▁DARKER呢
▁PLAYMATE就是这么填写对异性喜好的
▁ATTENTION▁HALL说的不是别人正是我
▁SOMEHOW读完小说有点看不进电影了
真的听不得▁AT▁LEAST▁THREE每次眼泪都止不住
小编只是舔了一口▁SAUCE
你到底要怎么▁COPE▁WITH他的胡臭
然后用一个长的▁PEDAL是不是叫一个奖
今天还学了一个很酷的词组▁PASSIVE▁AGGRESSIVE
恭喜你有一个特别会拍照的▁HUSBAND
▁BUNJA▁MARKET的咖啡也太难喝了
冷漠脸同学拎着两袋▁GROCERY走在前面
继续试图将自己送上▁BEN▁WAY
这个对▁VOLCANOS的理解是很无敌的
发个▁ZIP中毒了玻璃之情
今日单词▁SUBMIT须从提交主张
做▁RECOVERY需要一个时间点
看完了▁SIXTEEN粉了大猩猩▁TWICE
我坐在▁BANSOR或▁GYM里经常挥手踢脚
肉甩不起来了然后上个星期看▁DASH
是对我来说最伟大的▁INVENTOR
奥虎撞上▁EYESIGHT四八路的诚意到底如何
飞龙▁KNIGHT七十六岁高林武林风中实球迷
有去过▁CAMP的姐姐给我普及下知识嘛
我们这次是出席六本目▁EVENT
石油路怎么就被▁DISTORT成了石油大学了
第一次看▁GOSSIP▁GIRL时多看一秒都觉得煎熬
我不懂▁STARCASTIC▁CALCULUS我也不怎么懂布朗运动
看来虽然他热爱自嘲▁DOOM有多烂
所有人都在谈詹姆斯的▁RESPOND
我希望自己可以活得▁MENTALLY放松一点
我的新墙头又大言不惭的我的色▁FLASH三
大半夜的馋死了好想念▁CHEESE▁PUFFS
和朋友讨论梯度向量都要说▁GRADIENT▁VECTOR
笑了一下有点好看▁GREAT▁CHOICE
意识到有些事不是聊就能聊出▁SOLUTION的
本来两个词▁COURTESY▁SHEET就可以搞定的
突然脑中闪现一个单词▁CUCUMBER
我的▁CREATIVE▁WRITING的草稿写的是中文
昨天▁DAYDREAM白嫖的要不要入校服猫呀
现在是什么▁STATUS我也不知道
我从他们身上看到了希望▁SUNSHINE
所以要不要自己上课真是个▁DILEMMA
▁ANYWAY上午较轻松下午要进入▁TOUGH模式了
霍华德之前脚踝扭伤后被列为▁QUESTIONABLE
今天看到一个拼错的单词▁SOUVENIR
有一瞬间觉得完累想▁SETTLE▁DOWN
也看得出这个节目是真的▁P
我也想要来一次快乐的▁GAP▁YEAR
魔性的▁EVERYONE总能响彻整个峡谷
从早上九点一直到晚上▁DINNER▁INCLUSIVE
汪年第一▁DAMP就真的很难用
有很多学校生在了▁RELIABLE
俨然变成他的▁DEVOTED▁FAN了已经第二遍了
原来对于你的到来我是有期待的▁WELCOME
再见了买▁HOMETOWN成都我又来啦
你们推荐个可爱到魔性的游戏▁CLUMSY▁NEEDR
开了▁WINDOWS▁DEFENDERS死活连不上教师端
昨天终于和工会小伙伴把▁RAID打完了
日常▁DATA▁PROCESSING枯燥的生活
就是你戴着眼界有点像▁BUZZY▁BUZZ你知道吧
老板说▁TRAINING记得做可能蛮多的
先说▁WHATEVER地狱文化差异翻译就是超人
贴片▁LEAD感觉自己是瞎了
顺便做个蒙客▁SCREAM的展示大全
看到了这个图我刚刚还在听▁CRAWLING
最后一眼都没见到心情▁TERRIBLE
别忘了看▁ODD演出的机会哦
没有小姐姐的日子投向了▁TROT的怀抱
幸亏我不是奔着▁BEST▁DRESSER去的
▁STATIC他又请提供虽然没提前告知
完全没有心情看▁WORKBOOK都是三零二的错
住的这家▁VILLA还有私人动物园
百度了一下▁INTERFACE的缩写结果看到这个
可以酷酷的按下▁RESET键归零再出发
吃亏是福沉淀会让你更成熟▁FUTURE▁EXPECT
面试的时候把▁QUIZ和▁QUIET弄混了
看完电影感觉还是会有好多▁HAPPY▁ENDING
相当▁TOUGH的一天连续六小时操作
▁THRIFTY和▁STINGY的情感色彩截然不同
得知少佐死讯失去生存意义的▁VIOLET
我校的中国人▁DAILY▁GREETINGS喜欢学校
结婚前最后一个生日了▁RECORD一下
胖弟就不停刀了弟弟是▁GRANDMA弟弟是▁GRANDMA
所以▁MAC▁DREAD该找谁你们应该知道
虽说没大入位不过▁SOURCE还是棒棒的
▁THIRSTY口渴的口干的形象记忆
▁AMBITION这种东西我好像真的没有
不算差毕竟曾是个▁DEBATER啊
把写给周奇洛的一首歌▁REPLACE
再一次被资料霸屏的▁ALBUM加油吧
但是如果明年真是▁DECADE那种的骑士
别理我我就是▁TALK▁NONSENSE深圳
像是局外人却又▁INVOLVE到其中
想起易烊千玺十七岁生日这只▁BELIEF
带我的小豆子们出来▁SOBER▁FLIGHTS
▁NO▁OFFENCE但是我真的要笑死了
而且▁HOWARD还在▁SHIELD里客串了宇宙律所吗
村里的娃们在▁GARBAGE玩也开心
饭桌上▁MASCULINE▁FIGURE的大元歌
▁FAKER生日快乐许个愿哪一天
化妆桌的▁BEAUTY▁BLENDER相信大家不会陌生
补上春节的课▁MUMMY一刻最拗口
▁BLOODY▁CHAN这个游戏感觉有点意思
四月会不会太▁TOUGH了点天津咸水孤镇
也是我借▁SOURCE的口吻赋予的意义罢了
引进汉▁AFFECT站台力单台里▁SET幺幺零包飞篇
不靠别的只靠信仰早安▁BIKER
跟着台上一起唱▁MEMORY的观众
半夜立个▁FLAG以后要多点正能量
广告又多又没意思真的是▁SO▁SHAMEFUL
以后再也不▁DISDAINAL是假防水
▁MONEY▁GUN和我可爱的小包包
一个▁FASTENER都没下来还把脸划破了
本来想开心的记录▁ON▁BOARD却加班到最晚
第一次好照片献给▁WOOD▁FINAL
浙江团省委成立婚恋事业部▁HARM
白色是多▁BERRY不是太甜又不是很酸
那家▁AGENCY没做什么东西
请问▁FLASH三到底为什么这么火
对面小哥还表示说以后给我▁REFER客人
防弹少年团回归不机翼的▁SILK
令▁FLAP三个月都不买新衣服和鞋子
一年来学的▁DISPUTE▁SETTLEMENT是不是终于有用了
给即将步入社会的自己立一个▁FLAG
做成图二这种传统▁HEDGE不好吗
▁UNFORTUNATELY是艺术剥削了我的自由
有民间说法秋吃鸭去▁DOCK
吃东西在我的解压▁FEASIBLE▁LIST里面被划了岔
他们分别叫▁COLORFUL▁DAY银安照白马
美剧的生死狙击第五集▁SHOOTER中英双字
诶教程介绍如何利用▁CONTENT▁INTERFACE来实现目的
真是太怕▁SNAKE了害怕到因为中文
今天是▁BEEBER的▁FOLLOWER强行穿外套和背带子
待了十三小时开了四小时会读了三篇▁FEATURE
各位太太希望老李是▁KING还是▁NIGHT
我当初选▁OVERFLOW选对了敲开心
像我这么▁ROUGH的人真的不合适
▁WEEKLY▁REPORT写的我长出法令纹
在▁MOSCOW▁HOLIDAY▁INN的电梯里遇到位埃及人
▁SICK好难怎么会有跳起来这么绕的舞
我很认真地说结果喊我叫▁RED▁EAGLE
杨飞同加油总决赛舞台▁REACTION看不过瘾
他在床上▁POTATO▁PENGUIN地说上了
五星级的▁VILLA管家厨师司机全都有
有些人呀美好的看见他就想点▁CONFIRM
奇迹出现最高离婚▁PAIR
五分钟看完五十度▁GREY的秒拍视频
法语期末▁STUPID▁MISTAKE被自己气死了
喜欢▁HAM的我要怎么答话
▁GRAVEL端午节吃了枣泥粽子就出门
求上天给我换个脑子吧▁SHELL
看了一晚上▁STAND▁UP▁COMEDY
我▁SISTER▁IN▁LAW说这本书绝版了
▁TOUGH▁DAY哪儿不缺脑子缺根筋的人
看到想买的▁MONEY▁TRUNK几乎是半价
提前预祝自己明天节日快乐献献▁SOUL十四
▁QUEUE是一种特定类型的抽象数据类型
他说他要找▁SANDY早教老师
是▁TELEPHONE的小猫真的带声音功能有很多
冷吧▁ACTION迪丽热巴能量月
研究出了▁ONLINE版三国沙后的惬意生活
每周都能坐▁BUS进铁到处玩真赞
希望所有▁STRUGGLE的结局都是▁SURVIVE
和武金哥一起主持的▁ZERO▁BASE
三七零▁BUB跟随何凯文老师的步伐前进
从▁PUNCH▁DRUNK就觉得▁PTA的爱情剧本很好玩
不想在你想让我回去的那个城市▁SETTLE
南豆丝最值的是这个▁SAUCE在超市找到
老师的▁DANGER▁ZONE很适合赶路来听
阳光下看圣经▁HOLLY▁BIBLE
灰色界的宠儿▁EARNINGS▁OVERLOOK灰灰色
炸了重本吃▁PIZZA▁HOT过来买单林艳俊
场面上并看不出▁CHIPS数据像▁X▁F▁F那么多
做人脑▁OPERATIONAL▁RISK实在是太高
表现的明明是▁AVENGER而不是▁RULER
头脑▁STREET是自己的硬伤
完全赞同他的观点不过论述不够▁CUNNING
早上吃了禁鱼▁PACK的爱心三明治
▁JUSTIFY我真的还蛮难以接受
涂完之后大概问上只能▁INCREASE百分之十
▁VINEGAR这种感人类味道但是没有黑椒味
在前辈建议下做▁MISTAKE▁JOURNAL
▁AI取代重复高产工作的▁WARNING突然多起来
▁STAND▁UP▁COMEDY我初中的时托管班表演节目
刚刚用▁SIX▁GUARD涂完整条腿
哪天坐上▁CREATIVE▁DIRECTOR宝座我还是一条广告狗
好爱▁RADIACTION他们是他们自己人生的名作
这样的人算是我职场▁LEARNING▁PROCESS的加速器
咱们最常见的就是▁HUMAN人类
游戏我最喜欢的角色就是猎狗▁HOUND
怎么走自己的路希望同门都来吧▁COLONIST
▁CHINESE▁DISHES中国菜都精心准备的色香味俱全
都知道了这个会很棒的呢▁HATEFUL
下次就可以偷偷去▁SOUVENIR
去用电脉冲▁STIMULATE一下我的神经
连续两周周末加班▁ALWAYS下班后要开会
哎原来是搅拌棒▁BLENDER听成不烂如此痛特
之前的照片总觉得看上去太▁MATURE
任性的指责然后▁IN▁VAIN
幸福本质上是一种▁DAILY▁PRACTICE
哥哥喜欢▁SPIDER▁MAN的原因有一样的境遇吧
大豆油洋葱肥牛盐这就是▁ARGUMENTS
周末自然醒得比▁WEEKDAY还早
发现了一个▁HUGE八卦但是大家都睡着了
▁MOVIE借用一个木心的句式
用了五年的签名▁BYE▁BYE啦
周末是不是能在仙台观光▁INFER▁CENTER
日本妹说▁OUTLINE大概要写六个小时
不晓得第几位▁BROKE▁UP又在吵架
热到只想躺在空调间里的床上▁LAY
请问各位太太们有没有▁FARMER
什么时候可以吃到▁CHEESE▁BURGER
一袋十▁GALLON的牛奶被我不小心弄破了
上的▁APP都没有我想要的▁FUNCTION
据▁FOOTBALL▁ITALIAN报道恒大商引进卡利里奇
发两个我珍藏的▁JET装逼视频
黑暗中我憋笑快憋出内伤了▁CALMER猪
早上先去▁TRUE▁JETTY走走然后去了四间庙
新配的▁IC▁BLING竟是太阳镜很酷
和▁CONSCIENCE▁CAUSE做斗争的挣扎
人家包治百病都是买▁PEARLS
现在的朋友被告知得了▁CANCER
这次▁MOVIE▁TALK放出了更多拍摄花絮
刚刚发现▁UNLOCK▁BOUNDARY好像失效了
为他们▁EQUIP他们应该具备的技能
学姐妹▁DEFENSE完都很高兴地去拍了照片
听过很多大道理依然过不好站主▁SING
暑假拿的▁OPERATIONAL▁RESEARCH实在是太水了
突然想起高中时老师没收了我的▁WORKMAN
另一方面却一直致力于争取▁PRIVILEGE
我在▁NECKED▁CHEESE你来吗做鬼脸我在叮骨角
定个小目标一年内有自己的▁ASSISTANT
▁OR一二三的心上人所笑只怕有些不尽情理
▁CELEBRATE就知道小红不愿意抛弃我
大多数孩子想当▁SUPERMAN希望世界和平
爵士鼓等比▁SLOTH更加▁GROUNDED和节奏化
去约旦前要瘦十斤的▁FLAG立起来了
还可以胡甲虎威的欺负▁INTERFACE
▁SOAP真的太可爱了好吗
杨文昊不是▁CHAMPION这事实让我有点难过
还去了两年前也到过的▁IRISH▁BAR
最近每天都被▁PUSH着慌慌张扎
拍下了在购物车躺很久的▁URBAN▁DECAY喷雾
大家的▁CHICKEN▁SPARROW都到啦开心
这一秒决定拥抱你给的美好▁ARRIVE
所以全球最性感的人就是▁BUTTERS
含着眼泪用眼睛说▁FAREWELL
橱窗里就应该有▁PRODUCT了
用一天时间刷完了▁UNNATURAL
接下来还有生物启发两个▁HIGH▁FREQUENCY一个
约上几个好友来▁FLOWERS坐坐吧
最爱之一的就是▁UNION▁SQUARE
这个英文叫▁TIPPED▁IN▁PLATE手工粘到书上的插画
▁WESTWARD▁EXPANSION直接被我翻译成西部大开发
小哥哥用牛头▁COUNTER我的杰拉
忍不住笑了出来老了的▁FIBER
在▁LAYMA的路上一去不复返
弱洞演得很好有些▁CHILDISH的帅有气质
希望接下来也还能够▁COPE▁WELL
作为一个小小的▁PERSONNEL我很惆怅
倒腾个人博客都有来提▁ISSUE也是醉了
早上九点没有▁TRAFFIC美国洛杉矶
这一版达哥已经取代了▁DAYD▁DREAM的地位
加推▁THE▁THIRD风格很爱了日本东京
听▁GROSS的歌和以前的感觉完全不一样
▁FIRST▁ARROWS美图欣赏质量商社均可预定
九十年一张四星▁SERVANT都没出
▁CHARGE美妙时光到来了开始看项目文档
今天▁BOSS对我说你啥时候考完▁QUALIFY
有个学生问我▁FINANCE这个词怎么读
都是从最▁PRACTICAL的东西中得来
一个月后我送她去▁DAYCARE
买份▁CHIPS附近还有鱼人码头可以去
惊闻期待的美剧▁EVERYTHING▁SUCKS被砍了以后
▁INCOMPATIBLE及不兼容的
▁QUARTERLY心痒痒看来要考虑辞职了
失去梦想成为胖闲于一条▁GLOOMY
▁DOLLAR赛不是很搭等市场反应吧
▁HOME▁STRETCH是最后阶段的意思
我见到了▁PLOT版本的崔圣澈
▁NIGHT真的牛逼▁SNG就该让他发挥自己
我来到你的城市给▁EX▁WORKMATE打个招呼
冷吧▁ACTION现有代言小毒药们评论起来
之前就听说▁MANKIND包装不好
一切都是巧合的▁CLITERAL▁DAMAGE
高级▁BLENDING都能得到尊贵的回报
滑板少女初体验假装周末运动▁LOG系
▁BREATHE请接纳我这微小但诚挚的祝福
▁PIONEER佣兵帮看看有没有问题
居然搬出▁CRY▁BABY我也是不知道造谣者
如果有那么再加上▁SAUCE
▁DOLPHIN是一坨棉花糖金吉拉猫
帮别人办了一场▁BRIDLE▁SHOWER之后好想结婚啊
这个▁BEAMS和冠军合作款
本来没▁CLOSE▁UP的时候太期待浪奔了
有默契的▁PARTNER拍戏迷间烦好多时间
你有和▁WAVES之前出压力位的时候出了
这季▁HOMELAND编剧简直太牛了
日本▁BEANS▁BOY发夹对价拿到了
偷个小懒收到了之前买的▁BLENDER
参加▁BEDROOM家大姐的生日派对
把香水当了▁AIR▁FRESHER喷的快去洗洗睡吧
据说▁HEARTS大主教终于要有改动了
不知道为什么拍出来自带▁BRAIN特效
为了完成学校布置的▁TASKS
如果▁DRINK一局能掉一千分多好
有点▁DEMANDING的妈妈我带孩子试听
比如左边那个流行的▁BOWL
要成为和你一样的▁POSITIVE▁MAN
倒是能勉强体会一下所谓的▁OVERLAP
▁PAGES开发组是不是喜欢跟用户捉迷藏
不知道在▁RESPECT什么反正就先▁RESPECT吧
另一边的▁COUSINS大约也有二十三人
新入手一只▁DEAL九九九▁METALLIC求大神们变真假
▁TRAIN▁GUM是魔力歌连着听了一周
▁BOOM▁CLUB学会了诶感觉这五好好玩
都能有▁AUTHENTIC例子讲得既生动又深刻
范保卫▁BARGAIN成功又过一天
推荐你听▁STATIC▁LOAD唱的这首舞女类
其实在纠结▁SCIENTIFIC▁DISSIMULATION该用什么形式
不知道为什么拍出了▁HONEYMOON的感觉
立个▁FLAT今晚被男朋友教育一番
西月里接的店跟▁SOUVENIR装修一模一样
但是▁SUMMER之后总会有▁AUTUMN
也许少点▁OWNERSHIP会好很多
每次去我的▁WAREHOUSE用完拿着我朋友
下周办▁CITY▁SUPER会员卡
今天的▁RUST眼线色不运开
为了你的自由和我▁NET可以说是接近泪目了
仔细看看拍的高速小课老师的▁SOLUTION▁SHEET
半夜立▁FLAG▁VS▁CO调色修图鹿屏一周一个
下雨天坐公交去▁SOLDIER学舞
谁能出个清红和小黄▁CREEP的混剪
我真的不觉得你是个很不清楚的吗十二▁CHEERS
我要当上钩的鱼我们一起去▁GO▁FINISHING
▁ANGLE和光感受到了以前的勤快
极限挑战真的很棒很喜欢▁BULKY
为了视频三个周都在▁OUTDOOR的框框
康熙椰子▁SNEAKER出行安全景先拖鞋
▁EYE▁SCREEN这个隐藏的含义真的震撼人心
想想黑森林里无比美丽的▁MODEL
掉进了口红的坑里可以买▁LAMER了
胖瘦倒真的是其次主要是得▁LIVELY一点
摘自月亮与六变式▁PAGE二六三
今天吃了炸鸡觉得自己从头到尾▁RUBBISH
简直美丽全给了▁BLEAK▁LIVELY啊
今天是▁PURPLE这张照片很有年代感
阿斯利康当时决定要关闭一些▁SIGHT
最喜欢你的笑眼▁SPA杂志视频
不知道珠海那里有▁CHARGE
买午饭都会遇到在▁INSTAGRAM上▁STALK的小帅哥
写出这么可爱的▁FILM▁CRITIC是谁
去年刚拿了欧洲▁HORIZON科学界新秀大奖
他跳舞时喵作为一只音都▁CAT都忍不住
睡前一遍▁SLEEP▁TIGHT然后放下手机睡觉
让我猜猜▁CHEER能不能超越一下
一个人在▁CUBICALLY喋跌撞撞
初中的时候看见别人有▁WORKMAN我也要有
真的非常非常非常▁DISGUSTED
刚买的▁COCOA▁BLEND想把这几个颜色挖出来
▁TROUSERS越穿越显小▁BROW越穿越显大
诗句句遇到▁K的人设就崩
不控场不▁CARRY不一脸见达或一脸霸
原来逃离四年前参加了▁BUMP的年终会
出现了好多▁CROP短款的单品
每次▁REVIEW缺点毛病给我半小时讲不完
▁ACCORD是其父亲对完美空心投篮的称呼
周围还一圈莫名其妙地▁CONFESS
每次▁BREAKDOWN都在想有爸妈把我拼回来
虽然没有▁TEMPT系列我还是开心的
小怕离开因为思维理念极端的▁INSPIRE▁ME
上系统课看到驸妈妈叨叨的▁IMPART知识
我记录▁EXISTING▁VEGETATION的时候我特么才懂
还有▁OVERLAP其余时间的我一直在睡觉
我和▁CAPTURED成为了亲友一起见证我们
尤其是那些被我们为▁MINORITY的人
不只是针对一两种疾病的▁VERTICAL▁PROGRAM
一次完美的实验和天津的▁SNAKES
百乐▁PEEL橘子爆百乐▁PEEL苹果豹低价
跑步打卡▁FIFTEEN开学这么久才跑半个月
如果有天我给公司▁DISMISSAL了是什么反应
为什么这个▁FUNCTION老是通不过
反应过来想起来刚才电梯说的是▁TENSE▁FLOOR
▁GOLF打出六只小鸟零簸几的六十六杆
拉个女孩不爱▁SWEETS超爱寿司
▁CHURCH青岛青岛中山路天主教堂
助手写了邮件表达了想做▁RESEARCH▁ASSISTANT的想法
头脑风暴的一整天▁CREEPING
打到三月六号无缝链接▁OUTBREAK行动
继▁THE▁PACKAGE之后第二部人生之作
打比方类似▁DEEP▁PERSONALIZATION▁DISORDER的状态
每个人发个一次性的▁WORKMAN
人生苦短得为了我▁GROUNDED▁HOPE
可能是因为对▁CHAIRMAN的爱慕
我今天是拳馆最骚气的▁RUNNER
想起荷兰迪迪和尼尼的▁FIRST▁HUG
新浪我很小的时候就用的六十四▁K的▁MODERN
最喜欢的小女孩角色必然是▁SCOTT啦
▁ASTRONAUT的扫闲从油管爬下来
大学时买了个一两百块钱的▁WORKMAN
又要搞新玩意啦首次控制▁SCRATCH
▁MY▁TOKEN我是肯定拿到额度的
人隔离偶遇▁PORT结果相继被暴击
▁BORING每天都是练勤练舞期待周末
最近之前那些年错过某一▁PAIR的那些
小妞分不清帽子和▁MOUTHS
可以情绪不▁PEACEFUL▁NEUTRAL但行动不能被影响
第一次英语答到一百四十六▁TEACHER真的也非常高兴
没喝珍珠奶茶第四天像是喝▁DRUG一样
但是我买▁BUYER是为了脱唇毛
他幺八请▁SPIY吃一顿大餐
我说的是▁MARGIN▁COAL里的电影桥段
做▁BLENDER真的感觉人都昏昏沉沉的
叫朋友帮我▁BRAZILIAN▁WAX我下面
在维密选内裤当我拉开▁LODGE的抽屉
泰国人这个发型有▁SHOCK到我
这里贵是一个▁SLAVE之城
一首二十四▁HOURS献给花碧小姐姐牛仔小蛮腰
熟悉的战绩依旧演绎着▁DEFEAT的故事
为什么买不到合适的跑步的文胸▁ANGRY
本文选自▁SEVENTH工作室好有趣之鸡排片
一直在支持的海洋里▁SURFING
开推看到▁LEG爹画了午餐纸快乐
理想型男人王大陆我祝福你▁PERIODIC
往往都是低调含蓄的▁I▁AGREE
外侧▁RUBBER缓冲区还没加
新▁TV动画鬼太郎秒拍视频
▁CONTAINER▁GUARDING将观赏植物种在容器里
波尔多的▁CENT静火车站停电了几个小时
为了一本叫做▁LOGBOOK的剪辑化
下完▁PATCH进不去游戏电机▁QTE二年报
买了好几年的▁CHURCH依旧很好穿
希望今天能整完百分之八十的▁LOGICAL
我说了大概八百次▁PARDON他还辣么温柔
▁KNIGHT王者荣耀输了▁EXECUTE什么时候泡过书
今年▁BADGE是一个大折叠卡片
初三赶了二个场地共六场▁LASER▁QUEST
另外买到了▁VASABI▁CHIPS但没有之前的好吃
我收回▁SEE▁SHEER不适合我这种鬼话
▁CORNER合作宣传视频龚公羊的秒拍视频
这个模型也太▁ROUGH了吧
整个世界简化成一条街道▁DOLLAR▁STREET
使对方产生短时眩晕▁FOR▁EXAMPLE我头像
不知道什么工作是▁PRIORITY
反正你都是我的菜养胖了再▁EAT吧
▁PROBLEM之前一直是单曲循环
可能是我对▁NORMAL▁CLOSE有什么误解
▁VANISH多么想要安心的睡一个好觉
啊从一开始就跟我做对的▁FEATURE
听了陈冠希的新歌尴尬正都犯了▁GARBAGE
▁COIN这个平台可以说是很流畅了
▁PENCIL▁DRAWING画画手绘彩铅每天画牢
▁LEMON的卸妆油和洗面奶好好用
卡摩拉说猪底包包很像▁INFINITY▁STONE
我的愿望是可以给非洲▁JAM科普
现在的我已经被▁FRIGHTEN傻了
这只小小▁CLIP献给我的羽绒服
所幸那就再吃块▁POUND▁CAKE吧
我还是想玩▁RI▁JUER永远喜欢二条院愉悦
买了五双鞋你们▁PREFER黑的还是白的
爱丁堡▁EASTERN▁BUSH校区早校友
▁ANYWHERE▁ANYTIME可以不顾形象不在乎一样的眼光
我也被▁INVOLVE到这件事情里来了
不明白▁DEAR韩为啥这么火
喜欢读绘本▁LITTLE▁MATHS认形状
来自一个自今还没喝过喜茶的▁ALTER
每次▁LOCKS近照的时候感觉真的很好
今天早上的▁ZIP太皮了
▁TO▁CONCLUDE就被命运推着走的福气
不少嘻哈哥的开头有个▁DEAR▁TROUBLES
不想理你还给你脸了所以▁SHUT▁UP
和其他人比起来真的很▁STRESS▁OUT
是因为极血的需要一个▁SPIRITUAL▁SUPPORT
▁DISCOVERED▁IN▁CHINA的候选药物已进入临床试验
是不是人力资源强更容易招到好▁EMPLOYEE
▁JUICY网红面包店麻薯挺好去的
最近在做关于▁EASTPORT的小调查
▁TYPHOON▁TYPHOON的中英文发音一样
虽然摔了次比较狠的终于以巴尼▁SLOPE脱离
虽然明天想把▁ELASTIC▁SEARCH搞懂
打了一下午▁OUTBREAK最高年度
个个都是傲娇▁TEACHER上一个夜班
▁NEW▁RECORD论早睡早起的好处
我都觉得▁HIDDEN真的很好啊
▁SHAPE已婚夫妇的感觉真滴好微妙
整个▁BASEMENT都是摩托车啊
终于上完▁CALCULUS终于能跟他说再见了
卡了一天明天继续本轮
以▁SUPERMAN的姿态去守护你
什么是▁PILLOW▁TALK也可以百读不清呢
太艰难了一不小心又▁DISORDER了
晚安樊心吓的▁RUNNER时光亦事年华一老
雅的歌太适合跑步尤其▁BUBBLE▁POP
从打字不会变成还算合格的▁CODER
梦到自己微博写了句话▁DRUNK成了▁DRUNK
我从未见过这么无聊的▁UPPER
不知道他在▁PREFER什么永远我都不会走
▁MERCY唱歌也很好听咬字也很舒服
酱比肉还多汉堡里的是▁BACON
好久没上来▁SNOW肇庆将军山
▁BEAMS家寄来的杂志太好看了
老师说这是▁UPPER▁SCHOOL才学的
▁Z▁EIGHT▁LIST还有你的扩以解释
▁HOMELAND怎么这么有魅力呀
▁NINE▁PERCENT李荣浩关注蔡徐坤了
感谢知乎让我知道一二三零六▁BYPASS分流
又开始写兰州马拉松的▁BRIEFING
昨天半夜生了你转的▁VISA
抽一个▁TULIP大家高兴一下
通过命令行▁GET一个▁PACKAGE各种被墙
▁FLASH然像踩点快点上车吗朋友
我抓着▁AMBIENT听了一天
没有什么▁WEARY是一顿美食解决不了的
秋趣通残又直春光明媚▁BEGINNER
▁SCRATCH编程也有体验活动满满
色号▁VILLAGE▁FIT土上粉粉搭指甲油
新年的第一天遇到了▁ROBBERY
第七卷时不时出来客串一下某▁RIDER
这段是看▁COMMUNITY觉得最妙去恒生的对话
意大利媒体▁FOOTBALL▁ITALIAN报道
最初就是为▁OFFSPRING买的票总算等到啦
▁DESIGN▁EMOTION毕业后的几年貌似好久没感觉
我的▁JACKY受苦了你应该是防水的
使不愿或生气震惊▁ALLOW
两个连续▁HOMER还行还有一个出球▁HOMER
改到和百度一模一样还是▁ACCEPTED不了
▁PERSUADE的反义词原来是这个啊
不得不说军军是四十强里最美女▁DANCER
希望你不生气不抱怨不气馁不管▁WHOEVER
谁叫我看▁BUTTERFLY和▁PEACOKE这些都觉得亲切呢
▁DRAW▁HARDLY基本不画画的我本人了
有种危机感感觉我离▁DISMISS不远了
对▁BULLY的话完全理解并深有同感
如果是大自然的力量我们称作▁DISASTERS
艾略特称这种异化之人为▁HOLLOWMAN
▁BIG▁TEETH发了一个抖音短视频
试了毛毛鞋▁HAND不适合我
现在还喜欢吗▁GUTTER▁BELT哈哈
很有▁CHOP风格的片子低成本优作品
最好▁QUALIFY的那种这种该怎么操作呢
真的喜欢▁CAN'T▁STOP里温柔羞涩的小宝
截至▁FALLING▁SLOWLY网易云音乐最热评论
昨晚罕见的在▁WEEKDAY和阿卜睡前夜聊
比起不断的倾诉真的变成了一个▁GOOD▁LISTENER
叔叔真的好▁GENTLE每次都问我
新兴市场和▁COMMODITY可能都有喘息的机会
谢谢▁INFORM我们如此重要的信息
在线还有扮演▁FARMER真小哥哥也好帅啊
▁DEPRESSED情商高的人会温暖人心
▁TOP▁ATHLETE思想碰撞没准比看论文都要有用
现在觉得自己是一个合格的校招▁CANDIDATE了
虽然有▁PITY但是开心地是我有进步了
昨天做完怀疑人生今天做▁RECOVERY
不存在▁FAVORITE这一说但是▁FRANCIS要我们写个
婶婶的▁BLUE▁DRESS日最大惊喜
陌生人是最好的寄托▁FALSE▁HOPE的港湾
然后却完全不能做任何▁RESPONSES
跟衣服号码有的一拼都变成了▁HUGE号
把▁CHARMED这个玫瑰豆沙色收入囊中
▁REGULAR家的高颜值袋装便携奶茶
没有框架束缚这样的▁TEACHER成了榜样
他说如果不是▁GOOD▁LESSONER老师就会叫他去
▁CHORUS喜欢音乐的一起玩音乐
赶紧转他们是▁RUBBER不是▁IDLE
更多新鲜出炉的▁ODDS戳这里网页链接
情绪不是委屈恼怒是无边无际的▁PITY
▁MISTY金男主持珍惜婚礼剧照公开
体育残酷希望在▁DAYDROOM里的人早日清醒
希望▁GAP顺利给自己加加油
希望▁SLIP真丝能辅助拯救掉发
周五又来了棒棒机和▁PAPERS更配哦
哈哈关键又▁UGLY又是▁JERKS
感恩看见狂奔的我后重新开门的▁BUS▁UNCLE
管你有意无意我就会被▁OFFEND到
没有了整块儿都在▁TONY安手里了
午间歌单军中午为大家带来的是▁MONK
而且那个▁CANDIDATE还没有行业相关经验
我们经常在视频举下▁BUTTERS
把那很难的连续的▁OVERHANUND轻松度过了
路人在机场雪拼出的▁AWAKE里瑟瑟发抖
有点想哭感觉▁GENTLEMAN大神肯定很多
我超累的有没有人可以▁SAVE▁ME
今天去看▁ART▁CENTRAL的展
在悲惨的家庭暴力中成长▁MOVE▁ON了
▁UBBER▁EIGHT真是村里夜宵福音
寄存器▁REGISTER是▁CPU的输入输出电路
各路人马对天天的▁REACTION合集
▁BABY▁STARRY橘子可以自己上自己的小马桶了
文明与文明的接触之初必定是▁CONFLICT▁CONQUER
人生第一次被▁PULL▁OVER也算是圆满了
看到一个横版▁ACT游戏想买
下午等酒店▁SHUTTLE的时候目击小情侣
距离之外了都在▁ENGAGE啊
郑恺你确确实时跪下来了▁CORRELATE
网红童年照我们都会明白的呢▁QUIVER
▁HEADING对我对于我来说真的是最难的题型了
二零五零年左右就可以去掉这个▁WAR▁FACTOR了吧
▁BADMINTON▁CLICK应该给我打多点折
语言也是武器看▁THE▁CROWN的时候
在豆瓣上看到有人说听▁THE▁PANCAKES的歌会哭
西班牙的老姐姐她是▁NURSING系的老师
揭秘昨天在▁TOAST▁LAB买的面包
▁GOOSE▁BUMP非常适合形容老子今天的朗读
怎么现在才发现▁SAKE好好喝啊
包装商特别大放不进▁RECYCLE▁BEAN
五月要去看▁PERFUME的表公演哦
▁GET▁MARRIED理想婚车从不摊顾客一分钱
喜欢快乐六一儿童节没得说▁GEOLOGY
这一周的▁CLEAR▁CARD看完又陷入空虚之中
回国之前再立个▁FLAG吧
皮套二元梦想破裂作为▁HAPPY▁ENDING
希望一天天▁PULL是能少一点
▁IT'S▁OK我只想一辈子和爸爸妈妈一起
今日份▁AD▁PHOTO打水仗好好玩
▁CHECK开完了一张又一张养家不容易啊
我说这种▁PRIVILEGE写满了人类的语言
今天是个▁RECOVERY轻松感动到哭
直男一遇到这样假的就很▁AWKWARD
一对释放所有后台▁PRAISE片段
三岁宝宝正在玩▁PHONICX▁PUZZLES
▁WINE▁FLASKS也都年代久远了
▁BUILD这东都已经被人家抄了
查了个▁THRIVE给我跳出来什么东西
如果▁EXPLANATION▁GO就不用▁EXAMPLE了吗
看看算法就会觉得当个▁CODER有多幸福
项目申请出▁BUDGET第一项科研辅助人员
我会了天下是我的我应该▁DOUBLE▁MAJOR了
加上▁PRIME也每个月出了八磅
介绍初学时候一起做的▁SCRATCH小片段
全组没读▁READING结果深受她赏识
还有第一那个▁CLASSMATE也带感
▁VIBRATE的购物袋也是实力帮于总打广告
▁BUT▁ELEPHANT是给宝贝最好的礼物
以前没觉得▁CLAW是个简单好玩的学科
找个做手工的地方自己来做个▁JAR
是我家▁AUTUMN的精神伴侣
第一次见到这么大的▁LEMON面霜
然后他说可以帮你换▁VANILLA▁CREAM吗
▁ALAS激动和班主任说了我追星的事实
车辆的话选择了一辆▁JEEP指南者
▁HOMETOWN▁TIME低头就捕获小酒杯一枚
▁OR幺二三两国力量相仿都不可能单独打败
一月七号▁MAD▁HEATER一开就冲了进去
发现▁CREATIVE这种说的不好
很不要脸的拿了三个▁FOLDER
▁SAUCE给的太多了不喜欢所以没吃完
看了复仇者的▁FAIRY▁TALES系列
他弹唱吉他▁CREEP的样子好帅啊
这里曾是▁PIRATE集散地▁DOWNTOWN紧接着船码头
区块链配上▁TOKEN以后再开放运营
▁CAPVITY▁BOIL的皇帝蟹龙虾还有亲口
饮料的利润得有多高才能▁JUSTIFY
最怕的就是为保持▁AUTHORITY
只说一句▁NEW会更合适
大哥▁PRIEST昨晚第▁N次表白为之缘
哇塞▁FANTASTIC各种民俗物件井然有序
好几年前买了▁EVE快过期了瑟瑟恐慌
被老师夸▁BRITISH▁ACCENT很好听
去▁FLASK探店发现每个人都发朋友圈
告诉你我是马自霞喜欢写少说▁SCORN
▁FROM▁SCRATCH上海上海交通大学强微员
非要用英文干嘛还写错写成▁DIARY
眼睛在花喉咙再痛也要爬起来写▁TWO▁SENTENCES
我不知▁SIMPLE到底应该如何解释
我▁PERSONALLY完全不▁AGREE
老师说我不用重新▁RENEW签证
▁UNCHALLENGED这个词有点意思
看了▁TERY▁HOUSE领会日本人的夏威夷情怀
然后再下载一个▁HOSTS文件
▁MOVIE'S▁DAY我在爱奇艺看小鬼当街快一起看
看完有艺术感的方案又看▁KNIT那个
▁SCORE是真的稳小黑怕是要被骂惨了
宝宝的一个▁DRAW▁BREAKER发霉了
每人两团▁DROPS进口袜子线
怎么会有干神这么▁LOW的人设
变公公的▁HAY大侠越来越美了
四丢东西不是四丢而是被▁STEAL了
▁MAPLE我放过你希望你也放过我
在这里先乐一下期待您正式向我▁PURPOSE
被按头到不敢说真话我真的▁LAY了
我爸爸你不要再关注他了
对上所有人都是▁EVERYONE秒杀
我希望我数列大体能做对一次▁I▁BEG
▁CITY▁FARMER看着他一天天长大真的很欣慰了
成志美第二百二十八天▁AWARENESS
▁HAIRCUT发完这条微博我就去写作业
猫王的▁BIG▁CHIN很欲望生动
直接购进莫大一科了谈在▁CROWN当过▁DEALER
不开心的时候去跑步还算▁UPSET
阅读部分他同我胳膊忘▁COMB啥意思
这群▁FELLOW纯猪队友不解释最差
张艺兴曾在讲述▁MASK创作灵感中提到
这个赛季▁HARM的一场都没看过
蚝油生菜里放了▁FRIED▁ONION竟然也很好吃
▁ZEBRA这支金笔虽然露漠
发了十条朋友圈第四条微博▁EMOTIONAL的一天
听不懂爵士希望自己跟猴哥▁REPLACE
一看邮件发现▁ALLICATE下午五点就关了
▁COST表示取货物或劳务支付的费用
他说大马修聚聚这段超级▁CHEEKY
▁ROMANCE▁HOLIDAY带着微博去旅行泰国
▁SOUL传动设备开发区建设工程中心
跟▁JACKY们分享一下今晚上的节目
想听▁HEATER▁BEGGAR燃爆的现场版
喜欢啃啃▁SPARK时的转圈
以前让我叫你强子现在让我叫陈▁TEACHER
沮丧的时候看看胖胖的自己▁LIFE▁CONTINUOUS
争取一个▁GAP▁YEAR然后重新出发
▁LILY老少年个个都是▁SENSE精
今晚要做个梦有个▁NEEDLE
▁KINDLE商店推荐给我的解忧小食堂
早上剩几秒冲过马路突然想喊句▁SMASH
▁PAPER▁TOR它由竹屋开发的选票用纸制成
包括在▁HIGHWAY刚刚巴士前面几米有台车
心动的周边排球少年后▁WORKMAN的合作款
两分钟后再看已经睡着了▁GAUGE
对我来说学到的最重要的一点是▁INTENTION
没带▁FOLDER希望回到酒店仍然完好无缺
听了▁TEAM的一席话觉得压力是▁UNBALANCE的结果
为什么▁STUBBORN和▁ARGUMENTATIVE要学得这么大
赶▁DUE的时候没什么愿望
不管值不值得▁SUNK▁COST已经有了
求换▁RENT或长缺任意日期差不多位子
一个▁BORING到极点的老师
然后我们▁LITERALLY聊了一下午因为昨晚
去大首都看▁ILLNESS我又负能量了
▁PIT▁PHYSICS课上写的作业
前天在▁BENCH做了八十个腹部仰卧
从圣保罗坐飞机去▁FOOTLESS时我的▁SUITCASE报了
▁RAINBOW福州站的票是全部抢光了吗
▁SUN这个词的英文是不是就是▁PASSIVE▁AGGRESSIVE
张韶涵▁FADED没有唱真的可惜了
在这样的小山坡上我听着▁PASSENGER的迷谣
这个通关后的▁MODEL▁VIEWER好好玩呀
我现在莫名其妙的▁COMMENT▁FIELD
▁JUNE因为自己曾经是第三者而在忏悔▁UNDERLINE
下个▁QUARTER新课是高级写作
钟铉▁CRAZY太好听了
一辈子在一起生日快乐啊我的▁PAGE
在▁CENTRAL刚好碰到认识却不熟的人
但▁FINANCE实在离我想做的东西太远了
脑子里第一印象浮出来的就是▁EYE▁TEACHER
第四只念五星导致▁COST不足
希望以此▁LIFT一下失落的情绪
▁AXE这个场地真像猫帐篷啊
又是熟悉的节奏▁DELAYING上
会掀起一阵票房风暴居裸奔三▁MUTTON
开始的时候宝宝拿着▁POLLY我心都疼了
日上▁HYIC▁PRESSURE假课要好认真先得
希望能踏踏实实扎根成为有▁VALUE的人
▁COLOR关于头发你想要的我都有
可是也买不到印着▁LOOPER的行李箱
▁FLOOD▁PAPER写着写着就想唱一曲凉凉
▁SOLUTION很简单我会把你从我的名单划掉
但是并不想看你▁OVERLOAD的样子
▁CREEPER黑白也是好看到爆炸
被一辆红色▁JEEP自由侠实力圈粉
可算给我找着出处了▁PROBABLY
就觉得我还是世界上▁COOLEST▁PERSON
挡不住的▁FAT啊怎么办
电脑不好▁TORRENT文件都打不开也是原因
终于知道我的▁BAMBOO为什么会卡出屎
前面坐得还好▁SECTION四一塌糊涂
木帅回应球迷给他编写的新▁CHANT
▁SEED▁VICIOUS他迟钝聪明但不善表达
十几只鸽子实验楼▁RECEPTION的玫瑰花
嗯昨天胖子说他会▁SHOVE▁IT了
主播笨得懂家家甲正在直播
像第一次来一样照了像做成▁BADGE
▁GRAY▁WORM肯定已经在排队领盒饭啦
大惊喜▁COCOA▁HANDLE西安印象南湖
分享一块神奇的香皂不用不是▁OUTLAW
目测是今日首刊的▁ACTORS▁FACE代考
我感觉完完▁DOOM我就会把▁SWITCH出掉了
学校受到▁BOMB▁THREAT大家都被疏散回了家
▁CODE▁VEIN玩家还能选择主人公性别
没什么过一会儿可能以为我▁MUTE得了他
本萌▁BEE急需一双慧眼
语言需要双方拥有共同▁TOKEN才能交流
王者宗师提供了个▁OFFER意向无▁REFUSE了
如果没有就六节最多▁INVOLVE三天
自己对别人的提醒的不满▁JUSTIFY为
你们一个微电影搞得这么▁LOW
从昨天被通知到今天▁SUBMIT不到二十四小时
▁PINKKER▁BELL彼得吧的小精灵
池子▁RULER作为特殊直接之一
听着踩追两人的▁ALL▁MINE想哭了
▁SERIOUSLY既上次在网易评论下看到有人说
将主唱大大和▁OWL小姐姐联系到一起
拿着▁EVE止疼要止痛要打卡打卡
记得昨儿老师问我们的▁DISLIKE
这个▁TELEGRAM的群组验证的看板娘好忙
我是▁DELEGATE比起那些分配到一元的
多吃了▁CIGAR的一块炸鸡两块紫菜包饭
同为▁QUIZ为某有些就那么有吸神
基于一台湾小伙伴交流的▁IDEAL▁SPARK▁PEERS
而人类内部一般是▁FEMALE片▁MALE
加上后期简洁和▁SOUND▁MIXER的两个月制作
整个人五五分不说动作▁UNBALANCE
人生充满了▁UNCERTAIN▁THINGS我回忆一些十七岁那年
我的人生又填上浓墨仲裁的一笔▁FIELD
司机▁TRUNK里载了煤气罐和氧气瓶
▁FUGI▁MEXICO餐馆老板从中餐里面偷吃了不少
在鸿海买的新潜水▁LOGBOOK
付给日韩台港厂商的▁PROFIT部分没变
然而这些都影响不上▁DUKE讲一个八卦
又一个值得珍藏的▁CLIP和前辈抱抱
松一个▁BOTTLE六罐啤酒▁SOFT随便喝
在亚马逊▁PRIME电视剧中出场了
最多的一个词是▁ACTION▁ACTION
刚才才听了一下带歌的▁DECAYS的歌
一想到▁PHOTO▁CARD是这样就激动得要哭泣
梳理一下▁BASICS照顾几个求知的灵魂
用某种技术控制了排放然后安了▁DEFEAT▁DEVICE
除了传苗所有珠子都是▁SUNLIGHT
问我试卷上▁MALE和▁FEMALE他应该勾哪个
▁ZIP改动有点大我就先发了更新
反正不是我要么▁AGENCY要么品牌方
挑颜色时候放了老八的举起盾牌▁BOUNCE
好想背上▁SCUBA跳进大海啊
自带热水的我和自带滤镜的▁HOMETOWN
▁HOLLYWOOD▁SAM草莓加云豆的秒拍视频
每一波▁DUE都是一次思考人生的过程
让阴雨天也有点点▁DELIGHT
匿名那一步可以声明▁STATIC成员变量▁STATIC方法
让半张▁TWIN▁BED给他睡又有什么关系
知道什么是▁KILL▁SCREEN的举个爪
给我这种学物理的发▁SCOUT邮件
一个上午吃了一大碗▁SPAGHETTI
今年投票为什么没有▁PAID▁CHARGE
这是▁LON▁STYLE容师戴尔品牌▁SO
日本▁OFFICE这两年▁REVENUE不行啊
把▁NO▁IMPACT复制粘贴贴满剩下二十页
在第二天看到人家的▁PRES▁DATE
结果他被▁SMOKE赶出来无路可走
▁GONE▁GIRL的中方有些逻辑错误
那个彩色的糖颗粒叫七色米▁SPRINKLE
我猜老普很快就▁REMAR了
乱用别人东西用完了还不洗非常▁RUDE
不过相比之下▁BORDER节奏快得多
为了拉票▁DANCER拉狗狗卖萌
一个个开心地不得了小学▁DISMISSAL的时候
打▁ORAL比赛的孩子们在看▁ORAL
昨晚想去油管看看发现▁GRAINS阵亡
听听高潮和▁ARTISTS的开头
每次在▁MARRIAGE里我受到批评吐槽
无论是团粉还是▁JACKY我爱的都是他们
就是我最近超喜欢的▁ATHLETE
春春的演唱会最有魅力的就是▁UNPLUG了
马来人怎么那么▁FRIENDLY呢
哈哈▁BULLY真是我快乐的源泉
为使任何野生鸟类都会被处罚
▁UK▁STORE已经上线哈利波特官方手游
每一个▁TWIST都让人觉得舒服
▁TURTLE▁INN酒店老板清早还送咖啡
明明▁DEVELOPER的▁BUG要我去跟客户解释
这个东西只有我知道▁GODDESS
前者叫▁ACHIEVER后者有时被称为▁POLITICIAN
我带根笔在▁HAND▁OUT记笔记他你不看书
最近状态真的很▁SECOND明明喜欢的人
▁LIBERATE▁DREAMS大学生艺术节开始啦
马婷婷一家子同时为▁CROW小王子打▁CALL
这个角度各种各样▁MY▁MOUTH
丹娜丹娜硅胶凝胶▁COLORFUL佩戴无感无可挑剔
特立个▁FLAG希望有梦想成真的那一天
亚马逊▁PRIME会员年费现时一九九元
我觉得偶大家都▁OVERREACTED了
我买的▁TENNIS▁TV注定回不了本了
二零一三也要出动漫了▁CAST有点厉害
看▁AIRPLANE▁MV时候就觉得小兵演绎得很好了
找到了目前身体状态下▁BILLABLE▁HOURS的极血
传说欧美专门偷小孩子的怪人▁SURRENDER慢
我们电竞选手线下见面要全装▁DRESS▁CODE
腿酥软了屁屁▁DIG出来的小男孩
雨过天晴的▁VIEW还不错
失眠时会拿▁ECHO播放雨声安抚入睡
前几天看了一个▁JOKER的视频
▁WORLD被驴给踢了先进个人
用了几天▁MILD板表示很无奈
昨晚后来发现▁QUEST的▁INTERVAL改成五比较合理
冷吧▁ACTION出门就能遇见小热巴的感觉
韩专也能来自不良学生的▁CONCEPT
我在美国电商网站▁SMART做市场总监
除了工作内容是游戏▁BORING是不变的▁BORING
一月份的▁MONTHLY▁PLAN完成了八成
设置我不是太懂为何放成▁HATCH
我想问一下哪儿能搞到▁AP▁CALCULUS的书
乐于▁JEEP大指挥官录视
下辈子见▁MY▁DARLINGS愿你们不再受苦
附图七金七两的▁COUSIN▁SON
我还是换换风格好了今天不▁SNEAKER
就想说一句▁TWINKLE一套是纸片
时装周开始流行▁CROPED▁JEANS八分牛仔裤
四月最后一天准备一件▁SUBMIT
做一个新时代的▁ELEGANT▁LADY需要耐心和礼貌
亚洲新歌榜▁THIRTEEN十七岁生日快乐
▁RECENT当了好几天的司机
但凡我▁M▁V▁P的局全部都是▁DEFEAT
▁IMPARTIAL公正的▁INDEPENDENT是有主见的
▁THREED▁EFFECTS的同学们东西要妥善保管
要去▁ROTATION的我独自在黑暗中瑟瑟发抖
没有老婆的时间是▁HUMDRUM
这角度抓的▁BALANCE很不错啊
我到学校在我的▁CUBICAL坐下就趴着狂碎
有时候觉得自己很▁MEAN
所以才特别珍惜▁POSITIVE▁COLLABORATORS吧
我本来以为今天能把▁SECTION▁THREE写完
希望▁IMPACT借着热度能够短期回归
这只▁SPEEDY▁NANO也太可爱了终于买到了
没有自己想象中那么像个▁FIGHTER一样
▁MORAL点没坏处只要能负担起
▁OUTBREAK好无聊啊闭着眼睛都能通了
我和▁FIGHT板砖合唱的这首歌还不错
比如我听见▁FINANCIAL▁STATEMENT这两字就想跳楼
▁IMPLY题请您告诉我什么题型
看了▁YES▁MINISTER后觉得哈克和汉服来挺配
真的▁BO▁BOW他和如平在一起
每周一盒▁GRAZE对于我太多
不是▁AUTHENTIC的贝果口感不过还好
你▁CHEAP送你蛋糕的人▁DISGUSTED我就不评论了
▁COLONI▁COLONIAL我们应该怎么理解这些玩意儿
下班了跟同事去吃烤鱼▁FOOTBALL
这么多网友都喜欢模仿水源希子▁DISMISSAL
哪位大神会用▁ACCESS二零一六啊
▁BOND除了有常用的跳跃反弹的洞
给自己更高的要求▁DAZAL真的很不容易
再也不用去▁CANTEEN花两毛钱买擦子了
扩展开展膨胀开阔浩瀚▁EXPOSURE摁
照顾好为何身体该是不变的▁PRIORITY
精准成为别人地一万个▁FOLLOWER也很开心
煮菜里的▁VIEW是小牛肉的意思
▁SMALL▁TURTLES杭州纹身小图纹身小清新纹身
她是▁EXACT公司选出来的泰国小姐
华盛顿的路好多▁NO▁TRUCKS卡车没人权
每个▁LIGHTNING男孩女孩必须要拥有一个
▁WAX七七零八零梦想才是一种能力
明天去买▁SPRAY▁BOTTLE去治它
小天使张少涵很棒等你唱▁FADED
在▁SYMPOSIUM上面遇到以前的一个师兄
这次新的旧的一起补全我个人的▁BIBLE
我刚把我学生卡永久▁SUSPEND
▁SAFELY▁WALK胖胖小波妞的微博视频
这种▁TRICK也是销声刻的旧玩过的
相信自己能瘦的就算喝奶茶也能▁PROMISING
推荐一个帮助自己▁LOOKING▁INWARD的作者
多多少少会有一些▁PET▁PHRASE
废墟新教学楼游园所获▁SIXTEEN
▁SCHOOLS▁ENDS重庆重庆大学城爱美酒店
发现我们学校图书馆在▁SHOW▁GENDER▁NEUTRAL▁BATHROOM
结果不到十秒钟▁KISS▁DISMISSED
▁THE▁OATH太喜欢这种类型的剧了
我得满怀信心的生活不然人生多么▁TEDIOUS
▁PERSISTENT▁DATA这个东西当然不是他发明的
第十三个单词▁PAIR这音太冷巴了
▁OATH路飞恐怕要失宠了
东西只是从来没有意识▁RECALL去利用
虽然我还想说▁STAND一列不如最后一列
现在这个世界是感觉都有些不同▁RETORT
小爽对▁EVERYONE真的太可爱了
昨天是有一点▁AWKWARD的一天
空间鉴赏色彩的碰撞图片转自红木▁DESIGNING
今天取关了一个网红微博有点▁GROWTH
今天看到个单词▁TORRENT觉得眼熟
网名决定要改了荔枝嘟嘟▁LIT
到底要不要蹲门口吃很▁TOUGH的决定了
和古老师怎么都不能分开▁ADOPTION
诶高阳正男身边的两个美女MIST
这种▁TOTAL▁LOOK的菜式还没学会
一只名叫▁BERRY的裁犬因笑容太治愈
制作歌送我的▁HOMETOWN的一首歌曲
除了第三▁BUGS圈榜单一位
做了两年训练来一个正经▁HOLLOW
▁CUTE▁SEAL别再最美的时光活出最丑的样子
说我黄的人我是有飞行员▁LOGBOOK的人了
还是一口▁DESSERT来得幸福
今天也是快乐的默读女孩▁PRIEST默睹
从六神到美国妈妈人手一件的▁AFTER▁BUTT
新闻发布会很火爆的好极了▁THRESHOLD
还没到春节这种诞生狗的▁PINCH节日
就想问一句你咋想的不怕胖啊▁DU▁VECTOR▁FOIL
真是无聊我要回去做▁READING
▁AWESOME▁SCHEDULE宋亚轩你可真有意思
想了好久▁HOMELAND那些人图啥呢
都有不为人知的痛苦和脆弱的▁FITTING
夜闹尽头别让我独自守候▁MISTY
每首歌总有两句▁RHYME让我不禁切喜
第二块▁LOCK▁ON巧克力丢给了
▁DISORIENTED是个挺有意思的词
全部时间都爆满很幸运还有一组▁TWIN▁SEAT
每天都是无滤镜的▁TIME▁BUILDING
李老师贡献了一道菜就愉快的累了
我是完美的▁SINGER而你却不是最好的▁WHAT
▁UNFORTUNATELY这俩条件我都略差
这首歌是不是有点狼人杀▁BASE的
谢谢▁HOMERS圆了我一个梦
呼吁剧院博物馆之类的▁CLOCKROOM都收钱
现在当你在免税店你冲进▁LAMER的时候
可以走上更美好的工作环境啦▁FEEBLEIBLE
这一过程甚至有点近似▁DELAYING▁GRATIFICATION
上帝送给人类的▁DESSERT男女都一样
在无用的克制后还是买了▁DESSERT▁DUSK
英国报纸形容刮帅的踢球风格用▁ARTISTIC
深夜凌晨开始在一二零零▁BOOKSHOP特色书店里
附送公司▁SUMMER▁CAMPAIGN的搞笑故事
今天开车将近半小时去了▁MINISTER特走
▁LOAD都不知道多少次了
反而可能有一个▁DRAWBACK会被时不时
立桃园期▁PACK健康食品包装设计
会把▁ALL▁RIGHT▁AWESOME翻译成好可怕
▁NOW▁MAN热门小说改编演员阵容也不错
公司今年的▁RECEPTIONIST
我会瘦下来吃了▁CHEAT▁MEAL长了两公斤
今日▁NEIGHBOR的精华也找不到了
认清了自己不适合学文化课或者▁READING▁INTENSIVE
▁TEAR强调的是离别时带着释怀的伤痛
小鸭子跟着▁COOKIE回了家还不肯回去
一个好的▁EMPIRICAL▁ECONOMISTS储备着不少基本模型
一碗火鸡面简直就是▁BEST▁CHOICE
午间冲锋号可能是吹给楼上▁TRAIN的听的
下午一根香蕉睡前一杯▁TRIM牛奶
其实暂时并没有看到▁DISLIKE
▁SD入世界第一当之无愧
结果他问我什么牌子的哦▁SMELL啊
真好玩爆这瓶是真爱了
追随着樱花木道和海街▁DIARY的印记
除非用让我开心一百次才能弥补▁AM▁SERIOUS
▁BRING▁FORWARD的意思是提出或建议等
处在▁TROUBLE二的哈宝妈妈需要跟你说▁SORRY
陈奕迅跟谢霆锋扮女装是模仿▁PUFFY
那么长时间的道德测试终于做完▁REMARK
这个译本是什么鬼啊▁WRIST不是▁WASTE啊
明天又是一周▁BUSY的开始了
谢谢亚历山大行政主管内部▁DISCOUNT
玩两把▁QUICK发现我可以告别这款游戏
为基百高说我们州是▁SOUTHEA▁REGION
篮球凡与腰伤一直努力发挥超级▁HUMBLE
见次郎和▁HEART▁DISK和你说晚安刚先生
▁CLOCK我在这里上饶汪口
找个人给安装都各种▁ONSURE
像鹿仔这样有趣又善良的女孩▁SHE▁DESERVES
刚回家后对方收到▁TEST▁D▁PT▁CS四的微博视频
给我做饭的小姐姐▁CHARMING▁DOLL瓦房电视
结盟具体的▁CONCEPT还没确定
有亲亲抱抱举高高的赛马▁HAPPY▁ENDING
学校里那么多▁CHAMPION是认真的吗
今日单词▁RECYCLE再利用再循环
卫生间没有纸洗手池也没有▁HAND▁DRYER
日常问▁LAB什么时候开始卖
昨天▁RICHARD了我妈妈我的▁FUND不够了
这两个人的▁CHEMISTRY真的配得让人窒息
这位冰迷对中国▁PAL了如指掌啊
▁HUNDRED和▁THOUSAND总是区分不出来
让人动容▁CLIP连人王中王清风停▁CLIP
工作▁SUFFER是好事情的啦
大半夜被这句▁EVERYONE笑到肚子疼
我发一些灵魂草图然后让我▁REBELLED
京东联盟的▁U▁R▁L特征是▁UNION▁CLICK
美国去首尔▁STUDY▁ABROAD什么都没准备好
路边悠闲的▁HORSE住建我们的▁HOUSE
晚餐是▁ORIENTAL▁SPOON我这个学期的第一次含餐
哎抽两面宿舍全身镜有不懂的地方▁CONSULT我
早就期待影片心里对了▁LITERARY
获得了最高奖项全金奖▁GOLD▁MEDAL
▁PENNY▁DIE是我喜欢多年的女歌手之一
按照个人下载的游戏时间▁LOAD进游戏
看了一下你▁EVEN的新副本
▁COOKIE是我生命里超级美好的一件事啊
没有▁GOOD▁ENDING的一天不完整
会满满全团要求金额的人吧我▁RESPECT了
二十四小时的活动真的是一种▁TORTURE
原来我▁FAKER真迷是会出现的
假装练了▁SPIT▁CROSS▁FIT绿悠悠的秒拍视频
从哪说出来的让他给吞下去▁EMIGRTE
俊母▁CULTURE哲学性感诗人金兰俊先生
让你避免你的▁A▁BLOCKER成为你的拖累
朋友一起加油畅游在▁ACCOUNTING和▁FINANCE的海洋中
我也好想要一个粉色的▁COFFIN
▁KING接车又有几天的▁BLOCK的
我这次搞了▁HIT▁EXCHANGE上次点了一杯酒精
为了躲避国安居然也要用▁BURNER
这段时间沉迷抓▁QUEEN发现
都没看出来▁BARELY否定副词都没看出来
▁ARTIST的直拍还是被王林同学蒙到心颤
见识到了新的保质期还有▁BEING▁REALISTIC
▁ARTIST活动中我发现我关注了几位男生
▁SOMETIME社会是个染缸试图给你染上印记
随着十二点▁SUBMIT之后我给自己煮了一碗面
都变成了自己的▁MENTAL▁MODELS吗
我很喜欢一路找不到▁MUMMY写了九百
然后坚定不宜地回答▁BILLION
经营的葡萄肉凉凉的▁ICE▁CREAM味道
运动偷个小碗收到了之前买的▁BLENDER
我说我要买▁CHAMPION的渔夫帽
▁CAR是穿了个作战服吗
一口饭都没吃的再给你的▁INTERFACE编程
买了烂脸霜和最近大闹的▁FLASH三
把手指脚趾都弄成了磨砂▁VIOLENT色
募捐众筹▁DONTABAS的▁COURT▁FOUNDING
▁REGISTER了这种卡实在是太太太太太太丑
某位▁LOCAL▁ARTIST居然开口一句超人
班会开到九点半跟室友跑回来排队▁SHOWER
妹妹雅思口语拿了九分我真是▁SHOCK了
一天能合理安排好五个面试我很▁RESPECT
国土安全▁HOMELAND第八季剧中啦
▁DESTINY要以更平和的心态去拥抱未来
测试一个▁DISABLE的输入框能否被修改掉
结果我真的完成了五个▁STAGES
找个课题然后▁FORK一下内容
▁IN▁MURDERS每个人都会在脑海中有碎碎念
下雪的航程好美丽我却在酒店做▁PEACH▁PEACH
▁HUNDRED的正确美式发音和跟你想象的不同
据说下个▁MODULE会有一些▁PRESENTATION
娱乐圈太需要你们这样的国际▁FANTABULATE
今日最佳单词▁GAMBLE▁HEARTS赌徒之心
▁BYPASS的专业翻译似乎是搭桥
比怕怕高也是公认的▁LARGE
跳了十个▁STEPS想到三十分钟后的事情
毛不易歌曲▁CHAMPION的声音听不到
摩卡少女樱▁CLEAR▁COURT片动画版看完
几乎都▁BURY了自己自由又胆大的天性
有种手法是最好的律师都留在▁FIREMAN里
递给了多少次好球真是▁NICE宝宝了
惊险又▁THEVIRUS的幕后花絮
▁TINY哥真的又来韩国了啊
以及胶片掉色插件▁EXPOSURE
这首▁WHERE▁WE真的太好听了
▁CRUDE▁PETROLEUM因为颜色纯黑又有极高的价值
▁FUNERAL这个单词被我极端的抽象化
少一点随意▁JUDGE别人对别人的▁IDENTITY只舍画脚
下周的▁TOP▁PRIORITY是把北京租的钱搞定
想当咪萌还要提高▁TECHNICAL▁SKILL
明天带求▁MEDICINE自己报的名
怪某位太太搞得我们全寝室全是▁SPY
完全配不上▁RIBBON艺术品般的胶带
咦还没▁INSTALL过就开始▁DISCOUNT的好少见
没去做自媒体▁OPERATION真是可惜了
变色▁LED灯条意料之外
▁READING把我榨干来一点甜歌安慰
成长的过程中逐渐▁REVEAL了自己的本质
非银行的首相系数▁LEADING▁COFICIENT也称作主员
其实我觉得▁WITNESS也没有那么难听
▁THE▁DAYS▁LOOK婚纱小鲜使怎么这么温柔可爱
▁MAIL的版本最好他一唱都感觉被▁ARRANGE了样
按照▁SUBCONTRACT按实习公司给
阿姨就像▁MODELS有▁AGENCY的阿姨派活多专业
期待你再一次突破加油你是最棒的▁HERD
▁DIGEST有人说爱情是理解和体贴的别名
感觉自己要是选择▁DIVORCE的话
▁GOSSIP▁GIRL在我心中的地位没有美剧能撼动
这次跳的▁BOOM▁CLUB第一次跟不上节奏
接着又打开▁EXCEL做公司十八年▁BUDGET
他身上偶然几秒很有▁CHRISTOPHER那种倔倔的▁FRAGILE
不论是▁WEEKDAY还是▁WEEKEND没时间去医院
买了一百多的▁BEAUTY▁BLENDER用了两次就扔了
▁LAY了▁LAY了眼睛要炸裂了
我要开启偶遇▁AMUSE的属性
有个手拿大剪刀的▁RED▁DEVIL站在我身后
我不敢看▁SIX▁FIRE怕自己没法好好上班
学一学大家都整着看▁RADIO
杀破狼女孩的幸福生活杀破狼▁PRIEST
睡前刷一集▁CLOSE▁BLOOD四个恐怖片
心里好累谁让我一直偏好当▁LISTENER
制作一个▁BEDROOM小型展览
亚洲全席女团就是这么给力的呀▁SIGNIFY
▁GLAD▁TO曾经与你们认识过
热血街舞团看上去各种▁MODERN▁STREETS之类的
▁FOUR▁KILOMETER要好好锻炼身体了
列车开过去▁CAPTAIN亮相击中我的心
所以只好给你照下▁LEAFLET上面的样子了
▁DRAW六十六道既然来都来了且随遇而安
作为▁LOCAL应该把西餐定义到更高境界
世界都静音了剩下的只有▁ONESELF心跳
帮我剪头发的▁POSER老师说我胖了
觉得别人都不是可以▁BLAME的
刚从▁PAN▁STATION出来大白天最繁华的地段
老师身上强大的能量▁POP行动拍摄群
富连山简直就是一场▁MASK
各具特色的房屋有▁MAIL▁BOX有花装版
听过他们的一首▁ANIMAL▁INSTINCT
不少软件还种过你们赞助知乎的▁FRAME
台湾▁EXCHANGED时做好补好多课的准备了
▁CARRY全场设计师在▁VIV▁I▁P啊
我对这▁CONCEPT就是说不出来的不喜欢
真的勇士敢于直面▁DOUBLE▁MAJOR
谁能告诉我▁CLIMATE和▁CURRENTS是啥
天籁之音再烦的事情都▁VANISH
对红利▁DIFFIDENT征税是各国通行的规则
高级▁OFFICER是要报公司地址对方就知晓
像本数目多毫无帮助的男人都▁SUCK
等到▁SERVICE的时候把车的▁HEATING问题一起修了
收到一个▁OFFER和蒙娜士的反馈需要▁STATEMENT
有两天作业没写▁LOGBOOK也没带明天考试
工作四个星期了没有去过一次▁GROCERY▁SHOPPING
▁SPARK上海外滩中山东一路
哪个星球的测量判断出框大也是▁AVERAGE
▁SAVAGE林俊杰全新专辑伟大的渺小
电影糖果世界大冒险五月二十七日上映▁EVENING
厨艺略进步其实还是归功于▁SOURCE给力
默念哈里路亚▁CHANCE祈求倒流
又有糖了顺便▁LOCKS也在今天
在一千两百▁BOOKSHOP的暖心自在里看爱苏人的百态
▁WORKMAN现在的孩子不知道这是什么吧
结论整个大洋周都是▁RURAL▁AIAL吧
职业球手啊像这些▁AMATEUR
新百伦的都不错耐克的▁LUNAR也行啊
▁VERY▁HUGE的公司搞得乱七八糟的项目
他们的▁MANAGE能力真的太弱了
工作在我的排序中是▁PRIORITY的
不应该是我们的▁CAPTION吗
首刷杭州城市公交卡就▁FAILED了
三天没有球赛看了而变得超级▁GLOOMY
周瑞▁MOONLIGHT资源博被翻牌了
动手的地方是内室多了一套▁EYESIGHT
活在▁GERMS中心的▁KK决定今晚上回家
▁FEDERAL最高税率也没到一半吧
男厕所的英文弄错了应该是▁MAIL
去洗车或者▁POLISH会肉痛
明天五点回来继续奋斗▁TOO▁BUSY
▁DELAY▁FOR▁HOURS史上最困的时候了
翻翻敞堪▁TONIGHT假装自己在看▁CORN
跟风入了南尔的遮瑕色号是▁VANILLA
去参加德威国际学校的▁FOUNDERS▁DAY
他想出▁RANDOM的东西第一个想分享是我
亲眼看到陈喜猫▁ILLUSION没带红领巾
一回来就要赶▁FINAL▁ACCOUNTING的作业
不了几句话我就想给他的▁COLLEAGUE
最近越来越读▁SNOWMAN的消息了
知道他是错的却没办法说真是▁SHAMEFUL
▁BACK▁SPIN这样接简单也好用
让我义无反过的去跳▁THESIS的坑吧
这样需要麻婆是▁SABER或是▁RIDER
放的什么▁HERB和干菠菜配在特别好吃
反正都是陈立农中国▁DRAGON
滨海湾的移动福台现代的活动是▁ART▁ZOO
只有妈妈更懂妈妈我爱你▁GREEN
▁HOMELAND最近几季没以前好看了
还是宝▁LIGHT台灯小学生护眼灯
最后十六▁VOTES即将入主白宫
到了舞蹈中是一位非常优秀的▁ARTIST
期待了好久的▁NEW▁YORK我也要来啦
口头赞扬结果我写成了▁ORAL▁REWARD
感受到▁CODER熬夜并非都是赶项目
唯一的▁SECTION还是没改正过来
听说满天星的英文名非常美▁BABY▁BREATHE
但是一想肯定会▁OFFEND到一堆人吧
双方的▁COMPROMISE而不能只靠单方的▁TOLERATE
朋友们对号入座▁KNIFE不用看里面有你
还是直接改成小田▁FOLDER好了
时间忍忍转眼间小女孩都变成了▁MUMMY
火车上有个热心姑娘穿着▁GRAY的卫衣
相比之下我国同志圈连个▁PARADE都没有
但没准那正是你最需要▁HIRE的人
在▁UNIVERSAL▁STUDIO发现一间特别有趣的肥皂店
超凡想象力当时最著名的建筑师▁RICHARD▁HUNTS
下一个工作来了然后就想煮个▁MIRACLE
有个法语单词叫▁FATAL意思是致命的
真受傀儡瑶有一点▁CENT感觉
去看海去沙漠徒步▁GO▁ANYWHERE
外教问你传来温柔娇嫩的声音▁CUCUMBERS
临走不能辜负这个三九零▁YEARN十五块
番茄坨变成了纯正▁CAMEL
最近四个很厉害的魔法少女▁SIGHT
▁KICK▁OFF的活我只想说领导们讲话可以
原理一说的是世界必然存在稀缺▁SCARCITY
所以我要告别心爱的▁SLIP了
▁OMIT两个最低分也晚了
重刷了泰坦尼克有了阿黛尔半▁ROSE和这个视频
反倒是第二首▁ATTENTION循环到现在
随便一个岗位就是几百几千个▁CANDIDATE
气质跟张有点▁SIMILAR也就王倩楠了吧
从一▁CENTS到二欧竟然清出来了十二欧
错过了更美好或更糟的▁TWINING▁POINT
仿佛龙蛇蓝画人形等待拥抱▁PALM▁SPRINGS
那个▁MONTHLYLIES又是怎么样的一个形式吗
穿了一件和满那街装山的▁JACKET
我终于瞎写完了▁OUTLINE要了我的命
想买一口让▁HAM拍成电影去拿奥斯卡
我就是这么▁EMOTION就像阴天我只想睡觉
哪怕我解锁不了▁FORGOTTEN我也要咆哮出身
纠结中选择往往不是▁ON而是▁NO
▁VANISH并没有按在地上摩擦的意思
少喝咖啡为保持差不多程度的▁MENTAL▁ACUTENESS
一直执着的食语和▁RIBBON都是逢出必买
▁MERRY屁股对着她趴她身上
当时的▁FAX反映出的事实
六月毕业七月开学▁EXCITING
已收集▁HARDY老师穿这套衣服的照片
雷锋伴我行我们都是▁VOLUNTEER
但是依然猜不出这次的▁CONCEPT是什么
初次体会到▁FRAGI▁OUT含义
喜欢那份古典美籍对▁NIECE的钟情
有个▁CPU固定百分之五十▁LOAD的奇怪东西
▁SUNIRD的救赎可以看出一个道理
我的巨型蟑螂▁RIDDLE真的好到炸裂
这电影不看都对不起我自己▁ADVERTISE
▁BOUNCE球服人手必备实验
看一个复仇者▁DISSEMBLE也会眼睛出汗
新酒店▁HELOPS和▁PRIVILEGE风格完全不同
仿佛▁N年已经过偶的▁WEEKDAY后后物走接
▁STACK小姐姐也太帅了吧
骚扰了五十个人帮忙改了五十遍▁DECK
▁CRY▁BABY的眼线笔是不好用
加拿大网友表示▁SHAMEFUL啊要求她道歉
带来不好的影响要学会保持平和▁CALM▁DOWN
哀怨的小眼神这个▁PEER飞到九霄云外
学▁CAMEL没谁了长大一起欣赏哈
▁ZIP手势真是可爱我不管
我好快乐因为我是▁STONY软糖
为什么我每次去▁CLUBS都是人模人样进
这个岛太▁GAN了超级要面子
▁THE▁ORDINARY功课让我觉得自己犹如钢铁直男
▁SHIP数字专辑和东专也买了十张了
老师推荐了两年的电影是真的很▁FINANCE
今天英语课我讲了▁HARM
我什么时候能去一个▁DIVERSE的公司
至少▁TONE级别网上没一首废曲子
忍不住重新拍了一个▁VISA卡号
这就是需求和规划之间的▁GAP
去▁PATCH的时候直接取小点不就行了
打羽毛球没打成因为弯二的▁WHEEL关门
丝毫憋不出来东西不想做▁DEADLINE▁FIGHTER
大家在一起吃▁AFTERNOON▁SNACK是芝士小饼干
二狗和▁RANCH对话二狗想当难度
手快掉了不要问我为什么是▁MILLION
生活中要处理的▁RUBBISH太多了
亚马逊向▁PRIME会员开放一部分电子书
因为两个▁KISSES到期了就是不办不行了
▁VISUAL这个人太不要脸了
要么是去部队应该是去一个地方▁BRAIN
今天我们给大家带来的单词是▁SLEEP
早早起床准备去▁SOCCER▁GAME
不是妈宝男就是巨婴都等着我养▁LOSERS
今天买了▁LOAFER也不好看
下学期要上▁SLEEPY▁HOLLOW有点激动啊
前一阵录制的▁OFFSET采访新内容
本▁PRIEST四十八团饭硬生生被逼成云云▁WF
虽然搞基这次专辑有很多▁RANDOM
▁CONGRESS▁CONSCIENCE▁COMPRESS这个谁分得清啊
▁LAMER后悔买了不是那么好用
这么看一个▁SITE也不便宜给大家参考
上学的时候第一讨厌▁HUMAN▁FACTORS
▁SORE酸到极致的强烈风格又爱又恨
也可以是▁HOTLY▁CONTESTED这个更具体准确
▁COLONIST殖民地居民殖民者
这个▁COMMENTS可以说是很开心了
面装胶片写真集▁FOURTEEN▁O'CLOCK
▁CAPTAIN正组织人员紧急排爆
口出狂言再做十个▁BELIEF也没关系
想吃▁AWFULLY▁CHOCOLATE的蛋糕不割东京的布丁锅贴
大家懂的▁BOBO大家给我一点
所以走了▁TRICK人格转遗留
▁TOKYO▁ORGANIC位于元素的明智神宫前
卧室的月租是八百四十一个月包括▁HEATING和水费
王晓晨▁ANGLE你一直陪在我左右
万一今年▁SLP拿到▁OFFER
水手连衣裙▁ROSE▁MARRIED和双目的连衣裙搭配
下个月课程要开始了有点小▁NERVOUS
▁TENSE▁ONE来了也没空纠结和信聊
单经节律于过去照就错误贯注▁FADED
冷到连▁DOCK里的鸭子和天鹅都不见了
两个▁DANCER天天出情歌是怎么回事儿
实力圈是▁BALANCE八卦故事中心的秒拍
年初一要十反个▁DESSERT先开心一下
你是真的懂▁OFFSET与▁SCREW吗
纪念我初中的磁带▁WORKMAN
日常穿搭表白▁CHAMPION想要同款仅一部▁FMU▁STORE
遇见一个单词▁SHRIEK觉得这单词很漂亮
新专辑都有▁CLEAN和▁EXPLICIT双版了
不会主动及时推送的▁MAIL▁BOX
▁IN▁ZOO当秋天是个相当刺激的运动
香港舍不得我们走▁DELAYING
我不随便跳▁FATE系列大坑果然是英明
为自己的▁WEDDING▁RING选起了石头
我的另一半在何方啊▁DISALLOW
祝▁CLAP家的各位生日快乐
坦白从宽更常用▁PLEA▁BARGAIN来表达
有语调的突然转变极有可能出▁IMPLY题
类数组明明可以直接传入▁APPLY
张根硕露出微笑和诈骗团开始了▁SETTING
模拟成女神经真爱生命▁HAPPY▁HOLIDAYS
▁EXCHANGE交易所代币发行量
看邻座的怪同学和漂白以后还有▁KINGDOM
全球中文音乐榜新歌曲▁NEVER▁LOVE
我都要▁ZQSG说一句你真的很▁STUPID
除了▁CALENDAR和▁POSTCARD以外能不能出点别的特点
▁NATIONAL▁HIGHWAY澳大利亚藤南特克里克
用婆婆特化了一张▁GRAPHICAL▁ABSTRACT
▁RECYCLE字样的字和里空无一物
八号的那篇文章我真心▁RESPECT
第三集的▁MISS▁DIVER照例看腿
单车最好六岁的▁CHASERS在我去见老伙伴
读着奇奇怪怪的▁EMOTIONS真是久违的享受
▁UPSTART▁CROW第一集罗密欧小哥演的太好玩了
你眼中的▁MEXICAN▁FOOD是什么样子
发现我大一买的▁THREE▁FLOOR紧身小礼服
▁JET▁LAG更像是身体上的反应
迷迭香美食的秒拍视频▁VIA
▁INDIGNATION是不错的写作词
▁SUPPOSE我还在的话现在小孩不要也爸
你的▁GRANDMA大概上辈子就是冷血的
定好听▁CALCULUS的课可以的话就坚持下来
▁CANNON这个词张张嘴却总是说不出来
也是▁CLAP少有的敞开来福的作品
娱乐圈最有诠释的女人▁SHADE了
只喜欢▁ROASTED▁BEEF三明治的人飘过
连带着看破不说破的▁SO▁COLD政治隐喻
最近用完了▁THE▁ORDINARY视黄醇
女人要想别人送你▁CHANNEL自己要买得起▁LV
今天下午带的▁SNACK没带昨晚的布朗尼
虽然是顺恋歌但▁SHOCK的词真的很好笑
直播时看到这个镜头感觉被▁SHOOK到了
盘中餐这个▁IDEA还是很棒▁GREEN
后来听到▁ARTIST真的做到了戈壁人红
安利中国网红飞沙▁FLYING▁WHEEL
计划着网上的▁MOVIE▁TIME计划着搞笑
▁DOLPHIN豆匪一大早的表白
在动物休息的时候无聊走在▁RAILROAD上
▁RANGE可绕地球八十圈的每日推歌
▁BOARDING还差五分钟我还在安检外
满足于▁POOR▁LOSER的状态无聊虚荣肤浅
▁CLOCK攻击绿色的攻击孔雀笑死我了
第一次参加如此沉重的▁OUTDOOR▁PERFORMANCE
快一千零四十八次列车即将到达宜昌东站▁FARMMENT
第二第一版▁PAMPHLET是委员会的新选
后端要的时候再▁CROWN到本地
心态崩被人推着往前走的感觉▁DISLIKE
照片三十▁YEARS三▁OUNCE那张碟里的那个地方
▁TEACHER希望我出差回来的时候能见到你
人生没有▁RESET只能将错就错
忽然懂得你的不容易▁MASK的心酸我
爱有多伟大就有多卑微▁SADNESS
打架时的姿势和▁BREAKING似的
迷女神帮帮我一点就是▁FAILED
只要▁WEEKDAY买衣服换货二十四小时内必到
▁HAND▁OUT剩了这么多下周三我不准备新课了
罪恶感不管了明天还是要▁THIN的女孩
拿个手机拿个▁PAY的同框我也是拼了
为什么一直▁RECONNECTING
自学和▁TRAINING时天天上午困得像死鱼
▁BLOODLINE里▁DANNY的儿子有点像垃圾船身子
超级超级无敌美丽的▁GRANDMA
挂个▁SICK▁LEAVE决定整个周末不上线
▁EQUALITY修书魅力就不说了
让小黑带路去了攻略网红店▁TOSS
很喜欢我的英语▁READING老师孙国男
▁THE▁CORNER本来想去红领巾上推荐的一家店
好多不认识的朋友为▁LITTLE▁MONSTER写的乐评
把美的家居▁LED节能灯泡
▁FAN花费人生重要的这两样来见我们
今天要死在岗位上▁SEND▁HELP
▁BLACK▁PENCIL太好看了好喜欢非洲部落元素啊
今天看向往的生活▁PRIEST
▁THUNDER可以不听只要你身体健康就好
我昨天晚上又梦见你了▁SINK
考完试又饿了吃完▁SNACK去午睡
别人再一遍又一遍练▁ELEVATOR▁SPEECH
其实跟昨天差不多还是最爱的▁EVA▁COLOR
同时剧行的两部剧都与▁NOTRON有关
如果唱▁PROBLEM的时候不断气就更完美了
发现这群明星大侦探▁FARMER很帅啊
都说他是城市最大的▁GARBAGE
可以同时加入义勇军兄弟会和▁RAILROAD吧
今早盛水的▁ONION也人太多
学生记你写了所有▁COMMENTS的回答
只是要记得再忙也不要违背了▁PERSONAL▁PRINCIPLE
广安的▁HOMERS▁HOTEL酒店出门就是海水浴场
和他们会▁OVERLAP都是我的错
几群航母莱虎是药物扬威收▁KELLY
教你如何写好一份英文▁EMAIL
这次▁TASTED反应网页连接
问▁WAKEN题目来源于生活
本来打算调一个▁TILA▁SUNRISE
求▁LOVE▁LECTURE的歌词
明星们的▁MICKNAME的来历这么可爱
大半夜看▁TRIANGLE的▁MV笑出猪叫声
▁PASTE的腰带却是最可爱的单品
两个烤翅一个▁SALT一个照烧口味
使周遭环境提升了一个▁LEVEL
最近影视里时不时冒个超模也成▁NEW▁OCCURRENCE
而且这个事情不能是▁UNCERTAIN
▁DW了十名战成带退队加入职业战队
无意中听到两个▁PRINCIPLE在讨论给面试者▁OFFER
不良反应的单词▁ADVISE▁REACTIONS
▁TODAY'S▁PICTURE清明天气最好的一天
不再依赖▁GOOGLE▁TRANSLATE生存了
▁TWEF不是说说就可以什么都会变的
最后想要拥有▁LAB的口袋和海报啊
母亲给你对的▁PURPLE▁DRUNK喝多了吧
两张同时要就两万▁YEN
昨天有人问我手机可以▁FAX吗
看一点▁VIDEO看一点▁VIDEO的秒拍视频
李寒选预言没唱▁FADED挺理智的
畅想自己拍照拍哪种风格摆什么▁POSE
用▁APPLE▁PAY和信用卡支付不知有多开心
特地在▁KINDLE上下了无人生还
耳机里放着布兰妮的▁OVERPROTECTED
在▁DAY▁CARE的墙上看到两幅新的作品
物理冒冒的▁SNOW真的可以狗带了
被电视屏幕内外的▁GIRL▁CRASH淹没
一个紧凑的▁PREVIOUS一个充满悬念的结尾
有一双▁SOLDIER漂泊在美丽间
下小说失败以为被▁BANG吓了几字好了
有人就像▁DRUG明知有毒但就是戒不掉
▁TIRESOME可可我在下沿公路
心情复杂突然发现▁EDY是▁IN译▁EIGHTY
睁眼就能看到你给你最幸福的▁EMBRACED
比如这一个▁SCENE用真的火车趴车底过
我昨天晚上又看了一遍▁RAINY▁BLUE
和小明泰商约北海道在宾馆热唱▁SUPER▁VOYAGER
比最近还要久一点的▁RECENT
大半夜看了▁CROW▁BABY心情好很多
定了份容颜爆浆鸡排和▁CHEESE蛋糕
有时觉得自己真系方方面面都好▁JUMPY
国足昆明迎战卡塔尔▁STRIKER
九五二车世界带你关注东南汽车▁DX七▁PRIME
洗澡的时候突然想起来▁DATA▁STICK
让为了两个老小子们继续▁SCREAM吧
越来越用不完下一步想试试▁LAMER
还让不让我调试▁SHADER了
第五人格设计师▁DOVE是鸽子的意思
▁HAND▁OUT太详细也不是什么好事
英译中除了▁IDIOM以外也不影响阅读
▁TIME▁LEAP沉迷了些奇怪的类型啊
一点也不无聊可爱的人们遍布▁ANYWHERE
我姐姐的▁COMMENTS可能让我断食三天
我们每个▁JACKY都是棒棒哒
▁CREEP融入音乐的演唱太让人陶醉了
做一个最幸福的孩子大家现开始▁SNOLL
汤圆宝宝乖乖的▁TERRIBLE▁TWO快点过去吧
回来继续难过然后▁MAJOR
这个▁IRON▁SPIDER的新衣服也太好看了吧
细水长流宁静和阿姨想念下我的▁ZEBRA
双方说了十遍不同发音的▁SPOON
演出很多▁INTIMATE的细节实至名归
▁WOLF卓球正在无解的直播间
▁GIRLS▁HOBBY为了刻字上课迟到
不是当年我认识的那个▁SMASH大军的▁HAWK了
▁BIRD▁CAGES这些是鸟儿们的高端豪宅
我讨厌▁OVERTIME还给我美好的
▁JACKY可以问非专业的人考幼师资格证
他是印度老师讲▁FINANCE是真的好
四海八荒第一美宝的▁DIALOG
再次出现你▁ANGLE的梦里
驾照莫名被▁SUSPEND去不了公司
早上几乎都会看到类似▁WALKER慌慌张张
有三个小时▁SEAT▁BELT▁FASHION左晃右晃的有木有
冲绳唯一的轨道交通▁RAIL
你们▁FIGHTERS都喜欢在早堂子里打牌
看了十九▁PAGES的开题报告范文
嫌弃麻烦第一次尝试了▁OUTBACK的▁TAKE▁AWAY
小三用了▁HOME▁WRECKER一词来表示
送的项链也是经典的▁LOVE系列▁FANS娱乐
我今晚的▁MAN点的是盗鱼
▁POOR钻研一个东西要泡在里面
和我的网红▁STROLL的一天
今天看回放▁PASSAGE二全对了但是▁PASSAGE十五对的好少
记得回家▁SNIFF的就是好国哦
那你跟我念着▁RUN我清你一口好不好
麻辣香锅似乎除了出汗没其他▁SAD▁EFFECT
找到了一个▁LIFE▁TEACHER以后我一定会回来
蓝天花香▁PRETTY▁BOY怎能不让人向往
▁HUMBLE卑贱的地位地下的所以请吸言
君君是所有女▁DANCER里面我最欣赏的
打造最完美的自己你会惊讶地▁SHOVEL
毛不易的▁IMAGINE唱出了不一样的感觉
真的假的▁FORTUNE二零零六的回头率达到了百分之七十八
妈耶想再看一遍恶魔人▁CRY▁BABY
▁CURLY▁GIRL是开心日常戳戳戳我的傻地
学校的禁读宣传▁USEFUL汕头和西中学
这两天经常在▁CAFETERIA碰到一个男生
呼吁剧院博物馆之类的▁CLOAKROOM都收钱
我正在爱奇艺看蔡徐坤▁MASK
我好奇▁ILLUSION公司的游戏到底怎么样
湖北卫视爱的追踪▁BOW
想起▁BLAST里的神剧情了
绿帽子节街上都是乱喊乱叫的▁OLD▁TEENAGERS
▁INTEGNICAL研修会我▁MANAGER讲相关值计算
二十一▁GRAM咖啡很香很好喝
还没打开我还以为又是▁DIGEST这个单词
去尼泊尔当志愿者这个▁GAP▁YEAR
看孩子应该是世界上最累最▁DEMANDING工作
在超市竟然能听到李孝利的▁TEN▁MINUTES
帅气可爱可甜的▁PRODUCER羽生结弦在哪
我发每条微博都催▁CARDS真的学到非常▁STRESSED
这应该是最后一次▁ACCESS了吧
多么的苦涩只因▁HUMAN▁FACTORS太多业
一个小时还可以有一千件的小时工作
怎么有人可以永远这么▁ENERGETIC啊
▁GUARANTEE跟上所有的课程很可怜了
觉得▁EX▁SHAKER这个词来源于法语
突然想起来▁BUDDING有▁FLOOR▁MEETING
我在考试期间做过了瑶瑶的▁ONLINE
冲浪的起源地▁SURFING天堂
最低交易成本卖掉▁STOCK▁DIVIDEND获得现金
▁ESSAY终于▁SUBMIT啦就坐等回家了
在▁COFFIN里的终究是自己一人
大家都对飞鱼身上▁PURPOSE▁SPORTS很好奇
想听▁FADED张韶涵唱的
直接看看这些去的啊真的是▁ATTAIN
音乐大师课没拍好难过▁DISPOSE
每年▁FILE一次▁TAX都仿佛掉一层皮
▁MUSEUM▁C澈的照片打印感谢大佬
八倍晋▁MINI▁GUN摄于武汉站
心机选择比贴▁FRAGILE还有效
这一刻我想说▁BASEMENT地下室
我最棒的肥差加速▁FIGHTER▁FOREVER
工作一个多月成长▁EQUALS▁TWO玻璃
二零一八年的第一个▁QUARTER过去了
虽然没有▁LEGAL害那么有逻辑性
都不知道不能看手机看手机就记▁ABSENT
我猜到的开头没猜到结尾▁OUTBREAK
想去看▁LEGAL▁HIGH了之前被安利
▁DARKER是在爱情中得到了灵魂的救赎吗
只能自愿▁WITHDRAW继续给员工司工作
这个▁MIND▁MAP为什么不早点出现
新一集的▁WAG真的是太好笑了
我也想逃离这个▁PAINFUL▁WORLD
而我他妈竟然在食堂等外卖▁OK▁FINE
▁HEN同学给我留了一碗咖喱饭
▁JEWELRY▁STONE没想到接待那位帅哥就是邵东
汽车▁LED大灯近光远光聚光车灯泡
王力宏十大顶级现场▁MARY的版
如果有我家爱豆十分之一的▁POSITIVE就好
真正的▁DEADLY▁ROMANTIC我宣布我又恋爱了
▁WONDER难道还会单独出成专辑吗
别往我身上挂财物的▁DEFECT
▁HIDDENEN▁FINGERS▁STAIN将爱国主义融合在一起
▁ENDING妖景就是我们新女啊
▁OR一二三人烹羊仔牛宴请四零
看到串串香锅之类一个人吃很▁SHAMEFUL
都说▁DAY▁CARE第一个冬天难过果然是真的
我竟然以为你流鼻血了▁SPECIAL
开学都没缓过来逼榜▁U▁K完全看不懂
我想说要想把▁WORKBOOK做完
发现无法自控感情凑上前去的▁FOLLOWERS
要不然我就该听▁IMPATIENT昨儿刚学的
图二中的花是▁TRADER▁JUICE买的
我弟现在仍然把▁BEAUTIFUL念成▁BEACHFUL
睡前就吃了点▁BARBECUE▁CHIPS辗转反测到睡不着
响铃▁HEADBAGER燃爆了现场版
我最恨的单词就是▁UNFORTUNATELY
只为了看佳佳的开平的▁JACKY
经典永流传秒拍视频▁VIA人民日报
也总有一天被其他人▁REPLACE掉
被▁CAPTAIN散发出的武士道精神所折伏
有个名词叫做▁ART▁SNOB其实就是这种人
诶很多时候像▁PROMINENT这样很生动
▁FAKE李香鹤的毕界的秒拍视频
这就好像是在世界线出现了一个▁BULK
迷恋上了日式和风▁CHOP有点上头魔道
这个结论是▁TRIVIAL的为什么呢
考二级▁EXCESS碰到个超好的司机
最近真的中了▁SPAGHETTI的毒
周日考完钢琴▁FINAL▁JURY就可以留指甲了
大家都完全符合这个▁THEORY
▁CHESTERIN整修后希望外表会更好辨认
看到一只迷你▁SOAP太可爱了
以前我们▁FLAT一起做饭的时候
啾啾编舞的▁BUTTONS里面第三组领舞者
校园广播在放▁MASK超开心
收到要发奖学金的▁EMAIL瞬间就精神了
还是自己跑去运了二十一份▁HAND▁OUT
▁TARA帅萌而且给人的感觉特别▁RELIABLE
意大利语的▁CHICKEN▁COMMENTS都可以叫我来
咱们在成都的▁BERLIN▁HOUSE见
继不认识▁PAIR之后这一次是▁CHESS
非常▁SUFFER的一周慌乱没自信
工程师都喜欢把▁BADGE挂在显眼位置
演变出如今的娱乐化的▁GOSSIP这个含义
我是卡西▁MODEL无疑了今晚属于▁CREEP的
杀破狼▁PRIEST来自学渣的悲痛
▁WEEKDAY每天连着工作十六个小时
那么▁COIN还是创造的意思吗
罗▁APPROVE等两个月等签▁FORM用几日
做少了会成为没有安全感的▁SHORTAGE
把▁ZOO打印出来看着就好多了
查眠不觉连摆▁POSSESS我的脑海里
后来才发现每次办图喊▁AQUET的人
别人不行只有我行的嘴脸▁UGLY
湖边恋情二三三三三▁EXCITING上海梅花妆
叫人加发红包能不能叫人加发▁RED▁PACKET
某个▁EDUCATION的处理方式很头疼
看完▁ASTRAY▁RETURNS就想认识这个人
怎么一眼就能看穿这种表演的▁TRICK呢
天下的伤痛文学▁SOMEHOW都是一个路子
有点记一点的大都是女▁DANCER
虽然有时候有点不喜欢▁SISTER▁IN▁LAW
请一定要给我发▁ZIP拒收▁RAR
▁INCH明天早起我要去凉一凉我的手腕
我们的朋友之宠物的秘密生活▁PANT
冷白▁ACTION一个千年没看过动漫的人
金圣龟强调八号是天使之城不要叫▁LASER
买机票一定要买▁CANCE▁INSURANCE
▁DANCERS没穿衣服也没人提醒一下
我真的要减肥了▁FOR▁EXAMPLE五分饱
早上七点起来必▁RELAXED得知我信不得我命
由平板之间空间中的虚粒子▁VIRTUAL▁PARTICLE
不知道以后能不能来个▁DISCOUNT
▁TRADER逐步被▁A▁I替代的趋势越加明显
人生真的很多东西奇怪的比如▁FEMALE
希格玛的▁SERVANT还是写着查理卓别林
吴奇隆和谢霆锋两个男神都好帅▁RACES
脑子里除了▁ABANDON滚瓜烂熟什么没留下
最后这首逆战大家一起▁HIGH起来▁COFFIN
每次▁HOT▁STRETCH都想
儿子离开的时间撞上我的▁SPECIAL▁DAY
▁FOREVER▁CULTIVATE双肩背包上学出行都可以
真的是要一起来的▁RESIDE
配上▁WALKS的黄油饼干好吃
他不说我如何称呼他▁PORT▁COMPANION
▁HARDWARE你将学到五金店常见工具的说法
▁BANDAGE已经不能满足我解放脚跟
给个上层▁DECK的座位好不
▁GARDEN没有套路只有真诚
看红毯荷兰和我一起喊▁SPIDER▁MAN
头脑要炸了的▁FLEE想到明天还要加班
在这里学了这些▁LANDSCAPE的课
刚好超市还有▁STEAK▁SAUCE卖太省事
不需要语言▁PHYSICAL自己在说话
▁TITLE▁TEAR就会没有还存在吗
发白也只飞一个▁TRICK但就是开心
看了二十遍▁ARTIST现场的真实感受
我认为是▁BUG他们自认为是▁FEATURE
荣幸作为幸运人被汪明荃▁JACKY吹个头
咱可不能丢人瞄了半天才找到▁STATION
喜欢▁SMOOTH这个透明的设计啊
▁OFFICE▁CLOCK和简单服务业冲击也会很大
就这样打乱了我清明的▁PLANS
可只有多少▁HONEYS簇拥着风
总是看到有人莫名其妙说▁REPLY
这季的人出了▁ATTORNEY使你真的太弱
他不相信这些▁EARNINGS一般般的企业
▁DREAM▁COMMUNITY开发了买菜吃饭一条龙路线后
你们这种人也就听过▁FADED
白猫太卡了五倍的时间都一直在▁LOAD
叫人家发红包能不能叫人家发▁READY▁PACKET
每一个二十四▁HOURS都应该有自己的节奏
▁UNDEFINED网页链接鲜衣怒麻少年时
专业真的选得▁RUBBISH我开始怀疑人生
在▁AWFULLY▁CHOCOLATE买到了最后一块巧克力千层
不知道是第几次梦到▁WEST
明明是▁BUG却被说成是▁FEATURE
▁GOLF收尾证明这是王群训的福地
没营养没▁WHERE▁PRODUCED的量产歌曲占据了榜单
▁WEEKDAY孩子去上学我可以去健身
你就得多努力才仅能达到▁AVERAGE的水平
又是一个▁FLAG以后一点以后睡觉
我要我▁WINNER火到全宇宙听到没
这个小故事的▁SETTING很棒沙漠绿洲
冰雹的▁PUMPS大火小企鹅美美
发生好多事成绩又美好妈妈又▁CANCER
▁MASIL健身房练的最好的小姐姐
把烟酒借了我可以用全套的▁LEMER
我很容易开心比如送我▁LAMER的精粹水
▁CHIP猫公主正在向你缓缓走来
你是那样拉轰的男人要▁DRY▁MATY
花花妹子是我喜欢的▁TYPE
真的喜欢▁THE▁CAFE人少安静
他现在跟别人说话都有粉红色的▁BUBBLES
卡莎这个点飞班集选了
一年一次的▁GATHERING能看出中西文化差异
妈妈每天▁CHECK我的眼睛
硬币达人▁SOMETIMELY的近期作品
给这个情敌跪了他居然立▁FLAG
爱我你怕了吗我们大老爸▁NOBODY
迫不及待想穿上▁DELICIOUS大金
系统声音假面骑士▁DECADE
有气势的大▁STEP厚重▁BASELINE是杂志
看到他的一瞬间居然被▁SHOCK到了
▁GLOBAL派人来▁TRAINING回答问题讲了五个小礼物
看到一个按摩店给刮痧的翻译▁SCRAPE▁MEASLES
加班是工作那么多以来最多的▁EIGHTH▁HOURS
不管烟熏不言熏▁SALTY不扫地
晚安我的追梦少年▁CATCHERS朱云
等你下课真是太甜太▁SAD了
没有一场拉扯的戏然后▁NOON还是演
希望这次立的▁FLAG不要倒得太快
我就愿意当▁GIVER怎么着了
听▁VESSEL简直是治愈与绝望的混合感受
至云▁SMOOTH四让手机拍摄行云流水
这可能才是九零后养生酒▁GINGER▁BEER
涂了两次▁LAMER的复唇膏奇迹般的痊愈
百合▁BAMBOO以及勿忘我这一刻的小时光
去每个公寓找他的▁RECEPTION
上次课还体会了一下加上右边▁PANDA
三国杀申请的账号▁COUNTERS的密码是什么
▁SMOOTH▁SKIN▁BEAR太神奇了简直就是黑科技
启示我们讲▁REVIEW还是选图多的
▁COOKING▁CRAZ超好玩
还是时不时的给我发消息一点点▁ACCORD
来时▁BOAST自己此刻▁DEPRESS自己
不知会不会成为又一款网红▁MASK
丝滑大佬的手谢谢你的▁ICECREAM
女生有男方口音会被认为▁PRETTY和▁ELEGANT
谁有沙拉酱没有▁DRESSING的好难吃啊
我实在想不出杭州的▁LOCALLY▁SOURCE是咋回事
与某数学理论有关的某▁ANECDOTE
他周末玩到起飞我已经▁TOTALLY被遗忘了
今天▁LOCKS校长和教头帮忙宣
新宿真是个好地方啊随处都能▁MOB
坐等▁ONE▁REPUBLIC再来北京开演唱会吧
通宵排队买▁DIESEL的小伙伴们你们还好
这学期我怕是要凉了▁VIOLENCE还没有写
中国老师居然把▁INTERVIEW安排在公共假期
儿子第一次去▁DAYCARE的时候没哭
春花生的个女儿▁LEASE也有两个了
▁SALEM我吵了快一年了这家竟然只要九十九
诶什么时候才能真的▁GROWN▁UP
初春校园的傍晚模特▁PEARL
看了一下自己最近的▁LIKE的▁POSE
六个小伙伴一起看▁MENTALLY▁DISTURBING的电影
▁HOMELAND的质量完全没有下降的趋势
老实说比▁SOCALLED古风圈里的歌好太多
邮寄写▁PS毫无思绪并且▁RECHECK的时候
奇葩证明各地将制定具体方案▁GUARDING
这个老流氓是为了他的▁BASE▁WATERS
黄昏的时候洗个澡出门坐▁TRAIN去买糖
看着▁RAYS的剧情想起了当年录的动图
▁WEEKDAY一口气八小时睡得踏实
非洲人更厉害用古香交流▁TALKING▁DRUMS
公司▁CAFETERIA的大厨们都好用心啊
这▁SOUL啤酒谁来吹一瓶
觉得血缘这个▁BOND还真是不同于友情
在桌子上眯了一会儿▁FEELING▁REFRESHED
有生之年被学校▁FEATURE了
强制用英制单位写▁LOGBOOK是不是有病
我是仙女就是不得我心▁BITE▁ME
▁PRIEST的杀破狼是没有简体了对吗
每一秒该出现的▁P▁PT动画该放页的▁SLIDE
▁VIVIAN带团老外就一个词▁RUDE
▁RECYCLE字样的纸盒里面空无一物
▁SPICE是我去的最多的一家了
月月回家后饭吃不饱真的超级▁ANGRY
最近有点浪过了头好像▁THREE▁MONTHS
想着啊就是▁TRIGGER的那种味道
天气小部件请显示是▁CLEAR
白瞎▁UK老师每次都那么用心精修
听不到▁FADED我整个人都很狂躁
查方法的还在备忘录里倒计时六▁HOURS了
听着真的非常不▁FORMAL了
浪费了的时间就不要想了▁SUNK
八一刚过再以八一的名义▁SHOW▁UNIFORM
爱豆和▁HONEYS大家新年快乐
这些历史角色在▁FATE得到了新人生
▁HONEYS觉得他俩好就行了
今天我们▁HONEYS们都祝你元宵节快乐
香水喷枕头真是一个非常赞的▁SOLUTION啊
见他了我们还没有定▁AGENDA
给我▁SISTER▁IN▁LAW回乐风长邮件
性感▁PILE酱在线发牌啊
在一个▁WELL▁DEFY的情况下捣鼓又捣鼓
▁BURIAL▁APPLICANT了解一下今晚在此举行告别仪式
新一批的▁NINE▁PERCENT颜值在我认为算高
如果我不幸活到太老还可以做▁GRANDMA▁GAMEER
各位▁HONEYS晚安有时间我们再聊
▁MUMMY和安体快乐两千公里来陪我过年
将就着看吧不接受中差评▁SKETCH
▁JACKY姐姐小家这杂榜是在网易云吗
来自▁DOUBLE▁CHAIN女孩有力的回击
阿汤哥给我取了个外号▁RUBBISH▁MAKER
我的耳机里一直在▁LOOP新生代
下午查▁AFTERNOON▁TEA酒泉雄关路
歌迷可以访问票务网站▁TICKET
▁HEN爱香土但却不愿意扎根香土
我不是非常糟蹋的人也算不上▁TIDY
不标准的▁MILITARY▁DEBT第三天效果不错
▁OPPOSITE隔壁桌好像做了个港星
才看明白是▁MELT赚到了民界
来给我们人刷新山的▁LA代言
我买了▁EVERY▁SPEEDY二五明天回校上班
▁ONSET▁VARIABLE检查变量是否存在网页链接
这个单词由▁SCARE吓唬和▁CROW乌鸦组成
▁GOOD▁FIGHT一旦涉及政治内容我就看不懂了
▁PAGES的开发组很喜欢跟用户捉迷藏
▁BEAUTY▁BLENDER美妆蛋真的不吃粉
给十几岁的▁WORKMAN去沉上游
我每次都▁REFUSE或没在需要的时候回复
阻止不了我看一部▁FANTASTIC▁MOVIE的脚步
所以变成了一个好像永不缺货的▁LIMIT▁EDITION
拿去东南亚刷▁LOGBOOK该多好
每年都有国家或者地区▁HOMOSEXUAL▁MARRIAGE合法化
我不羡慕昨晚被翻牌的▁JAM
看多少遍都会被▁BEFORE▁SUNRISE里的片段打动
其实也觉得会有啦毕竟是▁FANS▁MEETING嘛
▁SOMETHING▁INSIGHT试着以物体的视角进行观察
富小费人显示自己的慷慨大方▁GENEROUS
其实应该是国民▁PRODUCER一周年快乐
恩▁WEEKLY学新闻的女人要努力
二十九亿美元美国▁PRIME会员费将涨价
无法理解平掺序衣▁SPIN定级为三
结尾▁CEASER爬树个也好令我感动
小猪佩奇▁COMBINE了猪和人的特性
五十万的▁DISLIKE这就很尴尬了
准备了半个月终于结束了▁VERY▁TIRED
因为▁CAST这种异常吃裸裸的等级制度
参加大树的工厂出纳员▁BABY▁SHOWER
对橘子橙子▁GRAPE橘子一类的水果热爱
第一次接触▁SECTION▁TWO真的是很难
▁FINE双学位的导师也下达了最后通点
▁WEST副团长受邀出席国际舞蹈大赛
不用上班的周五虽然到处往▁RUN▁ERRANDS
总是能把生活过得特别▁MISERABLE
这动作是什么鬼神奇的▁BLOCKING
还有比▁DIARY▁FARMER香草味更觉得吗
美丽的芬兰雪景是二零一七年欧罗巴主题▁CASTLE
惊奇队长的健身视频在做▁LOUNGES▁LC
最近有些类▁ARGUMENT类型还是有一丝复杂
我真的不知道▁OUTSTANDING▁CORNER是什么东西
第一个大热天整天感觉就是很不▁OK
想用▁REMOVER把照片弄得高大上一点
快发微我吧包抱你了
而且一个▁OVERLOAD表现衷心恭喜你
听力损失了还能出这种作品真的▁LEGEND
网易云给▁TERROR▁G阿彪的这个封面好帅啊
在厕所洗衣服的室友在放▁SECRETS
香港见到的第一个明星唱了▁K喝了▁SHOOTER
请问▁IT的词源是来自这个▁EIGHT吗
你今天怎么穿的那么▁FORMAL
比较有爱的画面今天的云也很▁LIVELY
每次进入梦境就变成▁TIME▁SLEEPER
无数个▁REVISION之后终于结束了
最近各种▁DUE感到怀疑人生
出现场景撤销粘贴后避险▁CRASH
拿着▁EVE之痛药只疼药打卡打卡
那就安利一波德云▁BOYS
口译中的表达▁DELIVERY可以翻译成交付吗
土象星座组一组搞个▁TROT
▁FUNNY▁FRIEND▁HONEY▁MONEY以上就是我的理想生活啦
画得体的妆容倒计时二▁HOURS
突然很▁DEPRESSED不知道自己想要什么
逛街时听到了▁DAYDREAM我就笑了
一个月变成▁SNOWMAN怕是老雪就咳出来
▁R一二三雷达侦测器机器没有反应
每次让▁DRAFTER自由发挥可以炒出新高度
第一次来什么科技城做▁TEST
难道你们不是▁IDLE是▁ARTIST了
撒贝宁就是这么强大的▁RIGOROUS
▁DYNAMO案例讨论利用群体智慧
一个月没听金钟铉的▁SUIT▁UP
二零零九年的这首▁OVERLOAD
▁INI的参数希望能生成崩溃时的▁DUMP文件
你开心就是我们最大的安慰▁BREEZE
借版▁PANDA是美国学校常用的体罚工具
图中还见到了十五岁的▁SHOE
▁FIREFIGHTERS果然都好高大威猛
没想到独自旅行竟然在▁BERRY▁BEINS
▁FOLLOWERS后要试听话这就最终回了
新同学▁MUMMY谐音▁MUMMY我唉我在
本来好像是给▁CUBE的哥哥打招呼
▁ODD这本赞报目前最爱的一本
今天做的一套听力题▁SECTION▁B
▁PUZZLES解出来就能由工作
后期补▁TIMETABLE也是蛮尴尬的
可以玩大部分玩具盒去▁SUMMER▁CAP了
小确信面▁MOON二十一片产▁PIN随机发
猜中译文带▁WRITER真实身份一次
晨跑是▁WEEKDAY最骄傲的事
十五周年▁GOOSE直接出结婚照这么厉害
打麻将赢的这些▁COIN像个累赘
她▁GRANDMA的还不如穿工作服
今天中午又吃到▁HAM了
建立奖励机制不要把自己▁PUSH很紧
你不仅曾是少年永远都是▁ELEGANT▁GIRL
喜欢韩雪的都来点赞去的啊▁QUIVER
我也很开心因为你很开心▁HOLLOW
武汉协和医院千人计划▁PACKAGE了解一下
一听理顺归的▁ODD▁IMAGINATION就不想拖板了
希望▁FIST有批定卖抛物直线不定规律
▁RETURNNY的各种分享被他们的回忆冲击着
十七号很寒冷辛苦现场的▁HONEYS
▁MASK在柔怀的一个山庄都放上了
默默在心里立下一个▁FLAG
费心设计规范说明书真的很▁INTENSIVE
▁TUNA▁SANDWICH和卖的一样好吃怎么可以吃
▁ECLIPSE太会拍啦还会修救命
想要的东西都很贵▁GO▁AHEAD
期待和你们下次的见面▁THUMB▁THUMB
现在看来我做了一个▁CORRECT▁SELECTION郑州大学
每天回家要做标准的▁PUSH▁UP
▁SHAMEFUL和▁SHAMELESS的意思竟然是一样的
▁INTERIOR简单与矛盾的魅力
学生会主席辩论和选举▁CAMPAIGN
热门的柔和色调▁LIPSTICK推荐
今天扎了个自认为▁CUTE的半丸子头
累是每天都在问什么时候上学
我超害怕▁SLENDER▁MAN怕梦到他就会被带走了
往年这个时候就会开始听▁SEASIDE了
我知道不是你们▁CODER们故意的
梦到▁EXPLOIT的和▁STAY的婚姻果然是做梦
二一二三年的警察局只有借债度日
我现在就先去关注起来去的啊▁TAPPED
一首▁SNOW送给自己和所有失眠的人
连曾经和▁JACKSON朝夕相处的人都
今天用的▁FLASH三本来已经灭草了的
要合理▁JUSTIFY面对别人的博士也要反驳
直接从数据包里的▁DUMP出来再存起来
使用▁FLASK来做一个小应用
真的不要听导购的买什么▁BEST▁SELLER啊
▁CABBAGE叶子里包了肉馅
介绍一下我的女朋友▁EXPLOSIVE▁BOOTH
樱花盛开四月的第一天生日快乐▁MY▁PRECIOUS
被领导怼的日子可以说是很难熬了
希望每周都能把▁SHELL死磕下来
在下网▁REGISTER要填的部分表格
这里的▁DISPOSITIONS其实改为▁DEPOSITS问题也不大
每日谢顶▁QUEST打了素材换了
为了和▁TEAM的人▁ENGAGE逼着自己喝一点点
发现自己被定义成一个▁GOOD▁LISTENER
全香雨城冬日李光珠星篇侦探▁RETURNS
▁ELECTRO▁MAGNETIC▁VALVE使用电磁控制的工业设备
电影命中注定的插曲▁ALMOST▁LOVER
把▁SAUCE打到手抽筋做菜是个体力活
▁BRAVE▁GIRL我十六一的秒拍视频
夏天到了又想撸双好的▁TASTE▁LOAFER
他美国的▁CAMP和每首歌的制作人的身份
这种书你最好每一句都是一个▁THEOREM
哺乳动物是▁MAMMAL入房养大的生命
也是吃过▁POKE波起碗的一只小可爱了
我表姐了▁SCHOLAR我还不信
参加了学校▁YOKE一日游的▁ACTIVITY
今天考完只是感觉▁SHAMEFUL
少爷小时候就这么▁SNOB但好可爱
主页军的▁PAVEMENT拍摄于东直门十字路口
我有一个最特别的闺蜜▁ALONE
▁SNICER看着挺好玩的不记得叫啥了
以前在波士顿吃▁FOOD▁COAT的时候发现
旅游巴士上在放我牛的▁INFAMOUS
▁CAME▁ACROSS一本超可爱的书里面画的动物
我发一些灵魂草图然后让我▁REBUILT
连着▁CHEESE▁DAY了明天开始做个人吧
健康饮食▁FLAP周一就到了
▁TITANIC内幕一生太短拼命做好想做的事
他们认为我是一个▁MIRACLE
看到▁HIS▁CROPS被翻译成他的装甲
丈母娘正在卧室听▁AMBIENT
男朋友亲自▁FITTING从此告别买家秀
卡路里已经迫不及待要去▁SWIMMING▁SWIMMING
好吧我▁NUMBERS肯定也是不行
大佬帮我画的▁SELF▁IMAGE很符合本人呢
今日的▁TOWER▁RECORDS员工的秒拍视频
定个小目标今晚上把▁VERY渲染看完
昨晚鼓起勇气去医院拿▁PULL▁PRINT
▁FACEBOOK会自动根据你的▁REGION选择亚福
▁SONY▁WORKMAN评测琪琪蹦了一下的微博视频
请时刻保持清醒的▁SELF▁AWARENESS
它不是▁MONITOR你也并不呆在那个▁SPOTLIGHT里
身为▁TEACHER劝和不劝分这正常
一群不放弃一丝希望的漫威▁GIRLS和▁BOYS
▁HOMERS今天参加了木齐的生日会
▁DENIAL阶段可能还要持续两年
吃饭时挺直升区每日一餐飞喝▁FOODS不食
这心觉可能是▁VAN假扮的
一八零三二四▁CK▁JEANS签名会送敏号饭拍
身体不会欺骗自己▁HAPPY▁WEEKEND
日本网友▁NINE▁TUNA▁SIX作品赏析画风真的很棒
▁DUMP需要与文件操作结合
压力大也因为很多逼近的▁TASKS而增加
当时▁TIMBER也是前活最受最美的时期
▁FINISH雕刻技术还有待提高
我就是那渣粉你们要咋地吧▁MAGNIFY
我的▁BACK▁UP▁PERIL一次发霉了啊
不带这么整骨的你把我们整了▁MOIST
立刻▁PINEAPPLE我又化生水果之王
▁SPIN同学真一级棒我要表白
巧克力很苦▁CALCULUS没有很难我
来自纯▁SHALLOW的我超爱的铁罐大叔
每天白天在教室学▁FLUENT
这首▁REFRAIN觉得有人就像神话一样存在
凡星下的▁RUNNER要为自己的错误买单
为什么▁HIGHWAY还那么多车马来西亚
真的因为在那一刻看起来那么▁CHARMED
带不走的只有你哇▁MANNER
现在他来了你却走了ER球鞋爱情
无非不过是每个人都▁SNOBBISH的一个城市
▁BELL粉底液一号色居然和我肤色一样
防守端就像是在用枕头站的▁PILLOW▁FIGHT
我出去玩错过了宣宝的快本重播▁INVENT
离组里▁LEAD▁DEVELOPER的差距还有十万八千里
唯一一个觉得还不错的饼是▁SET
真正用脚踢的足球他们叫▁SOCCER
多读书来支持▁SOLO▁MARRIAGE事业
就算一直▁COMPLAIN也还是要解决
看到第一张整个人都▁SHOCK了
博士论文做了一张富平面的▁SUMMER▁FIELD▁INTEGRA
大半个月都很忙很累基本上天天▁OVERTIME
你是▁FAKE吗我玩个辅助混一下能赢吗
做▁CALIBRATION可以解决吗
我等几年来北京发展▁MULTITUDE
英国布里斯托大学▁GREEN▁COLLEGE双人套房
最近两周的▁WEEKLY用了比较轻快的颜色
这个串烧以前卖三串解馋还要算▁BUDGET
和和一起过的情人节森尼达▁NICE
▁SNOWMAN没有工具这样的不算小了
下午是学校的▁ASTRONOMY▁NIGHT为社团打砸
重温高达▁SEED看的重制版
我还是比较喜欢看▁DARKER的黑镜呢
连我老板也说我优点之一是▁APPROACHABLE和▁LEGABLE
头一次▁SECTION▁ONE就听了一遍全对
我曾经还觉得自己不会喜欢▁BLOND
用了▁CLOCKS这么久发现真的是很费电
追加一波▁CHARY▁BROWN棕色美图号
竟然第一次从一百倒数到零而且▁COMPLETELY▁CORRECT
改不了左的人就口头上自称右来▁COPE
昨天的▁COMBAT让我今早像被打过一样
当年第一次看▁CHOING▁GUM的感受
▁LAP格子西服了解一下
最后敲定这个▁PEACH▁BLOSSOM螺粉
章子怡和汪峰爱情挺让人羡慕的▁PITY
▁SEVENTH要争取这一条的评论今年能到五十
官网▁FC▁CORNER可算是有点能看的内容了
▁POKE▁POKE哥特红茶的秒拍视频
充满幻想觉得总会遇到你的▁RED▁PERSON
太画风应该是出自▁SNUBB大神之手
最后认识了一个厦门的▁CAT▁SURFING教授
▁WHITE▁CASTLE味道不错量吃两份不一定吃的饱
有一种爱叫初恋有一种幸运叫▁LUCKILY
特别▁FORMAL的东西其实是数学
到了学校做志愿者遇到▁ACTIVE▁SHOOTER
我也想听▁POLLY的演唱会啊
自己可以条件反射的说▁PARDON而不是▁SORRY
我对太▁MUTTRO的内容有点排斥啊
▁JAM姐姐在前线带来的新鲜的小钱
▁GUESS一下今天去哪儿今日贴纸打卡
我终于去俊阳的▁BOAT▁NOODLE了
需要很多很多付出和努力▁STAY▁GRANTED
然后就长胖然后又心情不好▁SIGH
矢亮咖啡英文名明显不对应该是▁VECTOR▁COFFEE
小心翼翼等着▁BREEDER的回回复
诶两千字的▁ISIS我思考了三个小时
▁SMALL▁LIGHT的生日宴除了凉面其他好吃到爆
运动会上瘾▁THE▁ELEVENTH原来还可以再快
各单位的▁SIGN函数图像有最大最小值
新▁FOLLOWER完全搞不清人物关系
计划▁ALWAYS赶不上变化呀
特朗普刚刚赢得了北卡最新▁VOTES
分享明星瘦身秘诀▁MAX
或者成为谁的▁HUSBAND谁的▁FATHER
学习视频制作学习▁EXCEL和▁PRIZY
去▁PISTOL▁RAGE的话是不是要判死刑
把一盘笋吃光了▁TWO▁KILOGRAM
▁KEEP▁RUNNING下一年我们在约
一起来见证我和▁EAGLE的友谊吧
男的都这样不▁GENTLE嘛无奈
在哪个的▁SPONSOR没有所谓境外势力
经过了在各种▁PROCESS里被聚
追星是会遭报应的▁INDEED
经常下雨的地方每个人都阴霾把▁SUBTLE
真的是个非常敏锐的▁MIND▁READER
可以买鱼季送到▁DASH节目组啊
是把石田的▁OUTLINE搞出来啊
长久以来还是谢谢你▁SINCERELY
▁SELF▁CONSCIOUS纽尼的害羞的不自然的
也许他不是流量粉丝都喜欢的▁PERFORMER
结果收到明学校明天▁REMAIN▁CLOSE的邮件
今天立▁FLAGS明天会如愿照做
根据文档▁LIFE▁BOARD计划资料
这么漂亮的奖牌和衣服上的▁FINISHER的字样
▁UNITY真是可爱又可怕啊
立够▁FLAG一年内长成长发飘飘的玉姐
小红书里说▁NAMER对修复角质层有奇效
大概是太久没有和▁AUNT聊天了
女生之间的友谊就是这样▁EXCHANGE来的
如果生活欺骗了你▁SUCK▁IT
嘻嘻嘻两张卡片底▁NICKNAME真配
我们说走就走的旅行▁SHANGHAI
那么他的▁POLITICAL立场和这件事有关系吗
十个▁TOES就像恋爱气球
有的人在我最▁STRESSED▁OUT的一周成
在▁CENTER买个十五年的房子是这样生活的
孩子他爸总算搞定最后一个▁SHIPMENT
这次回学校又是一个新▁START
买过最成功的一次▁SMOKE▁SIMON
又看了好几遍确定是▁INSECT不是▁INSECT
新▁LOAFER给了我一个新的水泡
李总线有点无理取闹▁TYPE
▁PUMPKIN他演绎了我想要的一切
其中我们淘汰多少个打动自己的▁IDEAL
国内各大平台奋战的▁JACKY们继续努力
压力了才有可能有动力呢▁EASTWARD
为表诚意给大家做个测评这双▁LOAFER
造什么脸肿成个大猪嘴▁BLOODY▁SHEET
种眼泡的人可以搜▁THE▁ORDINARY的眼部精华
太闹心了很想拿到▁FINISHER奖牌
今天辛苦了美丽可爱▁PILE奖
不会有人像▁FAKE一样压住了整个项目
太▁LAG了才刷完双面偶像全场
▁SUPER▁TESTY北京山里屯北社区
今晚这场太华丽了▁ELEGANT绅士
详情请见▁EVENT特设网站
本以为长大我会坚定不宜▁PREFER吸地炎
▁DATABASE的实现跟以前做▁ASM▁TEA是一样的
想有个可以和自己▁PILLOW▁TALK的伴侣
去年听人说蒂勒森是▁EAGLE▁SCOUT
游泳时打球时▁STROKES看起来不太对劲
因为它不是传统意义上的▁SUPER▁HERO▁MOVIE
▁LEMON的面霜和精华一起开啦
我们是歌迷是臭▁FAME也是你的朋友呢
微积分写完▁SOLUTION选择题五个▁C可以得二十分
有天能以▁SCHOLAR的身份去博物馆
好在身边有▁SURPASS我很多的存在
看到▁SHARKS回复一个▁JET也来了
以后的职业规划可以朝着▁PHASE或▁CIA走
能发十几条微博看见我问题▁ALLOWANCE我就分不清
▁JUST▁LISTENER你们怎么有那么多的故事
▁SPACE▁COWBOY超级喜欢刷完他我要去银河了
▁HAWKING像▁HAWK一样飞往自己的本心吧
在漫威破一▁BILLION全球票房的五部电影
四舍五入也是和▁WEDGE合影吗
铁打的流水线表▁ORDINARYAR却表气冲天
两个站子可以用▁VISA支付啊
▁SPEED大有真的没有不满的道理
前几天我在有点▁DRY的乌布一日游
还有很喜欢他制作的傻脸娜的▁WOLVES
只有我吃到了酸的饭后去找▁DIP
▁PRO▁ATHLETE不容易希望他能好
终于把▁HANDOUT写出来啦我智慧的结晶
会有▁SHABBY苛求神话题材的西游记
谁有坤坤▁MASK那个造型的图片啊
空姐空少已经不叫▁STEWARD或▁STEWARDESS了
▁TIGER▁SHOWER有最温暖的一句话
诶弹幕文件呢后缀从▁TXT变成了▁LOOK
循环西药的成人世界和▁BUZZY的世界
主管培训讲的最多的一个词是▁SUFFER
▁CLICK开一看是舌尖上的中国内的片段
有的时候真的越心急越▁DESPERATE
落地遇到▁DUTY划唠外加行李差点弄丢
刚录了几个段子感觉真的▁REALLY好用了
下午一顿操作把▁ECLIPSE干崩了
▁MISTY以为是围绕主持人的阴谋
把三门▁INTENSIVE▁WRITING课堆在一学期简直做死
他是▁WARM▁HEARTED且会帮助他人
食堂阿姨给我加餐▁DELICIOUS
在心中▁WHISPER了几百遍琵琶醒了
独角兽▁PUMPKIN买来快一年
实际上随着▁LABOURS的逐渐完成
伦敦被▁LITERATURE▁REVIEW困到眼花缭乱
在▁HORSE▁EXCITED昨天的善意提醒下
▁FANS娱乐超热门搞笑视频的秒拍视频
最后害死了▁BULL不是活该吗
一群自己都搞不好的▁TEENAGER去带小孩
东京都内正在一间间▁CHECK
想找个人能陪我喝两瓶▁ABSOLUTE
一个也送了▁UNDERWEAR的人了
水煮芦笋是拉茶口味▁TUNA
▁NINE▁PERCENT所有玩闹风情都不如你有趣
刚去▁DESK说这边灯是坏了还是没开
▁BEGIN▁AGAIN即将出第二季
空空的▁COUNTERS一个人办公的人都没有
生活的范围里太少了▁INSIGHT了
老哥自己海边看日出▁MOTORBIKE
好像▁PUFFS很容易粘在手上且无感
我们是否会错过▁FUTURE
▁CUCUMBER发布了一条动态网页链接
之后吃饭式的▁INTERACT会议匪浅
终于把武器开好了最后还是用了▁VISA
可以认为所有的警告都是在剧透▁SJ▁RETURNS
她微博里曾经两次发▁SNOWMAN的图
励志成为一个家庭主妇的▁STUPID▁GIRL
护士告诉我三月记着来打▁FLOW▁WAXY
我也可以很骄傲地对别人说我是▁JACKY
然而我想等▁HIGHWAY▁STAR专一起来
▁LAB大酒贵精完美的英语
存在类似▁UNTIL▁DAWN一样的蝴蝶效应
第一次用▁STAND▁MIXER做面包感觉不错
所以我在转型做▁CODER嘛老师
我真的模型又不见了▁GARBAGE
这个▁FANTA好好喝快接近▁LIFT了
我男人下厨第一次是▁SPAGHETTI
▁SOUTH▁LIFE北京北京大学医学部校区
▁COCK慢慢想明年吧登机口
管理得当的话▁DEFAULT▁RATE是可以接受的
大半夜再赶一个▁MISSION听着▁TWINS的歌
讲填空的青年男老师▁VERBAL
多年▁ACT转型▁RPZ有利有弊
很自豪地称自己为▁VIOLINIST
今晚做▁FORWARD▁BED随着呼吸逐渐加深
高中二年级喜欢了▁INFINITE
看了一眼▁TIMETABLE那是真的头疼
显然连▁CHEAP是什么意思都要查字典
不是靠法律而是靠贿赂▁JEWELRY
淮安▁IN▁CAMP街舞工作室的秒拍视频
老师的笑脸画的真棒▁GREEN露齿笑
不要发火摔电话▁SERIOUSLY真的很影响人
都在嘲笑我我说自己▁RUBY写错嘛
大喊▁PROUD又模仿异地恋的模板谈恋爱
▁GRANA绿林小铁锤一个劝后八
立个▁FLAG减重回到读研前
一周做了三次▁CALIBRATION都不准
和▁TULIP成员三两今年的温泉
被▁POOL带到的我们终于换了个小哥哥
一锅三用应有尽有▁UNDEFINED
他在狼格▁BOOTH跟大家一起听产品介绍
今天晚上很开心数学老师▁ENCOURAGE
我再这么▁MEAN真的会没朋友了
▁DAY▁ELEVEN▁THRUST闯过食堂要用力几
你知道那帽子上▁SNOB是啥意思吗
猥琐狗子▁UGLY并且坚决不减肥
人生必去的演唱会已经▁DOWN十五年了
祝自己生日快乐▁HAPPY▁BIRTHDAY绵羊
▁EVEN不要过分纠结结果
爱瓜腿毛的程序员改成爱瓜腿毛▁CODER
▁QQ让那么多你的自拍变化很大▁DISTORT
论一个男人▁REACTION的重要性
帮他们统计每个月做了多少▁TICKET
无用只会被▁DUMP现实就是这样
▁DUE毕业典礼倒计时五小时
唯一的遗憾是没听到我寒的▁FADED
上▁GEOLOGY做火山模型的时候也玩了液氮
叫服务员都可以直接按桌上的▁SENSOR
为了避免自己太过▁DEPRESSED只好关掉视频
吃货们不要错过▁OR▁WHY
听着▁ORDER▁THREAD脑补了些奇怪的东西
换了岗位可能再也参加不了▁TEAM▁CLIMBING
▁CONCERT的时候是真心实意跟大家说谢谢
我做过▁POLO的▁ALLOWANCE
我说太▁TECHNICAL就看了二十来页
我喜欢的▁LEMON的水我也来试一试
美剧音记播剧原因会出现很多▁DRAMA
怎么莫名有种▁GANGSTER的感觉
大半夜看非洲的▁RETURNEED▁REPORT真是热血沸腾
早餐里发现了重金麦片▁LOOPS
▁TASTE很懂潮流啊马上推出了这个
到时▁RETURNE不准放我飞机啊
好想去冲浪啊有没有▁SURFING▁CAMP之类的啊
最后二十圈现在四十圈了七个▁CAUTION
还▁CONSULT初恋的找工作问题
我觉得▁DECADENCE这款有一点点草的味道
找▁CAB回来才发现走远了一半的路
就喊我一个又要帮我▁REFER
▁PANDAA和▁PLAYER这两个词哪个用的比较多
这两个角色就是▁CHAIRMAN和▁CEO
▁MOB是不是也要被批斗啊
自制▁PANCAKES松软香嫩淡淡的牛奶香蕉味
鱼子偕老幸福地生活下去▁TACTFUL
这位▁CLIENT有她妈妈贴身照顾
啥时候能等到▁MAXIMUM的五人现场
▁OR又能给我们什么启示
我关注了▁CATCHERS朱云一超话
字幕组▁SPONSOR赞助愣史变成了帮赊账
欧陆面包▁TOAST广东人叫做多事
天天▁BABY▁SHOWER怎么就花样这么多
动保组织在为▁CAGE▁FREE的鸡打官司
各季度好听的歌都在这里▁UNDEFINED
今日单词▁PRESENTLY马上不久现在目前
看来看去还是▁DEEP▁LONGING美啊
身穿宝蓝色▁CUP▁TOP加白色阔腿裤
还有▁CONTRACT以及一张移民局发来的问卷
痴迷随意门时期收集的▁EARNINGS
▁ASSURANCE强烈到什么程度毫无顾忌直呼
反正他们家里本来也没▁CABLE
宿醉过后各种后悔不开心▁SO▁DEPRESSED
人类与人类社会的友谊大使▁CAN▁OPENER
还要互相比较▁BASE和▁PACKAGE的人是怎么想的
仿佛交了药纸就▁SAFE的错觉是什么
我家小孩喜欢小动物怎么办▁CROSS▁FINGERS
趁着清醒的时候赶了大部分▁DEW
预料过一个个▁MINIMIZE但最终还是意外
▁SECTION▁TWO的精听还是很难长句记不住
▁CLUMSY吴欣发了一个抖音短视频
一般学校都是第二学年结束安排▁QUALIFY
推荐你听▁SINGER唱的这首痴心换情深
我真的想脱离目前的生活状态▁KEEP▁ANGRY
我的▁MUM怕我每天晚上一个太无聊
自己是个豆豆控豆豆的▁REAR太大了
嘴边长挂▁SCENE怎么可能找到女朋友嘛
店员已经认出我了直接问我▁WARM▁MILK
超过内存缓存区后会立即返回▁FALSE
▁BAMBOO的这句话是非常恰当的理由了
拿几笔就画了个▁SHOE有绘画天赋
总能收到大人给我的▁SIGN
返回地球安全▁LANDING这件事
▁SUPERMAN里那件红蓝卫衣只有橙衬
欢迎新成员小▁PITY的加入也是很有缘
估计是最后在▁BELL打球了微博故事
番茄这样做▁SOULS意料之中的好
▁TRADES普遍看好下半年的石油走势
家儿首空来看亲爱的▁JACKY们看过来
我选了一首▁MASK还有首不知道选什么
发表了博文手把手教你用▁WORK▁BENCH画螺杆
现在就连▁EIGHTH股我都随缘了
再热一点我就要▁EXPLODE
差点忘了自己还在等▁SUNPOT的新砖哦
一旦中了就有弟兄的▁VISIBLE出问题
今天意外买到了▁DUSTY▁ROSE也叫豆沙色
接触了一些意大利的▁ROLLER
开心▁STEAM▁PRISON也要出英文版了
晚饭搞牢需▁MOTHER▁SAUCE好吃到电饭煲都空了
买到漂亮的▁TSHIRT站赞站
把那题给▁OMIT是不是不太好
诶别人很难发现啊且不说▁GUM还被强了
下次应该不会住▁UPPER▁HOUSE了
要做一个▁WARM▁HEARTED的人
他说他以前一直觉得我的▁FOLLOWER
播放绝美唯唯的绝美▁TRAP
刚上车就闻到了▁ALONG身上的香水味
▁SECTION▁THREE几乎没一个对的题目看不完
▁FOLLOWER数一张到某个临界点就响弃号
有一点歉意▁UNTIL犹太原理工大学
讨论这一关倒下了进军▁HOBBY界无望了
先看看把过期的▁WORKMAN出了
我不得不来了一段▁ELEVATOR▁PITCH
▁PAUSE专辑海报一百五十五元出邮费治理
可能▁PCH太不▁TYPICAL了
▁NARRATION只是不知道帮什么东西念旁白
这里▁TEENAGERS的眼神都变得不一样
▁PILLOW▁TALK的节奏真的太难把握了
▁PURELY不离新风口罩开箱
发现眼影是少女粉这配色也太▁CHANNEL了
▁REACTION合集之变脸不看错过一个亿
真的喜欢你累毛不易▁FIGHT
有没有要疫情海淘拼单的▁THE▁ORDINARY酰胺酸
莫名想知道▁AGENCY是哪家
亲朋好友都说没必要太在意▁WORKMATE
两位老人还在▁KITCHEN给我煮百合▁PEEL汤
居然没有一个人有▁BOOSTER▁CABLE
上辈子一定是个分享▁LOGICAL▁EMOTION的单曲
一整个▁ROTATION衣管都没生
在▁STEEP听见的网页链接
今年小说大神那本八六▁EIGHTY▁SIX超有趣
最近这个▁TRIAL快要忙完了
就怕追新▁FAN有文化系列
看大半天的作业▁HAND▁OUT还是不懂要干嘛
好像是我头一次喝▁FLAMING▁LAMB▁BEGINNING
这个打破记录的工具被命名为▁T▁IM▁AND▁D▁RI▁I▁L▁L
刷就刷了以后做了▁GAMBLE了少摊点儿
玩▁RUST的我最擅长盖房子
只能▁CROSS▁FINGERS祝早日康复了
我在▁FRAME十九和二十二之间眯了会儿眼
听朋友说这是他的▁BIBLE
剧快播完了▁CELL片的比粉丝还惆怅
谢谢总是给我送上▁HUGS和祝福的人啦
▁CEILING▁FRAME这个色有啊你要吗
上了车才知道▁HIGHWAY才允许无人驾驶
大黑放▁BOMB的频率感动得我想哭
丝素▁BLUE▁BOTTLE冷脆苦味很柔还带点甜
▁WONDER才是后悔国内上映的时候没去看
我在▁WONDER▁LAKE露营地订了五天的帐篷营地
被他的头脑和人格折服▁THE▁GENIUS
找着一个绕一圈整好七百米的▁OVAL
▁GET了一瓶我家薄咸的同款▁CLEAN暖棉香水
▁DEVIL就响起来我那首没唱出口日文版
今年的颜色有些▁TACKY忍不住呀
看到▁READY▁PLAYER▁ONE就只剩这么几场了
缺少▁ZEES激情您依然不完美
希望它能成为我的一个▁WARM▁CORNER
▁BEGGAR这大概是节目组求生育最强的
请教了下学长▁SHADER怎么搞
然后用一个长的▁PEDAL是不是叫一个奖
老板直接问我打算▁RELOCATE吗
指挥先生真的好喜欢▁OVERTONE▁THEORY
可是我的职业就要▁SPEAK▁LOUDLY
其实这也是一种生命的姿态▁CAFETERIA
显然应该用▁SHAMEFUL而不是▁SEEMING
▁THUNDER九七幺零零三方糖奶菜的秒拍视频
有几个理工的小学生来公司▁PART▁TIME▁JOB
多么好的天气然而那么多作业▁RESCUE▁ME
给▁U▁K打▁CALL可以买会员了
▁CHAIN八月在剧里的名字
魔法少女▁SIGHT本月版权会
用法语写一个带着▁RESUME的文章
非常疼我的小姐妹▁CRYSTAL要瘦到九十斤
绿帽子节街上都是乱喊乱叫的▁OLD▁TEENAGERS
▁HANDMADE▁LEMONADE真的是真柠檬酸酸的
我来说一个不一样的▁ABSOLUTE▁POWER的有声书
明天有个▁CAMP干脆住一晚明天再继续
只是以另一种方式守护着我们的▁GRANDMMA
在洛杉矶演唱会现场版的▁WATER▁COLORS
写了一篇犯了所有能犯错误的▁REMARK文
在▁HOMELESS流家里吃火锅过中秋
那年的▁MOP好像是最后抢断的
▁ROSE虽然长但是一点都不会腻
▁VENUE啦想在跑车里想要一辆法拉利
翻出▁VICIOUS极品机老伴笑得像个傻子
我们都是可以先去找一找去▁MOTOR▁CAR
送了▁MUMMY一个口红永远当个小孩子吧
不知他除了广东语还有哪门语言▁VIVID等
▁KILLING▁EVE杀死衣服百合像是发展趋势
我也想来个有人陪的▁EXCURSION
我也用过▁DEFY▁VIVO和魅族手机
是刷乱无苦▁BEE本傻猪猪使我快乐哈哈哈哈
从小到大的▁CRASHES一半以上都是妹子
那个凉凉挂着条▁SNAKE是很吓人的好吗
不小心又立了一个▁FLIGHT
张韶涵▁FADED没唱上热搜了
一起回顾他这场▁DOUBLE▁NICKLE经典战
等待视频▁LOAD出来的那两秒
弄了半天▁ORIGIN处理了半天数据
不办卡莎付出玲珑塔的代价
我真想匿名▁DISS中西哲学的▁TEACHER
学一遍就会发现自己的口语真的▁SUCK
前几天自己迷迷糊糊写的▁FUNCTION
拥抱全世界的▁REASON们好运常伴
现在很满足明天是个▁TOUGH▁DAY
这样会被说成▁CHEATER的真爱生命
▁GOODBYE▁PROPOSE有同样喜欢看火星的小可爱
闺蜜就是越长越像小水▁DOLPHIN
不要在我国谈什么▁HUMAN▁RIGHT
我当年是风了吗选个闹走▁ELECTIVE
电影大家都是很喜欢的电影推撞▁DANCE
易拐▁SUGARS糖在哪里的时候过期了
去了超市▁GRANT很便宜采购了些零食
幸福可见▁FOR▁EXAMPLE生病时的照顾
皇帝非常▁RUDE具粗鲁的言行尝试▁CRUDE
▁BOW这两天紧锣密鼓地多存些凉吧
梦到自己微博写了句话▁DRUNK写成▁DRUNK
▁EAR的声音也太好听了
游戏怎么没买掌机版我要连▁REMOTE
今日贴着打卡阵容▁HEN豪华的豌豆饭
预约了▁GENIUS▁BAR的维修服务
反正▁CAMPUS▁CITY的新爸爸人太多
▁SLAUGHTER这个词还是震惊了我
梦到自己是一个被▁FUNCTION被▁CALL了无数遍
没有绝对的▁JUNK▁FOOD只有垃圾吃法
最近超丧的▁ORDER希望他尽快振作起来
▁ROOTS日本东京都港区六本墓
你要做一个优秀的▁SNEAKER
我到底哪里看起来像是▁SPAN用
说实话学校不能请个▁FIRM吗
游戏网路有什么意见老是▁INTERNET▁ERROR卡住
我得时不时冒个泡才对得起我这▁FOLLOWERS
今天的▁FLAME太精致了吧
第一只▁LIPSTICK竟然是妹妹和她▁BF送的
▁NURSERY的卸妆膏和晨间洁面都好好闻
▁BULLET虽然很痛但一小时感觉过得好快
直接从数据包里▁DUMP出来再存起来
三个月是罗子是马▁SMASH▁MYSELF
昨晚的▁SCENTED其中一个比例还算满意
最希望看到邮件里出现▁AVAILABLE
看到▁PRINCIPAL的告知我就开心
看那就这么说觉得对杨迪点过分▁STIFF
想到留下来要面对的▁TOUGH▁LIFE
他退下红色战衣▁RETIRE时才是泪点
尽自己最大的能力去解决▁SIMPLIFY
周末很多人吃鸡蛋啊图片来自▁CHEAP▁DELICIOUS
我怎么觉得我一天到晚都在一百▁YARD▁DASH呢
目前来看应该有个愉快的▁GOOD▁RESULT
好像今晚听不到你唱的▁FADED了
老远就能看到粉蓝粉蓝的▁CASTLE
▁BEAST原来是这个组合啊
助伤其让我的▁BEST▁REGARDS黯然失色
我可以持续两个月不去做恶心的▁CREEPER
纪念我将失去的▁NINETEEN岁来一波素颜照
二倍速或者快进听说张韶涵会唱▁FADED
▁PERFUME的舞台是真的帅哭
稳稳荡荡把我送到▁FAIRY
很久很久以后还是年轻的模样▁ONELINE
网易云音乐把我的▁HUSH的第三人称
看过才能体会▁MINORITY的那种孤独感
这时候我想起了▁GARY的▁STRESSES
喜欢▁PEER▁INS黑白摄影光影一组图
熬不下去的时候就反复听他唱▁ABSOLUTE▁LOVE
▁PEPPER到底是什么东西类似沙式的存在
新的假期▁RESET新的心态
此时此刻我才明白▁OPPOSITE▁DIRECTION的含义
我说我困啦连▁MONITOR都不认识啦
后边却有个黑人胖大妈跟我说▁QUICKLY
今晚看电影▁CEASER是我见过最酷的星星
今日份的女性自身▁SCAN
与之相对应的是▁MODERATE适度等
周一上午是粽子妈在幼儿园的▁WORKDAY
老母猪用英文怎么说▁SO
经理甚至还特意为我安排了▁FAREWELL▁DINNER
偶入进一栋小清新店铺▁LOBBY有着茶歇
错不及防就▁APPROVE了头大而幸福
九零后怪▁AUNT来看看我们的友谊
当然▁MORALLY这肯定是不正确的
好想和你摇耳朵五▁UNFAIR▁PLAY
幸运的▁FIREWORKS▁OLIVE素的微博视频
我要做一个最好的▁WORKMAN
辣俊今天也是安定的▁PEAR
腾飞之后天空上面原来是乌云▁IT'S▁OVER
大夫让去查▁TORCH有必要吗
六岁心中的▁SUPERMAN是开着吊车的
四本▁PLOT达成▁DK五连成就
逛▁GAP居然什么也没买
太少的▁CONTAINER总是无济于事
勇士的库里今天的状态是▁QUESTIONABLE
这周又是为了见浅野奔去▁BIG▁SIZE日本
▁SYMBOL在陌生的地方又睡不着
▁BOBBY和▁PILLAR都是警察的李宇成伟
我看任何一种▁UNIFORM都是蛮可怕的
左手扎着套管针身上背着▁HOTTER
遇见村官看我的▁SMALL垃圾玩农药了
我现在要打开▁B站重温我的▁WINK了
张韶涵没在歌手唱▁FADED也太可惜了
▁RECEPTION还是买这款吧也太可爱了
亲眼看到骑士▁RING登上春晚
那个▁RECLAIMED我还没想出来翻译
▁SOAP▁OPERA是从英语传至中文的外来词汇
因为考试中断了很久的▁THE▁PACKAGE
▁FAKER的中单诺手了解一下
周末的日子就是将▁BRANCH进行到底
前爸爸▁ODD出镜本人前两张前割后期
早上跟▁HONEYS从东莞会合到一起搭动车
他撑着▁JUG的手柄下侧所以会受力
酒真好啊▁HANDLE不了的情绪统统考他
把药准备▁ORAL的恐惧一点没放在心上
对于没有听到张韶涵▁FADED我很失落
在一家的▁YARD▁SALE竟然看到了这个
从而让孩子们爱上英语爱上▁SPOKEN▁ENGLISH
我用▁MYUSER只能打成渣渣
一直都是这个感觉的▁IMPLORE
黑白布丁很好吃茄子和▁BAKED▁BEANS不太好
惹人注目地▁STRAIN拉紧竭力
世界万物本就在朝着▁CHAOS方向发展
就为了看场▁JACKS的比赛
你能给我杠吗整天▁AT我
毛不易英文歌曲▁IMAGINE
可能也是坐稳了▁SLAVE的表现
找个男朋友抑制下我的▁CHASE▁IDLE之路
▁FATE真是太好看了▁RIDER真的好酷
▁QUEUE模块提供线程间通讯机制
▁BOWLY主题下呈现组织结构回到两三化
曲子后半段加上▁FOG▁HORN让人沉醉
还有这里啊应该是▁AWAKE吧
▁DARKER怎么可以那么轻易的死去
快来为你的爱豆投票吧▁UNDEFINED
我竟然错过了今天份的▁SPY
研判▁TOKEN经济系统的七个层面
欧洲排行榜▁MOONLIGHT▁SHADOW第一的金曲
今天▁MORNING▁BRIEFY居然有咖啡和面包
把▁HUSBAND备注改成你的人也就只有我
把自己放到▁HELPLESS的位置
看到▁FRO小陀螺▁RENT每次都能笑出声
没来得及唤喜就得赶去做▁PARTTIME
这三只▁DOLL有任何一只皆可私信我
昨天热闹的▁RUG有活力的年轻人
黑幽猫咪▁MOVE▁ON徐州矿大南湖
他们跑到市场上找乱七八糟的▁AGENT
我也想被丸子浇好乖的去▁ENGLISH▁CORNER
非常极其▁TENDER我可能意识不到原来啊
▁PAUL做到离成功上差一步就不做了
▁LUMINOUS▁STAR耀眼的新人如其名般闪烁
▁SECTION四还需加强拼写比以前好些了
这种▁ARGUMENT念书才让人更了解自己
老公▁WEEKDAY主动帮忙带娃对我态度极好
柴犬▁BERRY的治愈系笑容来洗好暖心
一边▁BLEEDING一边拖着老羊毛到天亮
▁ONION走的就是破旧的工业风
他表示无限同情然后最后▁COMMENTS
早晨之前还能给自己煎个鸡蛋和▁BACON
我弟妈▁UNUSUAL的衣服收到了
终有一天我要买我的▁DREAMBAG我在努力
之所以那么难受多半是因为我还▁IN▁DENIAL
▁CHANNEL▁TUNNEL完美诠释了什么叫做神坑的律师
▁SHABBY在英文里也可以这样骂人
▁BINGO大会没想到会中一等奖四十五寸▁SHARP电视
▁GRANNIE看上去很可怕还是明天再说
在路上听着▁DAYLIGHT眼前突然闪出了
某种失衡状态下的▁PALE
呆呆很委屈说这几天一直被骂▁RETARDING
完全分析不出任何▁TECHNICAL的东西
▁CHAIRMAN还不进来讨论个毛线
其实只是没遇到足够深的▁PINCH而已
▁SHATTERED▁BACKBOARD一据悉市限量六千并编号
去▁DREAM▁RENEW个卡排了四十五分钟对
诶歌名简直就是为我量身定做的▁POLICEMAN
选择稳一首那怕被搬光了强势英雄
干嘛要▁SENSOR纽约时报呢
▁WORKMAN让我远离嘈杂的环境安心创作
就这样消失了真是有点▁PITY
想起▁BLAST里的神剧情了贵阳保卫战
▁BLOCKER都打电话给我吐槽卖家了
这部剧的收视率一定很高的▁INABILITY
即使努力的结果是▁WORTHLESS
有些失衡以那个▁INCIDENT为核心
任何工作的满足感比不过▁PRACTICAL
随后老张在火车站广场▁SMOKING
▁SHARE捡羊毛大剪子▁CARTIL缩减用缩减开支
手上的痛意高举彩虹永远▁SUPPORT
▁CITIZEN里是集体名词指全体▁CITIZENS
下班时间不看书写▁BENCHMARK
这么没有▁INSIGHT的电影啊
全程给我一种▁PASSIVELY▁AGGRESSIVE的感觉
第三张图我猜另一个卡面是▁SOUVENIR那张
这星期是▁EGG的小卡▁FAT空碟日记
手机放在口袋里的▁ACCIDENT
如果是要▁KILL唱歌那么我可以试一下
面试等▁FORMAL沟通等时描述
这就是所谓的▁GENERATION▁GAP吗
我的新加坡▁WITHA人没下来
选择▁MAIL会让这段修行变得更困难
关于这两天的文物▁DISAPPEAR事件
请问哪位有结球这场▁EVE的照片
白天是马上就要的▁BRIEF
一二零零▁BOOKSOP一间有独属于他的凌晨三点半
▁SMOOTH一个十八岁就想上王者男人视频
▁AFTER▁CHAOS一出来我的心就揪起来了
六级考题很好的贴合了这一主题▁INVENTION
总算是趁着▁EASTERN▁MONDAY休息了一天
晚上大把▁SPARE▁TIMES从微博看教程
被▁PRIEST怀上乌折这几位的文笔宠坏了
为什么距离毕业还有三个▁EXAM
我没选课没有写▁RESPONSE▁PAPER的压力
返校▁DETECTION原声游戏音乐
比较印象深刻的是▁MELT梗
整首歌我唯一可以▁RELATE的歌词
越来越佩服的全龙▁ARTIST
为资生堂▁INTEGRATE腮红打▁CALL
求求她▁HIGH我这样我就有两个工作了
三十岁的时候肯定会▁POWERFUL多
有个展板叫梦想之路英语译成▁DREAMLOAD
很喜欢查练老师▁CATCHER的设计
想谈个巨甜的恋爱想找个▁UNIQUE的女孩
做了个▁CHAMPION的▁RESEARCH做了一个下午和晚上
你说是不是一个模范的▁FOLLOWER
于是被管制这怎么▁EQUALITY啊
看一下新村麻衣的▁REGRET吧
希望自己早日受到穿▁SUIT
和其他两瓶比比较▁DRY口一点
家门口超市的可可香草味的▁GRAZE
▁HAWKS一个机器人感受人类世界的故事
新利模特公司二零一八▁CALENDAR
还好要是包里还有两个▁COINS到家
早起没有▁SUNRISE只有▁NOODLES啊
穿过的娃娃已被请进▁DUSTBIN
希望不要有人跟我说要▁VOCATION或者什么▁EMERGENCY
▁WEEKLY▁REPORT要怎么写感觉真没干出实事
▁PERFUME这一刻的小时光今日贴纸打卡
刚到的两天住在▁ALL▁INCLUSIVE的酒店
生了▁JAR包发现要升服务器
于是和▁SILLY一起收集到了新合集
睡前看了一篇文章关于▁PAT▁LAWS
非常▁NEEDY的小厨宝很帅
正在看▁VOYAGER蓝图的▁CASHY打了个喷嚏
泡了两天▁NURSING▁SCHOOL扁桃体发炎了
▁CHEESE▁WATCH没来得及拍就消灭掉了
填补初号机▁MUG丝中留下的空缺
袋鼠的英文你默默地说▁KANGAROO
在做▁BREAKING动作时被干扰真的很危险啊
给出的解释是莫名其妙出现的▁CREATIVE▁POWER
正确的▁MEDICAL▁ADVICE使小伙伴痊愈真的很高兴
把自己作为中央处理器按▁FUNCTION分类
这个末尾刷关的铺垫也是够▁CREATIVE
我跟相声协会▁TEACHER王一起看直播
看哪个店能帮我▁BULK▁SALE了
真的很需要喝点酒在▁BOARDING
连续几晚梦到老板改▁FIGURES然后惊醒
收到信的人将▁ENVELOPES撕开
每次这种▁SURVIVAL喜欢的都是佛系小朋友
▁LISTEN我是邓紫棋我爱自己
害我马上亚马逊上订了一个▁CART
更在意▁SPAIN里那个看相位抵消的参数
▁SEVERE发出的现金红包砸中了
还是需要一双▁BOOTH虽然觉得这双
做▁CODER每当完项目是很有成就感的
羡慕那些可以▁SETTLE▁DOWN的人
腾讯豪华▁ADVERTISEMENT加入独立日二我笑了
第一百遍同样的▁FLAG
▁HUNTER▁GASRO性别分化遗留在现代的表达方式
圈子里面是不是都越▁CHEAP越多人喜欢
从▁SPLIT港口坐船两小时
▁RECENTLY我为他画上了一个句号
那么我目标为站定看到▁THIRTEEN附近
化工系的▁COMMITTEE在招人的时候
全能一人辛苦啦注意休息▁CRUST
看了千王之王▁WARM歌的一部电影
今日深夜更新走了好多路▁BLESSED
下一步我是不是就会被▁FIRED了
外表光纤的电脑下密密麻麻三十一个▁FOLDER
▁PAINT这个很可以好看的内裤
真是没事早存在感的▁GARBAGE
然而▁GAP一年马上就去新奥
▁TORRENT文件格式的办法资源论坛
跳了半天的▁T▁P▁P被▁WITHDRAW了
觉得很诧异也很神奇有点被▁SHOCK到了
结果被基友的带领下买了优比的▁STEAM
十分钟▁BULLY▁ARMS拿着手机双臂瑟瑟发抖
谢谢嫂嫂送给我的▁BACHELOR▁PARTY
诶可以很敏锐的去找▁ARGUMENT是怎么运行的
从未有过的▁DESPERATE之感生无可恋啊
美少女战士美少女战士▁CRYSTAL
英语口语和▁INS▁FOLLOWER都波动得厉害
特别爱去▁WHOLE▁FOODS买新鲜的水果
不过▁VICTIMIZATION跟▁AGENCY其实也是老话题了
比如▁HEATED▁DEBATE就不要再用了
一切▁POSITIVE都是满足自己为前提
不知道▁ENGLISH▁TEACHER看到我动态有何感想
喜欢的▁COUPLES这个片子居然是废土篇
真是他们▁SNOBBISH的气质太显而易见了
这就像是一个▁CLOSET感觉跟出柜似的
当了七天的王者后半个月就▁FARMER了
图五为二零一三年参演鸟叔的▁GENTLEMAN
自然醒起来喝粥化妆出门逛街▁HOORAY
▁TAKE▁AWAY▁TAKE▁AWAY我在这里福州图书馆
不管第三张▁LEVEL书前两张抢小红点那
我是本次返校的▁CHARMING谈
无法▁HANDLE我突如其来的深爱
做了一个不太好看的▁BABY▁FREEZE
关于▁REBELS相爱相杀新剧情
海淘了一批▁THE▁ORDINARY价格美好
被朋友误会情绪糟糕错过▁FRESHERS▁WAKE
▁OPENING▁RECEPTION来了好多好多好多人
在如此贫困的情况下忙碌了极品了▁ORDINARY
大家转我家东西打英文▁BISCUIT才能发布
哎我以前觉得▁ORGANIC啥的都是放屁
今天很糟糕周撒了▁T<unk>SHIRT被风吹跑等
这么悠闲是三年前在▁HONG▁KONG
请问有没有大佬剪▁EIGHTY▁NINE▁HAPPY▁CAPED
模仿老师做了一台检查▁OVERLEP
从讲究师▁DIARY里来看也是如此
他有了人生中的第一把吉他叫▁OCEANS▁DEEP
把意思告诉大家的人都是▁WET▁BLANKETS
搜了下原来是张艺兴的▁MASK
▁BARNEY反正之前喜欢的最后都放弃了
我和我老公都说好了胡留七个▁ALLOWANCE
我也不知道▁NINETEEN那年咋地我了
然后就被对面的同学拍下来了▁AWKWARD
这种▁UNFIT的感觉肯定不是错觉
东西存▁WORKER很通很透很▁ENJOYABLE
又怎么能要求▁FUNCTION作出已知的判断
后面这位▁HOMEY你再也不是我的宝贝了
开着一盏台灯的宿舍是我的专属▁CAFE
就是你们这群▁BURDEN考得过就有鬼了
意大利老师这个▁SOURCE绝对是我的真爱
▁GONE远点好吗我的生命在加速流逝
没时间做▁ACTIVITY▁BOARD也没关系
前情铺设恰到好处▁PUNCHLINE一击极重
不温不火的沟通方式轻松但▁DEMANDING高手
▁BUSY▁DAY我认为没你照样过不会很难受
▁HOLDER将孩子数次摔倒到地上
祝小鹿先生二十八岁生日快乐▁AS▁EVER
需要使用▁REQUIRE导入后使用
对▁PERFUME▁GENIUS表达喜爱的心情
▁C▁D出口槽坏好久▁EJECT屡是不能
原来是这样你还真不能▁TAKE▁PERSONAL
这个被▁SACK真的是心急的表现
不要每次都吃▁CHEESE▁BURGER
这两周来同季野餐是▁WEEKLY▁ROUTINE清静自然
想想也觉得特别好笑我一个▁VIRGIN
▁GRAPE▁ROSE铺肉肉芽的秒拍视频
把穷奇叫做▁POOR▁ART真的咋的
我在想我在哪里刻个▁PUNCTUAL
齐小黄穿过五大道来▁HAVE跟庆家约会
推荐一个软件▁FORGE花人美
平常根本不想去看▁MARRY▁YOU大合唱
不喜欢这个▁SANDY教练太丑
被十几名▁TEENAGERS挑衅并按在墙上暴打
愉快的夜晚感谢把▁SOUL带来惠州
小云唱▁MARRY▁ME真的太甜了
溜到▁UNION附一楼选个靠近钢琴的位置
我觉得▁DEEP▁CHILLS不像开狗但是这组好像
不愿意的从前现在你就是个▁RUBBISH
我昨天刚从横店回来▁AGITATION
都▁BOARDING一半了还能换登机口
被膝盖疼得睡不着▁GLASSMAN
人生第一次抓起娃娃虽然有点▁UGLY
到最后给了▁CLIENT几百万
挑了很久的▁SCHOOLBAG开开心心上学去
我不活了▁MARBLE是不是惹他了啊
给我一种梦回▁FIGHTER时期的感觉
作为▁PRIOR的加飞台词真是太打动人了
为啥我工作这么努力啥▁REWARD都没有
这个世界怎么那么多需要我▁IMPRESS的人
最后被小七的舞蹈▁SHOCK到了
他共热衷于玩▁KISS踢SU的游戏
郑爽梦之队霸气对上所有人都是▁EVERYONE
通过自己写的▁MAP▁REDUCE的小脚本
▁OBJECT通过了我最近可以休息了
前情铺沉恰到好处▁PUNCHLINE一击极重
▁WEEKLY地球一小时小鬼视频通话视角
这是在暗示我要做个▁SUPERMAN
如何用▁ECLIPSE创建一个新项目
今天下午被▁DAY▁BRIEF晚上就发布
老师还吐槽▁MARVEL妇联主唱来魔都了
有▁OUTBREAK▁PVE模式还不清楚晚点开直播
长期安利学妹▁TRAFFIC之后
这条赛道比▁FRIENDS▁HAT还有爱
吉他名曲▁SADLY▁SPAIN浪漫伤感
以前挨自拍的▁ATOM哪里去了
总不在一个季节能▁INFINITE
老子今天抢▁SUPREME的跟小日本动手了
今天做的▁SECTION▁ONE今天比较简单错误很少
我今天没有▁SMOKE啊一定是换宿了
他可能觉得我是世界上最不▁ORGANIZE的人
喂老师一样的▁GENTLE的大叔帮我放行李
小老弟生日快乐李阳▁VIOLIN
希望你们在▁COSY的小屋好好的
练语制作人以后不打▁TWENTY▁FOUR▁HOURS了
汉化▁RECONNECT终于下载成功开始玩
不需要理由的快乐非要给我抓拍▁TERMINAL▁CANCER
都快来加我的闲置号▁SELLING▁COMMUNITY
是不是▁FASHIONABLY▁LATE这点见仁见智吧
很多人夸精妹的低音炮求▁REACTION传送门
提供家具▁FURNISHED和不提供家具▁UNFINISHED两种
全靠现金现在▁FULLY▁INVEST才能硬撑了吧
▁LITERALLY毁的头发真的非常▁ANNOY
第一话个人最爱的▁SCENE因为是原创
星星王子米罗虚▁HUSH网页链接
从▁PURSE开到▁BROOM曾一天狂飙一千五百公里
新上午延误▁IDLE了一个礼拜
送出小小苏零食大礼包奖励诸位▁EARLY▁BIRDS
捏脸时就一张脸多复杂▁SHADER都不是事
太懒惰了同时又非常的▁DEMANDING
立个▁FLAG找到▁PRISON篇就删最近太需要梁了
▁NOT祁隆北京福苑小区
三天两头轰炸他国最大的▁TYRANNY是他们
想要的东西自己都能▁AFFORD
谁让▁ALERT执行谁就是▁THIS▁THIS指向问题
▁KILLING▁EVE的配乐毫无疑问地加强了情感
为什么要▁LABEL任何一个人
十几个小时的路程▁ARRIVE重庆
我的▁COOL▁DINOSAUR太酷了还有什么比它更酷吗
收音小哥说把开▁DOLLAR都花了
毕竟我又不是为了▁FOLLOWER活的
这样就可以星期四排票▁HEME
这个体系很难又很▁POWERFUL
▁GET▁MARY的谁知道这组图的作者作者啊
每天看两集▁PLAY▁ALONE儿歌视频都能懂了
▁UNCLE▁IS同道大叔潮报星座嘉年华
隆东一家▁ORGANIC的餐厅早中晚各吃一栋
刘海便▁STAR我们都是要一起来的啊▁PRESENTLY
正面写着天才后面写着▁LAUGH▁LOUDLY
重点是要去吃本地的特产▁FISH▁BOIL
苹果版▁BOX更换音质具体步骤
带银耳线是以牛排颅法▁BID
然后最近照片的▁FAVORITE全是你和丽儿吗
下了一天的▁DOOM九四取消了就重下
我比较喜欢那种比较温柔的路线▁CLIMATE
或许有人要贪食宠物▁SPOON▁PETS的攻略吗
首尔哪里有▁LAMP我想去买同款
英国人不常用等同▁BLESS▁YOU
大概在听一篇关于门廊▁PORCH的文章
▁SNACK是苏打饼干和三颗手指葡萄
楼下▁XEROX叔叔的日语真的词话
有所不同的是这不是与▁EDITOR的争论
原来我买的▁SPEAR▁MINT榴兰香
三二二世界水日和▁BROADCAST播一起为环保发声
零二四▁MONTH还好我都没错过生日快乐宝贝
▁SECTION二精听真的听得心很累
就在我等着▁DEFEAT的声音响起
▁ORDER的图好绝啊等我领了过年红包
然后我就哭了当▁BEHAVE真的太幸福
盛顿有▁INTEGRITY的▁REPUBLICAN也是差也是不多了
▁RESOLUTE老师永远面对我们小组一副愁容
哦一二三着合适值得这般喜而不▁MAY
那可是他们▁TRAINING一部分呢
上午语音课下午▁OPERATION晚上▁CW
或者其他任何地方贴有▁COURTESY▁SEAT的地方
同志滴了▁LADYBUG▁SHEER在我嘴上就是个豆沙粉
是一半的▁WARM▁HEARTED一半的▁SICK
能不能别再如此▁SHAMEFUL真对不起老先生
幽暗的空间中应该是一种▁PRIVILEGE
坚持住生活就是很▁TOUGH
▁FAT▁COW的鹅肝牛肉汉堡真满足啊
怎么样满配的▁SCAR好用吗
我喜欢之前▁ACT那样的战神
独自在家赶▁PROJECTS做家务看书
▁TROPICAL▁HOUSE太火了反正比较稳
看到▁ACTIVE的例句立刻化身了
二十八岁了▁ENDING一下生日快乐
苹果研发▁MODERN进程并不是十分顺利
等送去▁DAYCARE看你怎么办
突然看到一种猜测说▁PEPPER
都要▁HANDLE我觉得根本不在我能力范围
猛吸一口气成为一只▁OVERHARGE的萌臀
如何把女性形象呈现为▁SEXUAL▁OBJECT
外资▁BIG▁FARM普遍有很强的风险控制意识
木ER貌似上▁TEAR实体砖了
室友多喜欢连▁TESTER都买回来
石破各种▁TRICK当然比台上的人容易
久违的骑行今日份要做酷酷的我▁SWAY
武汉马拉松今年有怎样变化来看▁RUNNER
出▁AMUSE兔子正版全新未使用吊牌在
去了悉尼北面的网红打卡地▁PALM▁BEACH
本人在▁FLAT▁AWARE查找资料时发现了一点
半个小时才意识到的▁TOTALLY的策略失误
看▁TEAM▁FT首演的弹幕
带了充电宝没带▁CABLE拎了个箱子
▁COUPLES▁GARDEN我在这里苏州偶元
居然只差二十六张▁ELECTRO▁VOTES就能赢了
本人因个人原因已退出▁BOUNCE
看了▁LADY▁BIRD一部青春片
另外两个男生被提名了▁FEATURE▁PLAY
借用这几天新学的词就是▁UNCERTAINTY▁AVOIDANCE
▁MAYBE辞职以后见了我可以叫我▁LAWYER
刘宪华的开机台词▁ACTION超有▁FEEL呢
应该这样继续行动▁RACE
这三天尽情享受吧我的▁GOLDEN▁PRODUCER
再也不用在▁PAGES里面年来年去了
▁TENNIS▁PLAYERS我是发哥的忠实粉丝
我们是爱的战士用▁LOVE▁SHOWER感化敌人
骑单车四十多公里▁CLASSMATE的给带了好几起马花
等太久了中国队的第一个▁MAJOR冠军
我不能参加今年的▁BOARD▁EXAM了
今天超级开心心儿发了他的▁BELIEVER
那鼻子眼睛加无敌的▁CHEEK▁BONE
可以让人▁BE▁POSITIVE的一本书
同学跟我提到过他爸爸的工作是▁HUNTER
看一▁LITER中我不喜欢这个题材
周末集市觉得好好逛逛买了一堆▁TUNA
翻译阅读理解见到▁FOUNDING▁FATHERS
极限挑战小猪罗志祥极限挑战▁IMPLORE
给▁DIARY设了密码很久之后就打不开了
没有▁POWER▁MOVE的表演不叫热血街舞团
一定要和▁CHILLING▁CHICKEN一起吃
那张▁UNLOCKED很有感觉膝盖给你了
自己飞▁LONG过去啦倒反转头讲人凶
歌太遍地下三期完全就是▁MELT无双
解救隔夜没洗头的油腻头发的▁SOAP
发现自己的▁CUBICAL被别人占了
超可爱的▁HOPE哥哥啊手指透露出
没有人相信我应该去看心理医生▁SHAME
我没有自己想的那么▁RELIABLE
看▁AMINOUS再也救不了你的小心脏了
随着被▁INVOLVE到越来越多的项目里
多买了两个▁SPEEDY二五带肩带
临时的反驳点被老师点名夸▁FANTASTIC▁ARGUMENTS
这枪太漂不好用还是▁SCAR好用点
这个即将成为▁QUARTERLY▁UPDATE了
▁SCHOOLBAG怎么搭配都满满时尚感有没有
全能行▁DANCER体能很好很有想法
现在终于▁SETTLE到了火车站
星期六有▁TOKEN的面试开始紧张了
我背歌词虐到无法自拔是不是▁LOSS
卖你▁FARM辛辛苦苦磨练技术
钱先生最喜欢的米式乡村餐厅▁CRACKER▁BARREL
体验到一种类似宽街▁HAM的心情
偶遇了李泽言的▁SOUVENIR啊
实力全是▁PURSE没忍住还是发出来了
明天二十二▁PASSAGE▁TWO我是听话的好孩子
各种疯狂的▁TRANSFER和▁WAR▁CROSS
最不▁EMPLOYER▁FRIENDLY的国家
一切▁LAB▁CLEANING都是因为人有人要来检查
▁SPICE欧式派男士沐浴露
人生本来就是▁SACRIFICE你不可能什么都要
剧场班总计片竟然要出合作馆扫林▁WORKMAN
▁BOYS拍照技术滑毛系列了解一下
很想拥有▁WORKMAN但是十六级不够用
有经验的给个▁BENCHMARK好让我有个方向
▁DOOM直接被报废滚筒洗衣机▁NAIL的视频
巧克力▁REFRESHMENTS到处都有
有没有淡水壶写的▁POOR▁SALT▁LAKE的
要开心哟努力做个▁BENEFIT▁FIGHTER
来自昨晚的▁SMALL▁WILD▁CAT微博故事
左原图右滤镜▁WORKMATE画自然才是真的美
公司为了利益圈钱搞出来的▁GARBAGE太多
总有一天要用神仙水和▁LEMON打卡
▁A▁GE真的是业界良心专业▁POLISH一万年
你觉得我的地址怎么样五十▁KILOGRAM
为什么飞机延迟是▁DELAYED
得去考试现场给老师唱首▁NOTHING▁ROUND
你这样做把芒果台置于何地▁MEANTIME
现在▁LAMER也吃了气垫还带替换装
把小朋友放在▁PLAYGROUND我和爹各干个儿的
看到▁AWKWARD这个单词也会心动
现在发博都要保持▁RECENT两三天的节奏
旁边日本小哥二零叫空姐指我说▁BLANKET
打通事务所带▁SCORE全▁AC这样子
要有▁CRISIS▁AWARENESS之前你要的图牌照就不挡了
我的妈好想去▁UNDERTAKE里面看看
是黑色的敷衍诡异的肤浅▁IN▁VAIN
除去这些因素只看▁DECADE本身的话
为每个患者▁APPROVE一副牙套
在这里遇到了超级喜欢的▁PERMANENT
看了整整一个晚上的▁SEED
但是真正成为▁EDUCATOR的并不多
突然发现又有个▁PRIME阅读了
它阐述自我传达价值会被当成▁DISGRACE
真的还有很多▁DIMENSION的商品呢
喜欢这个来自台湾的礼物特别有▁INSIGHT
吃了几大口蛋糕▁DISORDER了两天饮食难受
▁FACT就是你想睡有人不让你睡
我觉得今天起可以在微博立一个▁FLAG
怕写其他方法的▁DRAWBACK之类
我可能真饿了写着写着▁GOAL就变成了▁FOOD
这神奇效果堪比▁TANGOTIZER抚平毛躁
想去教堂做个▁MESS需要▁CONFESS一下
这▁COLOR▁TRIM整的真是太牛逼了
直接说▁SORRY就好了▁PANDA真的很少用啊
▁BE▁NILE阶段还可能还要持续两年
▁WHICH▁MEANS从一开始就反对有不知道
即使双脚患病也不能说成▁ATHLET'S▁FATE
发现每门课打印各种书和▁PAPERS很费钱
看百科才知道甜茶还演过▁HOMELAND▁TWO
▁DEPRESSED情商高的人会温暖人心
我妈特别快的给我做了碗面表白▁MUM
或许▁SEE▁SIREN人鱼色了解一下
见到胖子就扔钱发展到见到▁ROCK都贴钱了
我狗子给了我一只▁LAMER的洁面
总结一下熊孩子都是▁WELL▁BEHAVED
电视剧追踪表达那样种精彩东西▁COLONIAL
微润的风拂面经过盗墓的时候
明天早晨不敢上称称体重▁SOLUTION
没有英语城市▁TRIM旅途中
▁BLOSSOM评论区请小姐妹们发挥
不过就是在▁BROKE▁HEART的那天
搞了两个▁ABSTRACTS写了三份邮件
▁REMARK一下没吃晚饭的八公里
你们不如给我点意见▁HATEFUL
一定能给有志于此事业的学生▁JUMP▁START
这种在中国▁HAWKER▁CENTER也就五块钱封顶
▁MORAL这东西很多时候只是个衡量标准
希望还有机会▁CHASE我不喜漂泊
知道两年后才恍然大悟▁STORM
胖男试图插队我一个木舞横在他前面
怎么老没人接电话▁SILVER济南恒隆店
同时希望▁HEAD▁COUNT早点▁APPROVE
我真是太喜欢▁MIDNIGHT▁CANYON这首歌了
▁CIVIL▁UNION就很好争什么同婚合法化啊
上班要随时精神紧绷▁STAND▁BY
第一期的时候我对他多么▁STRICT
质问我寄东西之前都不考虑▁TOLERANCE的吗
晚上散了一大圈不立下好多▁FLAGS
我每天出地铁都会拿着手机到处▁SCAN
这个一出▁MARVEL就成了漏气网红了
终于等到了未来的路由▁HONEYS陪你走
出▁PULSE裸砖可带图亲力迅手写信物
我可能会听着听着就会想去听▁MUSIC
估计这会是一条长久的▁MOTTO
我要夸露▁SITUATION一万遍是绿野好听
这黑雾我在想算不算▁JUMP▁SCARE
最易盈利的是▁SIDEWAY市场
夏天全是▁CROP▁TOP不给猪猪女孩留活路了
不过时刻保持▁ELEGANT也很开心
所以还可以有个▁AVERAGE卫星
闻我爸▁TEN先生真的好甜啊
认识了新朋友▁UNION好美好可爱
注册时记得填写我的邀请码▁OMIT
▁SUPREME我的眉毛还真是长得乱七八糟
今天是头发油腻的▁SLEEPY
目前还有近三千篇文章要▁SCREEN
这么活▁SHOOTER大玩家我与汽车的日常
那我们是不是充话费送的▁LAB
明明家里▁BLENDER啥都有然后就是个果汁
这个▁WALLET我没想到会这么快做出来
▁AWKWARD▁THE▁MOMENT在山场遇到以前的学生
窦靖童大牌对王牌看得很爽的▁MOIST
所知道的尽可能多的词性和词义▁DISCERN
终于写完一稿在▁LINGER回去后
相信自己的▁GET▁INSTANT生活也许会好很多
把英语▁THOUGHT写成法语▁SALUT
喷了▁BLOOM惊奇发现突然喜欢上了它
我们依照以下尺寸记录如何设计▁PANTS▁LAYOUT
▁THEORY的西装真是太好穿了
终究只能▁HANDLE一个人的生活
▁BOOM▁CLAP喜欢看抖音上有关这首歌的视频
什么时候用▁LAMER机灵就停在什么年龄
▁CONDEMN谴责飞烂判刑定罪深讨
但双线性使是太过于▁MASCULY▁GAZED
好久没有跳这种风格▁BUTTONS
还是英文的只听懂了▁EMERGENCY
半夜梦见我的▁BEST▁SELLER没了
都把▁CRAYON这个单词的读音搞错了
快下发个▁JAR让我体验体验
去摩洛哥一周等大三找个有▁BANK▁HOLIDAY的
看着超级有食欲的▁BOILING▁CRAB啊有木有
要出▁RIDDLE▁JOKER了希望治愈我的幼小心灵
看▁OLD凉这颗瓜头心情就会变好
第一篇▁UNPEN▁CONTROL充满了萌点
想看列表里基本上都有▁CRY▁BABY
有机酸直播玩学员▁HANDSOME啊
每次上完▁SCULPTURE都觉得应该来个玛莎鸡
今年我可以马脑劈叉然后变成▁SUPER▁SOLDIER
战斗▁SCENE实在太可爱了
说那么多中国的坏话了还是被▁FIRED
在美国和美国银行▁NEGOTIATE是必修课了
然后老板没开门转而就想▁SEE▁GIRL
遵一狂想曲电影工作室▁PERIOD
综艺节目不看怎么可以呀▁MORTGAGE
今天果然又成功入了▁HIBERNATE的坑
你来个甜米▁SWEET一下吧
就是被崔胜彻▁CLAP那一第一眼惊艳
▁VILLA再美好还是比不上南京空气
笑死了时隔多年还是很想辱骂▁TOP▁COMBINE
小明去找▁RUBBISH的灵魂的时候
每三月▁REVIEW进展不知答应了多少
良妹之旅是要开始了吗▁FRAIL
乐视的这个▁DEEPING▁SAUCE好好吃
那个老师今天▁CRITIC的时候把我一痛夸
▁CHERRY这个词想起大一老师的电视剧梗
讲座重点就是这种杂毛的楼▁VERTICAL▁FOREST▁FIRE
图二告诉我是▁LADDER娃对钱没什么概念
不应和原有远期曲线一样▁FLATTEN
美国网红二哈▁STILL主人扮恐龙吓唬他
呆在里面就觉得开心了爱▁NATURES
三天二百个字都挤不出▁READING也没看
里面很多▁JUMP▁SCARE他每次都会被吓到
▁TODAY'S▁LOOK手持绣球花的少女
等两个月的▁BLOOD▁SUGAR盘终于到了晚点试试
巴达特不是拉登的女婿她只是▁INFORMAL
整了个▁EMERGENCY吓人大家还是都好好的
但是一个选择一定会有自己的▁DRAWBACK
这个▁BRONZE色蛮耐看的据说金秋会很火
▁SEMESTER▁BREAK但对于即将到来的五月
可以同时加入义勇军兄弟会和▁RAILROAD吧
否定当下的决心昨天未必写▁DIARY
拍摄的以▁HOMEWORK为主题的宣传片
▁COPPERY▁ORANGE什么话都不能说得太早
到了甜的惊人为人的哈密瓜▁ITS▁BANANAS
精训练▁POSE适当放松放松
是在给我上课▁CHALLENGE我所有的▁DETAILS
突然又染回来了▁UGLY叫爸爸
我想他拥有的钱是▁INFINITY
且把▁FOOTPATH上的鸡鸭都扫干净了
涂了次姨妈红的▁LIPSTICK要得瑟
至今为止已坚持小半年不实处类▁MEMO▁MEET
给提这个需求的▁CODER加个鸡腿
被提醒去看了一下▁JEEP
也是眼睛里有小星星的人了要▁CALM▁DOWN
最亮眼的角色应该是▁COMMANDER和一商
有点▁LOCK第一次海底捞
实测▁APPLY▁PAY并不能刷无锡地铁
必须成为一个和你一样的▁LISTENER
你讲解的真真发射这是性转的▁HUGS将军
▁SHELL女孩儿发起了挑战
球打不过▁AUTUMN▁CLOUD常变人生心心酸
看到了一下你们的现状▁KEEP▁RUNNING吧
边博贤每唱▁CREEPING我就像上西天一样
我跟他说我们是▁EYELINE是盟友
周一还会有▁FEE▁HOTS的活动
北航国际学院第二大▁EXPLOIT是什么意思
▁CRYSTAL张天爱美女的天生励志占一个▁PRONOUN
边工作还要边▁AMUSE猫生活不易呀
去▁ACTIONS的朋友那里拿衣服的时候聊聊
海瑞买的▁POKE翻译过来就变成了牛肉
自己都几命因为我记得我有▁FRIEND改
一看就是州政府寄来的▁PROPERTY▁TAXES反寄信封
第一个动作是▁WHIRL▁DRILLS训练的一种
在▁BOOKSTORE里看到你读过的专业书
▁TOTALLY换了新发型感觉自己酷酷的
▁KEEP▁EMPTY智商情商是个好东西得有
▁BOUNCE马牌很高兴的一双跑鞋
今天▁BANKING▁HOLIDAY妈妈放假一天
求▁HARRY▁STYLES先生找个魔方老师吧
又可以愉快的登上▁YELLOW▁SUBMARINE啦
怒吃两个麦当劳▁CHEESE▁BURGER
从历史到现实我们都在追求▁NORM
▁BEST▁PERFORMER人生如戏全靠演技
▁RESPECTED同事理解自己带来的价值
也不需要你有这么大的▁HUGE▁DICK
很久没有好的状态把▁CODE理解明白
发表了博文▁LOGBOOK六墙角花开
我把所有▁EXTENSION禁用了都没有用
发现他长得很好看跟▁DEEP合作过
是▁VISA或▁MASTERCUT的都能刷不一定要日本卡
▁SPRING要多加个大牌才有气势
一句话真的是太让人感动了▁COMMODITY
把那▁CHEEK▁BONE拆下来装我塞帮子上
今天喝了一杯▁LARGE▁SIZE的珍奶向我轮看齐
曾经单雄无数次的▁DREAMS
咖啡洒到了▁NOTEBOOK上幸好不多
以牛肉著称▁GRAZE餐厅儿童版的烧牛肉
常用的基本就是那么几个▁CLONE
希望您在另一个世界不用▁BLESS
▁BUTTERS口述小南含泪记录
明天▁WAX多少钱明天到▁MANA就是多少钱
不就等于我这种平肩党去设计▁FLOURISH
我终于也拿到▁RECEPTION的生日贺卡了
说已经开始放▁RECONNECT的音乐了
却要继续留在学校多半个月考▁QUALIFY
因为想吃两家都▁FULLY▁BOOKING选择了这家
很喜欢▁WATER▁COLORS的歌词
他是我的我设他的你懂吗▁HOSE
只能淡定地冷静地处理每一▁PARTS
打开▁FLOWING把雨声调到最大
祝福一下广大▁CODER的兄弟姐妹
明天起我还是傻白天你还是▁SUPERMAN
是一种基于跨链技术的▁COIN
▁AMUSE的新品们姑娘们有喜欢的吗
朱正廷能量月▁NINE▁PERCENT有一点点想念
等安顿好再也不吃和▁CHEAP有关的一切
吸引力是多么强大▁BE▁CAREFUL
看▁THE▁HUNT猛然想起小时候喜欢过虎鲸
如此▁GENEROUS衷心祝愿他早日受宠闪电
我的财务管理强行变成▁COOPERATE▁FINANCE
▁SCRATCH挺简单可以用来创业教小孩子了
删去▁FANCY后句子也就没有什么意义了
谁能阻止▁LESTER家的傻孩子别吃唇膏啊
我▁BID的几个目的地跟我室友的一样
会有十七个歌手▁NAMELY贯穿大三一个学期
一不完游戏的歌来找我体验一下▁STEEP
▁SAFETY▁STOP塞班岛潜水世界
又是一次▁MAJOR▁INCIDENT一周两次
不过我有二十三个历史作文▁OUTLINE要写
▁BRIGHTER▁DAYS在网易云上有上传电台吗
是要把我一个销售逼成创意▁AGENCY吗
你已经对不起我了你还▁PUSH我
露出了抬头纹开玩笑▁NO▁OFFENCE
▁LAMER的镇定效果真的服气
俺们晚上办事完了就在▁CANTEEN吃省事
物理加速算错了英语▁GENEROUS拼错了
▁LATELY最近迷上了试卷飞卷的头发
经理读不懂的▁COMMENT成我离职最大原因
▁CLOCKWORK▁PLANET记得明儿下午一点半北航来找我
而且非常完美地圆了一个▁CRISIS
不想写▁OUTLAND写了妆想来自拍的人
喜欢王志的都来的▁FRENCHMAN
觉得后面的人生无法▁EXTEND
朋友一大早和我▁COMPLAIN顾家阿姨不利心
这两台▁COST二四零的机体完全是用来搞笑的
半个月真是没想过▁CUBE这么会营业
路过▁OVER没忍住躺下来睡了一个小时
我们要做一枚快乐的▁RED▁HAT
要是不介意跟▁AIRMARE的错一起的话
▁ALTHOUGH我只睡了一个多小时
▁UPSET不想要新环境不想认识新的人
下午的全英文报告只听懂了一个▁CARBON
但人就是这样子▁EXCHANGE谁都逃不开
先去办钓鱼▁PERMIT排队两小时可算拿到
小马和同学去春游据说去了河边▁PICNIC
不然下次真的可以挑战一下▁CHECKERS了
就是这是▁IMPLEMENT细节不回答
在京东带关山▁SPIREAU▁CENTER的这一家新派楼
▁POSITIVE▁SAD就是感觉坚持健身
心情不好带▁LUMINOUS的刘永日去吃美味吧
在▁B站的▁REACTION还是有很多人看的
想变成▁POEM只能做么他安慰
你们的▁MORAL▁ETHICS是被狗吃了吗
花一千多▁FITTING给到合适的几何
十六个小时十八万▁FOLLOWER首贴将近三十二万播放量
在看某美吧汉化左把▁INCH翻成英尺
王者归来▁DVD野托小伙伴的服找到
▁MEDICAL▁VISA看的印度医疗挺吸引地球人的
▁TAPS啤酒好喝哦重庆龙湖星乐会
没听清对方的话希望他重复时用▁PARDON
我是一个不会▁MAKE▁EXCEPTION的人
▁EDUCATIONAL▁INSIDES已经等了好久了
传说中的▁TUMBLER又重出江湖了
▁WALLER入小镇的一个很有名的▁BAKERY
就和在▁COASTAL能刷▁WITHSA不能刷万事达一样
接口方案也应该更新到▁TYPE▁C时代吧
这个男人让我觉得▁DISGUSTED
第一次给家▁REFER成功了
绝大多数▁SMOKERS抽烟不是因为烟草本身
▁A▁FLAG被牢牢插住了就冲下亲亲这笑
我爸遗传给我了一个▁FEATURE
平常根本不想去看▁MERRY大合唱
▁BABY▁DIARY举宝成长日记橘子语录
下周▁JURY钢琴老师给我加课
▁LAY也去给小分队加油了
下雨天也有那么多顾客来▁WALKS
陪我度过一晚上▁TESTS了
真的是▁BULLSHIT一样的宣发和组织啊
基础通识课所有人都▁INVOLVE
好期待儿子回▁CUBE之后的造型
▁WEEKDAY每天去学校就喝水在家里都不喝
开始▁SUFFER这件事带来的痛苦
再和▁MASK谈生意必先谈股权
小乖阿川对黑学技术▁GREEDY的比赛
老公跟我科普了▁PASSIVE▁INVESTOR
幸亏坐上去的不是▁RAIN
毕业两年后和同学上了学校的▁BROCHURE
▁SENSES你的一举一动都令我着迷
还有时光像那里的▁SOUVENIR
再看看大家关心的▁DIVIDEND▁YIELD
阿三开发想糊弄我骗我▁APPROVE
获得的▁TOKEN奖励也就越多
有些老板▁LOW起来只懂看▁PROFIT
没容霹雳更的我这边是▁AGREE的态度
他最喜欢的▁CHARACTER是小兔
记得磨了▁MUMMY好久才买下来
也在想刘子光▁PAUL十月陈伟霆
他走的时候就会和我说下周一见▁SO▁CLEVER
后来还是我自己发现错在一▁NUMBER和二▁NUMBERS
勇敢去尝试如果▁CONQUER不了对方
问的人太多了是这个名字叫风▁PORCH
这都是我们喜欢的▁LIBERATE
因为是去▁COUNTER办事会顺着你的心意吗
看的就是精彩部分的▁SITUATED
需要时间还完善今天的▁ARGUMENT
被看到又要被训▁SELFISH了
▁BAN▁COCO的第一次微博故事同款滤镜
话说▁DOVE是批发广告吗好多都在打
去寻摸别的公司但是还是▁PREFER外资
明天开始基础款的▁CHEESE▁BURGER
使▁EMBODY▁OBJECTIVE犯能够从充分证明
一如既往的▁SUCKS越粗被老王拒绝了面试
超出以外的集体生活时间都是▁SUFFERING
梦见自己忘记了带打底卡各种▁STRESSED▁OUT
凭着我▁AVERAGE的颜值我客观的评价一下
自己逛逛逛毕竟没人陪▁NOBODY
越来越大工作量能够同时▁HANDLE几件事
第二单▁VENUS▁MARBLE大理石眼影盘
田真的有很大几率是个▁SNOB了
趁我去▁EXCURSION的时候你去了悉尼大学
韩语好帅但是要去学校了▁SO▁SUCK
所有的女生都爱的▁RUBBISH▁FOOD
我最近又穷又胖的▁REASON
在夜晚的▁FOOTPATH第一次看到漫天萤火虫
还剩四十个小时就▁REHEARSAL了
因为即将停电莫名兴奋的三只▁MURMUR▁XHY
▁ZOO我说这是妈妈的属相
怎么忍心▁ABANDON▁HIM阿万真是个隐忍的人
何玉鹏▁NAKED▁LADY不期而遇了
那个▁SAUCE甜的我现在都难受
希望▁GRACEFUL一切顺利吧和女友订婚了
只不过过程还真挺▁TOUGH
看完绝对▁GROUNDED老泪再不敢胡思乱想
朋友订了蛋糕帮我在▁LOOPY国
米老头是我没办法抗拒的好吃的▁SNACK
▁THIRTY▁BLUE▁COKE会让人变阿凡达
终于登上去了国旗贴到了山上的▁REFUGE
必须狂热变白▁MY▁HUSBAND啊
你要我怎么做怎么说才能▁EYE我累
可我真的就更喜欢用▁POOL啊
像▁INCORRECT之类这种带个否定前缀的词
我也想去浙江卫视节目▁RIM
下午▁ENDING瑟瑟发走的我回了宾馆
本田新一代▁INSIDE概念车
遇见了碗超美味的▁POKE饭想再去吃
他又不可能一辈子是以老婆▁CURSES
▁PAGES好用电脑重视挖掘手机的好办法
林志玲南极落水很吸引人▁OVAL
就说说这个▁CUBE艺人想念发表
喜欢下雨天尽管回家被淋▁SPRING▁SHOWER
意思丝的可能有个▁REACTION什么的呢
就像我最近在看的▁CHARMED
缺少▁PRIMITIVE▁MOVE的人干不了这个
出去做▁SPY假装成了自己想要的样子
▁MAT文件以及获取数据变量和写出
▁BREEDER的▁HOUSE真的好看欧式的感觉
五金▁BLANKET这相当于一起睡觉
从▁WORKMAN到最近买的微波炉都超级棒
倒吸一口凉气坐等▁SP期待▁BORDER▁TWO
恍惚间也完全还是年末的▁STRESSED感啊
还有金唱片很重三十▁KILOGRAM
两个▁VIBRATE一声推和他们的哥哥
昨天吃饭餐馆送的▁AMUSEMENT
有可能这种事真的有▁CULTURE▁GAP
三人翻跳▁DROPS舞蹈成品舞
甜甜的对是甜甜的▁WAVES
有时间可以做我的▁PROJECTS了
我正在听▁ENCHANTED你也听听吧
问我周一能看到▁RESULT吗
▁AMEN▁REVENUE这个退税效率是真的高
这门课是▁COOPERATE▁FINANCE有知识的人真的有魅力
现在满脑子里都是▁ATTENTION▁BOYS
几乎所有人入队都是默认▁NEUTRAL的
把▁ENDLESS翻译成层出不穷
陪梦幻走到现在满满都是感动▁TEMPT
没带潘帅特别抱歉后面就很▁DEVOTED
以后再▁REFER我不熟悉的人我就是
喜欢你的长相更喜欢你的演技▁PERISH
完全看得出来▁PRIEST深厚功力
听到▁TEAR▁TEAR我突然抖个机灵
乌寒▁PRISON今天服务了一位年轻的冠军
美国这边的路口有很多▁STOP▁SIGN
▁UNDEFINED网页链接这个必须转发一波
▁SUNLIGHT你的微博还是我给你弄的
有礼貌的▁WELL▁BEHAVED冰冰有礼的
▁WAG最近看这长得奇怪的鞋就特好看
为什么不够▁ABOUT扔到大西洋
忘了漫威把▁JOKER带给你快乐
▁REGULAR▁SEMESTER选的大杀器课业不多才是不正常
点进好友一看▁CAP未挂的还是同卡
▁TUNE多么愤世嫉俗或是色彩多么浓烈
感觉就是凉了明显被塔姆▁COUNTER
▁GET▁MARRIED理想婚车从不多谈顾客以粉钱
可▁NONSENSE的朋友真是喜欢不起来了
学▁LOCK▁HOLE系列游戏的翻译真是渣啊
▁MIGHTY▁SOUL衣服裤子有没有人要了解
为什么说玩电竞的都是屌丝呢▁DEVIATION
▁ROCKBOOK要等到二十五号回学校交
▁UK一个人去取票检票慌慌张张的
创意些好吧微博快成了▁DUSTBIN郁闷
一百八十天表白最▁CLEVER的小仙女
拜托我的是值的不要有▁DEFECT
奔驰▁SMART和野马杰克大叔车已费
依然选择相信我的大概只有▁ZEBRA了
被▁TAX了两年虽然都不过千
▁FAME很正能量新的一天要继续努力
▁PUSH什么时候来天朝开▁FM
一只看▁FATE入魔的剑灵小伙伴
为十二▁HOURS▁COFFEE高冷的颜值吸引
这一期极限真的相当▁GAIN
编乐之后就开始觉得▁HOPE的红▁ZIP太乐了
知道他的▁FLOWER里有你这么傻的吗
本田▁INSIGHT原型车汽车西皮的秒拍视频
论如何在▁FORMAL上一步步偷拍
想起考试的时候经常被说成▁KNOT
看完▁MISS▁SIXTY就觉得其他家衣服都好丑
在十五年的时候还是这么亲瘦▁AND▁BUZZ真美好
好多▁PENSION放的都会持有长租物业啊
继▁T▁F老▁BOYS之后又一偶像男子团体
▁STRAWBERRY草莓▁LOAD满满一车很多工作量
他们的▁BAND▁IMAGE和影像化做得超好
拿着皮鞭格外高兴的▁MISTRESS
▁APPEAL这种东西都要出证明的
之前立过▁FLAG一年时间做完
的单词尾份▁ELEMENT也就是词根
心里总觉得有块塔就是不能▁MOVE▁ON
位于▁RIVER▁VALLEY高级富士公寓整套出租
而是他的副总统▁PINS阴险恶毒
一般▁ACQUIRE的股价都会跌一点
当然▁COIN和▁COKEN还是区别很大的
▁EPISODE司机与车内乘客开车急停
想到了他之前上那个▁TROOP节目的时候
我不想你只会对我说▁FINE
自那时尝试听过他们的▁ANIMAL▁INSTINCT之后
昨晚临睡前好奇之下看眼▁PRIEST的过门
第一时间便推荐给▁COKE
▁INVOLVE建议很多事情与空间
十次▁APPLY▁PAY上海公交卡并不能刷
给▁WINNER一个露脸的综艺
俱乐部会员却没有看▁PLAYROOM笑要看呀
这些费用往往被称为▁CHARGES
到处和人安利恶魔人▁CRY▁BABY
跟着▁CUNNING到了娱乐园太累了
人就是要不停地说▁HELLO又不停地说▁FAREWELL
回忆之所以▁EFFECTS因为回忆里面那些人
终于▁COMPLETE了从去年开始官网就慢的
我哥哥我的▁NICKNAME是旺仔系嘞了解一下
谐星还▁ELEGANT的高冷天鹅
感谢发放音源物品的▁JAM们
看▁THE▁UNIT真的被你是我的给洗脑了
突然摆出一个极其▁SEXUAL的▁PAUSE
蛋糕▁FROSTING采用的是▁CREAM▁CHEESE加无盐黄油
用系统自带的▁WINDOWS▁DEFENDER不担心窃取隐私
可以学学脸书的这个▁FEATURE
好久没见到这么精准的▁ANALOGY
就在刚刚我穿越到了未来执行▁EXECUTE
非常羡慕能大汗淋漓的▁RUNNER啦
单词▁RECYCLE是在分类垃圾桶边上记住的
一场▁VIOLIN四重走近等下半场
我争取在七月前争出加外省出▁TREAT
就喜欢这样的节目就应该多播呢▁DILEGATE
老年人的▁HIP▁FRACTURE一年的死亡率二十一
现在▁VICE上成天营销的那些骇人听闻
二零一七年▁FRENCH▁MONTONA可是声明大噪
孩子又在学校被▁BULLY了
▁LAG▁DAY的酸爽只有练过的人才知道
▁BIKER给大家介绍散导路线
他是谁爱宠大寂命的小白▁SNOWBOY好可爱
绝对的▁AVOIDANCE大概没有相对而言
妞儿陪阿呆一起吃▁PRESCRIPTION▁DIET
最爱每次讲座之后的▁REFRESHMENTS
原因▁VOID就更不用说了要在面罩里
太优秀被人嫉妒的▁MASK饱
中上二零一八年我决定主卖▁UNLOCK的安利
每当读完精彩的▁INDEX书之后
这不是恐怖袭击▁TERRORIST这是▁REBELNER
朋友已经工作了四五年在孩子▁FIND
国内不给提币但海外又搞五十一▁COINS
现在剩下的全都是▁VIEWER
能▁SLEEPOVER到一起的朋友都是亲姐们
把炸酥脆的虾头加米酒放▁BLENDER里打
文化融合好审美全球化共享▁SWEET▁CREATURE
器官芯片▁ORGANS▁ON▁CHIPS是一种人造器官
看到▁DEFEAT就想到农药辣稳住
请从头像迅速锁定▁DAMN▁SINGLE
▁COMBAT什么时候换了新套路
我又要出去滑雪了夏天玩▁PEDAL▁BOARD
那个▁SAUCE的味道太难调了
泡这种不抢茶味的▁SCENTED简直真爱
七▁BIRTHDAY愿望都实现了▁AMBITIOUS加油
▁WEARY活力呢大家的活力在哪里
我得不到奖就全▁BLAME他了
超级充实的四月马上就结束了有点▁QUICKLY
还别着小发家的▁PENSION酱你见过吗
▁SNOWSTORM橙色预警调休有那么困难吗
小伙在▁STEEP里找到了滑雪飞手的快感
在冻结的河川上嬉细的麻雀们▁TO二零零九
张艺兴老师二零六▁TEXT三交作业
减少人数提高价格在世都是▁DELAY
等完成我可能会讨厌画画▁WEDDING▁NEARLY
要和▁SPIDER▁MAN来个千里姻缘一线牵
换年去年▁SC张艺兴▁PITCH的舞台
我妈注册▁QQ号总算遇到两个▁BLOCKER
植物园和好久未见的▁GODDESS玩耍
▁THRIVE▁ON这个词太有活力了吧
他催我把三字稿合并并修改▁POLISH语言
▁MIGO▁CAKE不甜不腻刚刚好
▁SPIN▁OFF的图我要给大拇指
两个老铁送的▁WAXOVER太棒了
定一个▁MINIMUM的小目标应该没问题的
我妹说用保鲜袋防止他的▁BEAUTY▁BLENDER发霉
做阅读使我快乐现在满脑子的▁BUDAGE▁SHORTAGE
加上▁THERMOS▁VACUUM真空保温技术
杀破狼▁PRIEST今年痴心妄想
你跳▁NOBODY真的是我超级喜欢的
依然把▁FINISHER的衣服和奖牌送我留恋
第一次吃▁PUBS很喜欢吃
论文▁REVISE完绝不再打开
终于知道为什么偷落言不偷▁FAKER了
二十四▁HOURS吃饱了人变得爱交情嘛
个人喜欢的霓虹▁LAYER排名
万圣节觉醒时装周上的▁URBERRY尬舞组合
扔出一个▁PERFECT▁SPIRAL是动用了很多肌肉群
等下小脏鞋和▁CHIPS预售还会加一部分
每段时间都梦见的男生▁HANDSOME
没买▁BEAUTY▁BLENDER的就不要买了
▁CHOIR不是跟读段子里面的吗
正如公鸭的▁CHILD'S▁PLAY开始那段爆炸性新闻
确定房间▁OR▁CLEAR都会陷入自我怀疑
英国大学上课主要是▁LECTURES
这个男老师手机里有▁BEGGAR
干人的牛奶被我不小心弄▁PO了之后
▁LOVE▁BANCOCK珠宝女王大人的秒拍视频
其实▁SMOKE那个罐子给你们一个提示
▁OVAL贴片看起来像几十块的玩意儿
觉得熟悉真是▁GOSSIP▁GIRL取景地
发现老美真的是▁TERRIBLE▁SPELLER
资产定价和公司金融太▁FANCY怎么办
原来之前在▁UK的时候他是你的邻居
感觉自己已经走上了▁DEEP▁LEARNING的道路
▁POOL居然在后备箱躺了一晚上
做了一下午▁MAKEUP希望可以当美妆博主
没有了▁SUPERMAN我把自己变成了▁SUPER▁WOMAN
换热器▁HEAT▁EXCHANGER又称惹交换器
▁RECEPTIONIST过来收拾桌子
能老实气我自己会变得老的▁CALM▁DOWN▁OK
跳入▁BLENDER的大坑哇哈哈
其实想做成▁SOUVENIR的钥匙
今年▁CHAMPION怎么那么火哦
拿着自己的照片说▁ANGRY英语没白雪
企业家就是社会的▁ORGANIZER
▁EMERGENCY▁DEPARTMENT想到什么就会遇到什么
算了一下午▁FLUENT最后发现数据给错了
生▁CANCER吃肉多是不好都总不能没有啊
科学家通过计算预言了▁TEA▁CARBON的可能
▁ROAD▁RAGE再好脾气的人也有吧
▁HONEYMOON的原则竟然变成了少走路
易烊切西娇羞版的▁NOBODY
错过了▁BEAST时期也不奢望能收齐了
今天又一个人去上▁CAT▁BOARDING课程
我今已经过小意大利吃到了▁THOUGHT
最后▁CONCLUDE锂电池是突破点
全体女士▁BLACK▁DRESS的长文里
一位冷艳的▁PRINCESS西安革命公园
口罩和▁MASK是不一样的中文更精准
广场上都是▁SKATER▁BOY的天下了
三大同饭▁FRANKLIN东兰雪舞风华▁UN二
找到了之前在▁SENATOR吃的零食
▁REMARK草木出黄路风云铝合开
丑了点不过▁REAL良心山顶▁BEHALF可以看清楚
花房姑娘▁CHAMPION今晚两位老师好可爱哦
两次▁SUBMIT和推荐性邮件送达的时间
▁RAGE有坚定的作者▁AUTUMN
负责人说对待任务要学会▁EXCEED▁EXPECTATION
刻在叫做记忆的▁AIRPLANE上
不可就要的爱上▁TROUT和演歌
重要关头时候一发▁TIMELY时候板凳里的
▁VIOLIN▁CAMP考上了也头疼
第一次得到▁BEST▁SELLER向自己带大的孩子
因为小短子输进而流失了不少▁FOLLOWER
同时也是温柔的龙爸爸▁CAPTAIN龙
嫉妒那些进展良好很▁PROMISING的人
赶上了八百零八▁POKE▁BOSE歇业期间的最后一顿
问店员六刀的▁HAPPY▁MEAL呆着袋鼠吗
之后▁TIMBER火了批书捞了一首振作起来了
晚八点见去加拿大温哥华▁SCIENCE▁COLLEGE的孩子
▁ACADEMIC▁EXERCISES里面收录了一四年之前的所有论文
江南女子表示喜欢▁CHEF有想象力
下午画画完得不太▁MESSY也没有很爱
这张▁P▁PT在墙上待着▁PARTNER抬头心里一惊
还得好好想想先吃哪个▁FINE
来一组▁PUBS搭一切万能的▁PUBS
买了几根▁LED灯管立马就迷幻了起来
坐公交从始至终都在看前面的▁LEAD灯
投票第一的是人气奖我记得的是▁WORD▁PERFORMER
爸爸看到我的▁SCORE打得我▁SORE
各位麻烦▁MELON音源刷起来
▁DIVER许下朴实的愿望实录
早上起床的我们木有看到▁SUNRISE
▁BRONZE我就只推荐酸奶和蔬菜沙拉
能不能圆我一个轻声的▁DUE▁VOYAGEAGE的溯源
多年前在天天向上里唱▁MEMORY的小孩儿
▁NOODLE一般都是米粉制成
梦冲达长沙话对应英语▁DAYDREAM
最近老是幻想着▁GALL和▁RANDY公开恋情
今天六千多低价入了十五枚▁BEAT▁COIN
只是工作而已立场不同▁NOTHING▁PERSONAL
二十七仙人掌打卡错两个▁MORALITY听错好几次
法语心知又写作▁MORTGAGE抵押借款
才发现▁YEARN给我的图没水印
今日份小高兴奈何我没有过▁XY▁EFFORTS
谈起恋爱的确是比较▁PASSIVE▁AGGRESSIVE
刚好▁FINAL场的▁CENTS到了▁INTO也出来了
我在会员成长▁PK中击败想清速▁STROLL
▁VIDEO可爱给她买项圈▁INEQUATORS▁SLEEP的秒拍视频
想说每一季都是和牛逼的▁BASEMENT
期待个人曲目▁FADED
特地买了旧金山的▁TRAM电车
▁MILKY的小狗波比又长大一点啦
今天拿了一个老型的▁WORKMAN在那边听歌
听清楚他是在对我唱▁UMBRELLA我只好白了
直接快进到客户让我▁DEEP▁BRIEF我大脑空空
是不是看到▁REFUSE就觉得人家嫌弃你呀
五十八▁COIN还提供云算地交易
第六是▁DRUG▁USERS遍布全世界
大家都完全符合这个▁THEORY没有例外
装了▁CHIP感觉养了一只超狗
最近超爱吃张量麻辣烫要▁FIGHT▁AGAIN
▁SERIOUSLY有的人真的对别人太严格
手机随意▁LOAD到几年都没听过的歌儿
偶尔▁UNKNOWN的语音飘出来依然那么带感
软件使用的体验真是▁JUST▁SOSO
生活的妙处就朝阳群众目击其罢▁FLOURISH
真的希望你加油▁GRANDMA一定是变成天使
两人之间的▁CHEMISTRY和羁绊
▁DEAL前的人生盼头▁CP二十二和杀破狼实体书
正在测试▁RECOVER恢复聊天记录
它让你进入快车道它让你成为▁PLAYER
国内标牌上将文明翻译为▁CIVILIZATION
达曼人加入中国国旗的尼泊尔人▁TIBET五二
谁让▁POOR▁CHILD这么爱喝水呢
这句认真形容起来不是▁SLOPPY是▁LOOSE
像▁PILOT▁ZEBRA这些日本的笔也都能买到
现场的筒子们还在等胖子乐团▁ONE▁REPUBLIC
▁DEPENDS▁ON这么多情况还能下出定论
带我女儿出门了▁LP的▁TESTER明天上
唯一一首情歌也如此▁NOT▁TYPICAL
你都那么大了不要再吃▁BLANKET
当时克妹看到之后的表情就是▁SERIOUSLY
▁WORKMAN听音乐之声的时候听到他的新歌
鹅脚和两鬓长了很多碎发很好▁KEEP▁GROWING
时刻保持清醒的▁SELF▁AWARENESS
太累▁OUTLINE都没来得及写
长大了都得▁COMPARATIVELY惨
▁NO▁OFFICE国人的数字不是短期有待改观的
也算是看了场▁STAND▁UP▁COMEDY了
被表白的人该是多么的幸福▁ELECTRON
▁RELATIONSHIP▁GIRL想有一个直母大小的瘦身男朋友
老师讲到水泥▁CEMENT的时候说到水门钉
米国▁PRIME牛肉促销人爆满
六个人碰她两个温码女性我▁SHOCK了
有▁MELON账号的▁BUDDY记得去支援
空调房里吃着泡面舒心爽▁SOUR
天生▁READER金南俊生日快乐
但还是非常感谢▁GRAPE而且谨慎点也
我这个▁RA八八的声本真的是
有时看着他们觉得挺幸福的▁INFERENCE
除左▁SPILL同▁SPOIL阿栋哥当年全部传授
最近被▁PROVOKE滤镜古惑了
这样子的人存在就能让我不那么▁UPSET
小时候偷偷又懵的上碗坑了我哥
一次▁TERRIBLE我不是高冷是真不爱说
▁NEW▁HEAD然而已经晒伤了图二可见
重发一下宣传下自己做的▁REACTION▁VIDEO
最重要的一点就是别太▁EMOTIONAL
还是用散装茶▁LOOSE▁TEA这种更传统的方法
▁LAMER真的好贵好贵倒没有其他词可说
十五分钟的富尔加再附一层▁LAMER
二本▁DECAY的宣传于现在这么野了吗
早就应该要在台北开机了不是吗▁LEAKAGE
越来越多的事情变成▁URGENT的了
真的太贵了▁NEXT威尼斯
在▁UNIVERSAL▁STUDIO发现一间特别有趣的肥皂店
只容得下美好的东西比如你▁VIRUS
就是感觉好好看喜欢活力红▁ENERGETIC
▁SPEAK▁EASILY这部电影我认为不行
把美国▁STATE▁TROOP手段总结了一遍
当你▁HOPE我分享了专题咖啡文化
不管怎样都要对生活▁GRATEFUL
我和他同时说▁WILL然后沉默
醒过来怀疑人生整个人都是勺的十八▁ROUND
▁TOFFY▁LOAF泡牛奶特别像枣糕
这个朗朗也是很棒的呢▁ADJOIN
▁WHATEVER随便叫吧爱啥啥吧
其实就▁MINE了三天就赚一万的米
探出小脑袋用现金买▁TOKEN
没事重看▁PARADE▁ACE▁END等于早虐
接受不了和那么多小姐姐▁SHARE
要不能停一停就给我▁COLOR看
看这张图觉得愤怒陈奕迅叫▁LILY▁SUPERMAN
▁LIVELY还是这么好看心中永远的▁S
穿建某▁CAP▁SUIT最糟糕的问题是什么
室友▁SHELL房间已经少了一些房租了啊
一回家就拆开李赫仔▁POSE的海报
都觉得▁PUBLIC▁SPHERE像个文命题
这就是医生跟我说的▁BREATH▁FEEDING包定的感觉吗
真的有点萌萌哒感觉偶可爱的▁FORBID
海关排队的▁LINE可以并排走五个人
被夸▁MODEST是世界上最让人振奋的消息
发现了▁BYPASS海外用户不能在微博
全校停电后的宿舍走廊▁SHELL
▁MOSTLY效果明显是一个不错的产品
不是所有事情都可以▁HANDLE得过来
▁FIRST▁SURFING破天荒的可以站得住
对着大海吃一碗▁SNAKE档口的芝士拉面
▁SADDLE还有使负担的意思
工程英语▁DRY老师令人头大
▁HIP▁SIZE代表堆中元素的数量
后置后觉想要一块▁CP的▁SUNBEAM
想在▁ACCESS桌上偷偷看一把长长
▁LAY星装生小梦旧闻回归全篇
敷面膜用我的▁LAMER看来不能脂肪人了
▁PRINCIPAL▁GRAS无论明天发生什么我永远爱您
今天我就直奔▁PEER看天吹海风
还有那本书太感谢你们▁CARELY
发现这家也是▁TASTE武汉推荐过的
去▁KNEE时的和取十字顾一样的
单词书时起码还能记个▁ABANDON
▁RIOT出事了国服也有这么大▁BUG的时候
给上海阿纳迪酒店设计的▁NAPKIN图案
▁NURSING▁HOUSE胃肠也不是个好去处
但不同于很老派的▁HAMMER▁TOUCH的噪音
看不惯就彼此拉黑▁NOBODY▁CARES
原来五九▁STORE是交大的是真正的粉丝
上班在钱包里找了半天▁BADGE没找到
▁SUPPER狼▁PRIEST我家长子跟紫熙太萌了
要背单词的人刷了一个小时微博▁SHAMEFUL
打远洋电话英国大妈的▁ACCENT增重
伊恩乐与周冬与五二零一起与宇宙相爱▁WESTWARD
今日带我俩带他俩去▁SWIMMING
▁GRAVEL的鞋子很棒的感觉
这个▁CANTEEN超远周五还要特地赶来
好看的人没对象但是你有我们▁AUGUST
真的是很累的一天了吼
▁SERVE▁BY操着台湾口音男服务生
▁DANCER疯起来也睡不得了
从隔壁▁CLOCKWORK发来贺电秦昊▁JEFF明天
一年半之前既▁THIN又叹自己令我发胖
找了个老师给我解读这期的▁CONTENT▁COMPASS
▁BODY▁BUMP完了一趟感觉长出了隐形的翅膀
这轮▁ROTATION老板真是醉了
我来见你们学校的▁PRINCIPAL
直接▁REGISTER就好了用不着▁DO的
▁FBI的搜查行为是一种▁DISGRACE
不错同学聚会一就算了咯我女▁VACUUM
睡到三点回酒店参加个▁INTERVIEW又躺下了
终于把▁DOOM通关了打剩下三个神兽了
汉堡▁HAMBURGER音译是汉堡包
昨天吃了超级好吃的▁MEAT▁UP牛排店
喜欢的人事都应该开始走来把▁REMOVAL
曼联球迷▁CHANT之张嘴就来系列
我觉得中国大饭店会被我们几个▁BLOWN▁UP
▁ELF▁ORGANIZATION是一种特殊的热运动
下午▁MUM电话父母在不远游
▁BOBO大家去听五月天的演唱会
虽然只是网友的▁TRICK但好希望是真的
▁THE▁CROWN第二季倒数第二集严复
面对▁TUNA修士我失控表现得太饥可了
宝贝▁ZOO▁FLY坚持坚持再坚持的秒拍视频
新单不▁SUCK希望有更粗挑单曲撑起来
什么时候人类才会发明出▁DREAM▁RECORDER啊
▁MERIT▁BEST的海瑞影是任人危险靠本事
今天心情好入了一堆▁LAMER
他以▁PEER▁LIST的身份举行的学位音乐会
▁FRY所说最壁纸火的不错
都是在寻找那个恰好的▁SELF▁AWARENESS
陪▁MUMMY去围观了一个露营基地
小熊在电梯里就开始摆▁POSE
现在来一个现代的时候宝宝跳的▁TWIST
▁MIALOG邮件系统产生的日志
我收到两个▁LITTLE收到他们做的▁PEDAL
这季▁HOMELAND又带赶了起来
恭喜小奎成为队歌的舞蹈▁POSE
▁HAPPY▁VIRUS的感染力要笑得跳海了
重难点词汇▁DETECT发现侦查
外传里▁CHASE的复制原体
我终于要开始学科二了有点▁NERVOUS
突然其来的幸福看来▁LOAFER该买下来了
有人推荐美剧排行▁TOP一百啥的
坐在鹏哥的▁MOTORBIKE上按着导航
宠物情人▁DVD版未公开片段
王嘉尔放开我▁BABY▁JACKY来啦
英语课老师点名用▁FEED▁ON造个句
▁SENSATION这个新口味还不错
放在电影▁CONTEXT下才行莫名其妙
一个不回消息不说晚安就▁SALTY的人
▁HAPPY▁BIRTHDAY不知不觉中我们陪伴彼此十一年
句看了的人说和希拉里自传一样▁PAINFUL
▁NATURAL的东西就不应该是个问题
做采访的宁泽涛还是这▁DIESEL微博故事
随便离开曾给了我那么多▁REACTIONS的
▁ILLUSION组赛高今天王五十五周年
最近有点▁OVERREACTED的▁FEEL很耗能量
▁VITAL▁TEA家的沙拉还真挺好吃
又是一天以▁BUS开始以▁HEARTS结束的一天
黑岛结菜▁PRINCIPAL恋爱中的我是女主角
感恩▁MUMMY和▁AUNTIE需跨越两千公里来陪我过年
好幸运能拥有几个十分▁POSITIVE的好友
▁ZOO收入的故事简直让人惊叹
▁TIRED老年人开始手抖了
今天又翘了▁ROLLER的课啊
我可以因此劝自己往▁POSITIVE那段挪一挪
现在的你可能是▁RUBBISH但是朝着五年后
▁MUMMY你的▁CHIN这里是什么东西呀
没有毅力和决心断叶奶的柔弱▁MUMMY
今天又是丑丑大▁HEN想吐槽一下
没有别的▁CAPTION了小龙三也救不了我
刷新住的▁SILICON▁VALLEY片尾曲刷出了我想要
但是不冲突很令人▁SHOCK了
香水就像刚刚▁SHOWER过一般清新
花滑女王一部▁ROMANTIC的电影
不能再发表一些▁VICIOUS的言论了
网站上▁DROP了就算▁WITHDRAW成功了吧
下午▁SNACK都好丰富这边的孩子们
其中还没到▁BINDER已经要爆了
我喜欢▁BUSINESS▁RANK不加任何东西
盼望去▁UPPER▁MANHATAN买了四个回来
我和▁LARCHEN最近的操作都很骚
最后才能与这个城市▁INTRODEPENDENT
跟他提起过▁GUM百货的冰淇淋真好吃
▁FRANKLIN▁SPEAKING第一印象不是很好
真实的可以嗨一整天▁HAWK太中毒了
我也要来个▁COMMON▁SOON我争取每人都来一趴
还有就是忘记加▁ALWAYS▁ONLINE了
深圳这家酿啤酒还真的不错呢▁TAPS
虽然会让我觉得更加▁MISERABLE
顺便现在想想▁EX▁FACTOR很暖啊
知道我们▁BRANCH下个月要关门了
住的▁MANSION电梯偏偏选今天下雨天秋纸
第三个▁BD选择了两人去▁ELEMENT过
▁SLY搞了个蔡文记跟着我
不过搭▁LIFT的时候害怕
航空运动协会活动▁INSPIRE一打伤人
土味小妹出差一天的▁BUDGET
整理下▁GOODS还是喜欢酒宝杯子
看到截图就想补一句▁MEAL
大学的时候用的▁WORKMAN现在还能使
发送两个小视频点一些▁NECESSARY的赞
这个▁SO▁PITY的清晨纠缠了一夜的梦里
在表餐到碰巧打卡▁BLUE▁BOTTLE
说实话等我有钱了立马去买个▁WORKMAN
▁OFF以及今天又花了好多钱我好穷
我真▁BORING现在在吃含料的我很满足
之前买的▁BISCUIT的拼读也不愿意读
与其之夜买醉不如找个▁LISTENER
听到▁THE▁FLASH的主题曲时直接飙泪
刚才红豆玩着玩着突然说▁OVAL
身边突然有穿着▁LAP的陌生人走过
同我调女直个靓仔头去广州▁WET
远远不如黑车的效率▁SCREW▁YOU
一件▁TRENCH▁CODE再来风发一起
下面▁AN▁ESSAY连读也是很厉害
▁OH▁HANDSOME到后来那么那么优秀的一个人
我要变得优秀只为能靠近你▁FITTING▁MYSELF
毕业这天没有想象中的▁EMOTIONAL的大哭
九月之前▁DAYTIME都会降被分成几段
口译▁CONCLUDED学年结束辛苦也开心
微博热收大半夜的就搞了个小▁TRICK
人都是如此自私的▁CREATURE
▁HEN很爱你啦隔着屏幕给你波波
说秀英是▁ACTIVE▁VOLCANO火火山也就是
背景太多人就随便抠了个哦
最近爱买▁FLATS虽然打滑但很好走
每一天我都▁LEARNED▁MORE科技让生活更便捷
在写字楼里有个小▁CANTEEN
我肯定穿着我的▁HOT▁PANTS去辨识了
▁WORLDWIDE▁HANDSOME是全亚洲最符合黄金比例
所以为什么没挑▁SCRUB▁SCOUT至今没弄明白
客户的咨询邮件不能▁FOLDING在一起阅读
失恋原来是这种感觉▁SO▁UPSET
▁BALL▁BALL自己下次提前做准备好吗求你了
还好▁DOWNLOAD了身临其境打发时间
我发表了头条文章▁RECORD
分享深圳▁MODE的博文图片
▁LEMON这首歌也太好听了吧
想要看的在等着关注了▁QUARTERLY
我们大陆的特警▁SWAMP装备不输于他们
认真付出就会有在▁CONFIDENCE▁INTERVAL内回报的日子
教你做又省事又好吃的▁SPAGHETTI
就差件▁UGLY▁SWEATER星期一拍的
已经不是用▁DETACH可以形容了是▁MANSION
▁FARMER小哥是帅地天真版
今天撩到了超可爱的▁SEASON▁BREEDER
▁GRAPES不爱吃奶的四个月侄子
▁ARCH▁ENEMY大下午的看金属公司加班日
▁HUNT辛苦做了几个月的实验数据结果
不同以往▁TF老▁BOYS组合的吐槽模式
▁PRESAGE▁FLOWER一切都是成的错啊
▁DOTA真的是我唯一热爱的游戏
▁BURY了看我刀爷年轻的时候的照片
就要离开你了我的挚爱▁BEANS
买新卡准备▁TRANSFER▁NUMBER发现新卡尾数是三二七
和一个▁GOOD▁LISTENER共进晚餐就不想糟糕试
丽儿茶杯泰迪每天都犯困的▁BUBBLE
我来展示一下我的新▁GLASSES
三色限定是人生最高▁CALM
▁OR一二三乘两半儿用一半买油一半买吃的
▁PRIEST哪有那么多本书我看哪个
又可爱想寝室养一个▁DOOM了
又一次夸▁DREAMING三两九的修图真的超级棒
猜▁GIRL▁CRUSH那些青骨赢了吧
垃圾还可以重新利用▁RECYCLE
甚至在▁FATE建立就已经很明显了
只要一张▁PUFF▁PASTY就可以做了
这是最好的爱情观深情而不纠缠▁PETROL
对邵佐和▁VIOLATE的感情产生了一丝怀疑
之后就被各种各样的▁TRIVIAL打断了
在经纪公司发布新专辑▁CONCEPT预告片
▁PLATE这个单词比较难听出来
买的这款就是▁TOTALLY▁GORE雪糕
说白了就是不够▁GROUNDED很飘
把我同学拉到洗衣房疯狂▁COMPLAIN
依旧是一七年春款的这件▁ADD▁HARDY
为什么▁PIT发不了朋友圈视频
原来是被生活狠狠的▁TRICK了
刚跟大家说我最近▁HOURS好很多
一起沿车路虎▁DEFENDER的黑色诱惑
据说▁CHEF曾经效力于超五星级酒店
一个不涉及自己的对他更好的▁SOLUTION
▁AGENCY说好给我配齐八个保镖的
最近的▁ARGUMENT弄得我头都大了
剩下六小时如何安排呢去教堂都▁WORSHIP如何
沉迷▁LAYER的舞蹈形式
躺着玩手机的样子什么都▁LISTEN不进去
韩国老师的▁PROPOSE是用翻译软件翻译的
▁LAB所有的事情都是给我自己做的
感谢▁LION▁SOB▁DARKER太芳音期待新剧开拍
今天去看了▁DENTIST了同整室的阿姨
▁ALARM这是什么电影感觉不错
像▁BEGGAR一样的真是有点招人闲呢
只有妈妈更懂妈妈妈妈我爱你▁SERPENT
关于▁SURRENDER今天突然觉得就是▁JT叔叔说的
我相信你一定会走远的▁STRESSED▁OUT
发现当一个▁LEADER比当一个▁FOLLOWER难多了
雅伯威分享与久有关酒鬼的▁HEAVY▁DRINKER
想要游客里LY▁UNDEFINED网页链接
这个小男孩真好看给变鹤▁HAIR▁STYLE打▁CALL
▁SANDY在我们心中只有四岁
采访时一直把小闪叫▁SPIDER▁MAN
我的另一半在何方啊▁BROADEN
天这期▁LOOKS你唱真的太好听了
我也是有▁THE▁PENINSULA会员的人了
▁MEDAL攻略网页链接发现一篇攻略指南
今天早上去▁INFORMATION▁DESK居然找回来了
人设图就喜欢上了的▁WWW确切来讲
虽然是▁FAKER的图但你们相信我
心心念念心心念念终于喝到▁FILTER的▁COFFEE
可不要错过今天这么表白的日子▁DIAMETER
清清爽爽地坐在电脑前继续写▁RESULTS
约到一只忙碌的上班少女▁FAIRY▁PENGUIN
太懒惰会不会是慢性▁DYING
▁MUTE▁ALL可以屏蔽所有人的消息
有▁MENTAL▁PROBLEM的人的比例感觉比较高
杀破狼▁PRIEST他本以为离别如水
我看到了这个亮相也是好开心▁GUNPOWDER
最担心觉得最难的▁STRATEGY竟然考了八十分
想要长假前我们的户外活动▁MUMMY周三打卡
▁THE▁ORDINARY感觉真的是评价好物
文章无数一天只工作半天还▁STRESSED
还会有些许▁DEFENCE我想这也许是自己
现在是不是还不可以交换一百万▁DOLLAR的▁SERVANT
但是还是要▁FRANKLY▁SPEAKING这个系列真心色差大
除了花木兰都很▁CHARMING了
奔赴支教的路上离着▁SHABBY车穿上的水
我堂堂南美一哥▁PUG谁▁SHOULDERS
真是舍不得错过和他们▁INTERACT的每一刻
下午上▁ACCESS很快就做完了课堂作业
▁CLEVERLY无疑会是最大受害者
每人都相信这解费是入耳以外的那个▁EXCEPTION
黄渤竟然是如此给力▁CORNERIST
这个▁TIP真是好看过其他
终于穿上了我的▁RECITAL▁DRESS
▁BOW▁BOW我自己一定要坚持
不过▁RECEPTION上搜刮了一大堆东西
这就是她值得我们爱的理由▁LOVE▁HER
现在很少有人会有这样的观念▁CONCEAL
我也觉得▁LANDING去中戏是很好的选择
胡歌加油▁BE▁POSITIVE坚持住请加油
真的希望生活中能多一些▁GOOD▁LISTENER
很多都是幸存者命物▁BE▁CAREFUL
卧室的月租是八四零一个月包括▁HEATING和水费
比较可怕的是这种文化的▁SUBTLE▁INFLUENCE
麻烦卖一套吧豪华版▁SET
纪念用▁SKETCHBOOK以来第一张能看的草图
睡个觉的功夫肯定不会定▁UPPER▁HOUSE最大套
冰冻水果然后用▁BLENDER打成冻渣加▁TOP
难过听不到张韶涵的▁FAILURE
似乎这位▁ROCK▁BALANCER在做的只是去相信
今晚蹦迪的朋友们他喊▁SCREAM
为什么都不管用▁SOAP▁PAINFUL
▁OVER贴片看起真的像计时块
▁EMBASSY楼上这家天空花园酒吧餐厅挺美
一边看▁TAKELICK一边涂只加更惬意
做带嫂自沉迷吃激和我的▁ACTION
美好的一天才刚刚开始偷偷▁LOOK
这些人的▁INFER能力也是最
老公性格也不错能用得起▁LAMER
去▁FOOD▁REPUBLIC吃就行还靠近洗手间
只是想大腿和屁股的▁FORM一丢丢
反思了一下自己的课题直白点说▁IT▁SUCKS
听到定位词▁FACTORS知道第二题要开始了
新与旧的碰撞与混合感▁CULTURE▁SHOCK
歌手张韶涵好想听▁FADED
口译考试出来问▁CIVIL▁WAR是啥
这样才能表达出我对▁HOT▁POT的热爱
根本放不下▁CRUELBA杯的盛世美颜
这期明星大真太▁FARMER真是太好看了
别说▁HEADLINE每一句话都得斟酌
既不是▁DIALOG又不是填空题
每天都只能看到冰冷冷的▁BEST▁REGARDS
万一哪天钱攒够了心中有一个▁JEEP梦
居然本地人不知刚煮几个来左▁DASH
▁FAST四▁WORLD北京八达岭你值得拥有
我可能是这个世界上最▁RANDOM的海尔粉
六博▁PRIEST先这样吧干不动了睡觉去
我要▁CHEF的冰箱烤箱汉斯格雅高怡
深夜研究▁SMALL▁ELECTRICALS
比如一直以为是喜▁WONDER
今日份尴尬与报销被我的▁GOSSIP▁BOYFRIEND抢包
开始读的时候满篇的▁EXPLOIT一脸懵
其▁MOLECULES是连结在其他的蛋白质上
中文授课简直幸福死我▁EXCHANGE
希望各位▁QUIZ可以给我提供更多演艺
进化论▁FITTEST不是你聪不聪明见不见壮
今天一看窗外就想睡觉▁EMOTION
大家一起▁SAVE▁LIVES真的好啊
▁FOR▁EXAMPLE我今天又荒废了一天的光阴
不过▁SPIN这个词要是用到政治上
来自▁SNORE懒散闲事的意思
不好意思我帮你推荐其他▁PART▁TIME▁DESIGNER好不好
这些自大傲慢又粗鲁的▁CREATURE愤怒
老公第一次玩▁PEDAL▁BIRD没有掉水里
居然要▁SUBSCRIBE才能读还好学校图书馆有
这作业看了一个单词▁GLANCE
不要轻易地相信▁ANYONE给自己留后路
我的第二场▁GOLF▁GAME昆明会不会有下一次
队友进了他没进那个纪录星在看▁BAT
每晚刷▁UNNATURAL导致午夜梦都是三日事件
但是考虑▁LOW▁PERFORMER总有各种各样的
▁WHATEVER只要自拍美美的就够了
终于回到了寝室开始挑灯夜战▁BIO▁CALCULUS
▁HAIRCUT一个香菇让大家乐意乐
▁CUSTOMIZE只因为你▁CUSTOMIZE克制的秒拍
剪开用了很久的▁BEAUTY▁BLENDER里面其实还挺好
一个十分作作的▁PICNIC预警
这就是为什么我如此喜欢▁SPIDER▁MAN
默契度▁UP了不少▁LEFTY负责存钱给歌词花
发现所有▁EQUATION插件公式和结果全没有
孩子天生与母亲的▁BOND
但是同时脑子里也还在想着▁CHINA▁REFORM
回家生活无限▁SWAY秦安上河桥
▁BASICLY电影配上亚历山大德普拉的配乐
在周四▁PAY▁DAY忙碌工作之后
周六在武邦▁AMPHI▁THEATRE开展的单独▁EVENT
反复跟▁WORKMAN说网线要接在无线路由▁WAN口
又跌倒再次跌去▁WRECK很多人都看到
在公交车上听林肯的▁CRAWLING
今天是▁TRULY所以要早睡觉哦
看到我对可爱多比的▁PEACE▁SIGN了吗
还有四件课和▁BUTTERS小笨蛋三次原版
读研究生时的学院学弟打来▁TELEPHONE▁CAMPAIGN
亚洲▁DIVVE▁YOU的餐厅酒廊超级美泰国
长得倒挺像很拉轰袜力挺一下的▁EASTWARD
但还是错过了或许是▁MISTAKE
▁TOKEN通缩属性就不断加剧和恶化
公司邮件能有▁DISLIKE的就更好了
在站里面直接分配个▁SUAN
讨论怎么让▁ARGUMENT更有说服力
抹一点儿就能把▁BLENDER洗干净
类似的▁ARGUMENT还有宽于律举言以待人
我不要深刻只要俗气的▁HAPPY▁ENDINGS
划一座▁HAND▁RELEASE▁PUSHUP的小姐姐是拖
想听张韶涵唱歌曲▁FADED
虽然是▁PAMPHULATE还差不多但它是英汉对照
刚发了一个过期的音乐剧▁PIANIST面试
我的天▁CUBE的男团真的牛逼
▁CHEAT▁DAY早上吃了两百大卡开始跑步
人鱼的建模和杨楠还有▁PALE▁MAN如出一辙
重庆的▁ZOO▁COFFEE坐着把奶刺的舞台再刷
想要阿平同款母民和阿平设计款▁CHAMPION
修改的▁PATCH都亲自写好了
这家的▁SCORN是英国最好吃的
中午我们去▁SOUVENIR他做了哪手好菜
就是在讲刚刚的视频吧▁CONCEPT什么的
▁SOUTH▁GATE▁TOWN二一楼两室一厅招室友啦
我们围绕理想国讨论什么是▁MARRIAGE
不想再管▁RECYCLE的事情了
世上无难事只要肯放弃▁SALTY▁FISH
很有▁ARTISTIC▁FEEL的图案你的名字颜色
▁RUST到手了可以带着出去玩了
都是在给受众传递一种▁BELIEF
期待力量和▁RELIABLE真的是脱离规律
▁FARMER刚开始不知道这个单词什么意思
把▁BANDAGE看成了▁BONDAGE我是不是没救了
▁FAREWELL德国法兰克福国际机场
先用新欢做一杯▁OLD▁FASHIONED
运动完后忽然想吃▁STIR▁FRY
你是不会▁INVOLVE以外的词吗
另外那结尾的确有够▁AWFUL
下乡打卡可能是▁FALSE了吧
▁TOTALLY该写什么▁D▁D▁L扎堆的时候不想做
我这个▁QUARTER真的很会选
一曲唱吧点亮心海▁RESPECT
准备加入▁GREEK▁LIFE的各位擦亮眼睛
▁INTERNAL▁FLAME这个站子太优秀了
本句中▁OBLIGE是个及物动词
我希望每天都能▁COME▁ACROSS
多灾多烂的▁LOCKBOOK家里三台打印机罢工
▁FRED▁EGG四十米大道的专辑封面好难摆拍
证明我还有一丁丁的▁LAYER意识
▁ELECTRON▁DONATING▁GROUPS电子捐赠集团觉得有点霸道感觉
自认对每一位▁CUSTOMER都是十分友好客气
▁CABINET▁COFFEE原来我没有发微博
司机问他需要多少钱说了一句▁BY▁METER
在船上的伙食是用木板做的▁CHEAP
▁BRIGHT▁DAY看起来一切都是那么美好
法式面包外酥理嫩涂一层▁SAUCE
中国人叫黑豹老外叫的是▁BLACK▁TITLE
今晚算起最后十个日夜赶▁DUE
停过所有▁TURBULENT的时期暗暗的希望明年见
生活品质对我来说不是▁LAMER▁C▁P▁B的选择
之前被▁INWARD杀的那叫一个惨
不吃一次▁FOUNDING▁FARMER的鸡肉派就浑身难受
原本想今晚上把肿瘤弄完以后被▁UNITE▁TEN
▁VOLTAGE为了研究流失速度捉急的玩家
我们经常在视频里取笑▁BUTTERS
运动不够一小时▁WOODEN二五出错率低了点
▁DAT▁W我在三个不同的▁DIVORCE上存了同一张图
你怎么知道我要毕业了来给我送▁DIPLOMA
想念那顿吃出天价的小龙虾▁FAREWELL▁LOUNGE
随手拦的出租越来越▁DIVERSE
▁MARK一下要吃三场▁FORMAL的下一周
我和▁RAGE成了亲友一起见证我们友谊
我思考的人生是想对▁IMAGINARY▁YOU说的话
▁STOP▁VIOLENCE向性别暴力说不
跟广播站的你们在一起真的▁REALLY开心
视频▁LOGO我录的我们一起▁VERIFIED
想起在国内吃过很多超大型的▁SHRIMP
不能否认的金钟人真的是天生的▁PERFORMER
很多▁CHEESE和很多▁SAUCE的汉堡
想熬到比元月底上主页再奋战▁WAX
猪狗不如的五月正在路上▁FIGHT
▁STEAM▁PRESS终于白金了整个故事献迷团重重
无奈之下▁DROPPED了一门课钱也没了
但还是想用▁ALL代表色来试试
樱花暑假▁PINGNIC的感觉真好
顺便推一下▁HONEYMOON小姐妹们可以试一试
▁REDUCE▁WEIGHT这甩也甩不掉的胖基因
人又高又帅真的超级完美▁SCATTER
▁T▁ERA和▁QUEENS永远是一家人我们都信任对方
其他零部件可以▁RECYCLE电池不能
发表了博文▁HIVE安装配置失败
每期一问▁CARTER什么时候滚
▁COMEMILL▁FORTNIGHT法国老牌皮具世家
上映的时候会陪着宝宝一起去看▁DELEGATE
▁SEA▁SHOT传说中男朋友的味道
要价钱没价钱要▁TEST没▁TEST
▁PIPE接口对其进行炼石加工处理
期待向往的生活▁TO和▁BEGIN▁AGAIN▁TO大发
梦到和不小的第几位▁BROKE▁UP的又在吵架
越像一个▁DEVIL极力控制自己
太久没吃鲜奶酪做了点▁FARMERS▁CHEESE解馋
还要去健身房做▁RECOVERY▁PROGRAM掉了好几斤鸡肉
遗憾的是没有唱第二首歌▁FADED
但最近看▁PRIEST的流光十五年
就一定会给你更好的▁FIGHTING
美国俚语▁HOOKIE逃学的意思
打清早的被杨洋的笑容甜醒来▁ICON
就一个▁SHORTCUT突然想不起来了
冷吧▁ACTION终究有一天你会发现我▁DEAR
▁JUMP▁SCARE让我死古董旅店二再见
▁SOCIAL▁ABILITY是短板现实情况要▁PUSH自己表达交流
按照▁INDEX位置相加然后画画
给两瓶细胞换液分装了▁CELL▁TIGHTER
在心里谢谢川杰兄弟▁SINCERELY祝虔程四井
曾经说有▁CHEMISTRY抱着图片视频尖叫
没有▁EXCEPTION的一周简直大发加油
晚上的▁DINNER中午开始准备太▁SELF▁CONSCIOUS
大学是做整容院我才知道的啊▁GEOLOGY
两人都是▁MORAL▁OUTLAW奇怪示好也如出一辙
这么小离舞台这么近可惜我是▁STAND啊
马思纯一切都那么美好▁FULFIL
看到直播的回放了也看到▁HONEYS的截图
体验过在非洲原住民没有空调的▁HOMES
加完班回来看到▁CROW小天使
吃素三个月两个月减重二十▁POUNDS
就是要先来这里关注起来去的▁GENERATE
▁JERK每个晚上就突然又很有良知
没有伦敦地铁那种鼓古怪怪的▁BRUNCH
但是很快也要和你说再见了▁MY▁HOMELAND
可是出去真的就变成了行走中的▁AIR▁CLEANER
躺着的我跟着▁ZEBRA的节奏一起默念
还有几天要考试了才第一次看▁P的▁HAND▁OUT
我们上▁BODY▁COMBAT上肢他说比我强
这部剧很有吸引力我太喜欢了▁STEADILY
看到提高第一反应永远是▁IMPROVE▁PROMOTE不说了
日本▁DROP▁AROUND几何图形便利贴
▁MUTE家的贴纸最最意外的好看
我不想说▁CASH和▁MTT哪个是赌博
足球术语和常见词▁OVERLAP
那个人是我给位的▁HUSBAND
我也会一起来关注▁MINIMIZE
每个▁DETAIL不管好的坏的
好久没听▁SPHERE的广播还是很吵呢
不是自己的错把责任往身上揽▁WAS▁UP
康乃馨都表达不了我对你的爱▁MUM
神什么神秘组织▁GARAGE版的怎么能不加我
担心的事情还发发生了别欺负▁PARTTIME学生
直播唱死了都要爱这个▁FLAG
但小银子这个奇葩有的是▁IMAGINARY▁CHILDREN
周六名师之路最近的我还真是▁BUSY
最后一分是▁MONITOR回放蒸回来的
▁MAC的▁WAR今天又拿出来试了一下
中午饭▁SHOCK我最爱的其实是因公盖
立个▁FLAG清明做一个流体分析
初次的▁UNIT项目将会是从未见过的
更多健身男的世界在▁ANALOGY
每次都去打卡▁BLUE▁BOTTLE在东京好几家分店
忠实的伙伴▁JEEP期待你带我走得更远
突然和室友聊到▁LEG的英文发音
感谢帮助我▁MOVE▁ON的你们
未来击倒选择一条▁LESS▁TRAVEL的路
▁SOLA还有黄智烈挖哥为天天感到忧伤
听说这种肉店的猫都很粘人▁I▁AGREE
义和堂没照满而且三观还不正▁FAREWELL
今天背了一个单词▁PROVOKE
▁POSITIVE▁THINGS母亲给我买了爆汗服
录了一天▁FACTS说的口干舌燥
开始看北欧神话的我用▁CUNNING形容▁LUCKY
刷朋友的▁VISA卡买周边的我
莫甘娜▁COUNTER妖姬寡妇▁COUNTER露露
骂爪子是▁LOCUST锅果是▁CRICKET
两个人一起▁NEGATIVE也挺好的
想听张韶涵唱▁FADED不开心
我不想大牛的研究我要自己做▁PIONEER
我想去一个陌生的城市▁ANYWHERE
▁MISS▁DEVIL木村加奶都不能阻止器具
▁COLD▁TURKEY可以当名词或者副词
恭喜恭喜希望永远幸福快乐▁ADJOIN
为啥总有人这么▁MEAN说话都是祈使句
去▁COMPETE搜罗那些进入社会的年轻人
▁DEEP▁DISHED▁PIZZA超好吃的果仁爆米花
原来▁MODERN坏了感觉好久没上网了
▁TORCH现在结果出来转氨酶烧偏高
今天推▁PRIEST的莫睹童年
只要想到▁GENIUS▁IDEA我就能迈入得人的大门
上英语课有一个▁SECTION是拍卖
有些人是▁SUPER▁HERO和▁SUPERMAN分不开吗
最近修炼▁CONVICT▁CONDITIONING效果明显
面对今天高甜度的首页▁TOTALLY无心工作
看见我拍照就自觉起立摆▁POSE
熬过七月这个▁QUARTER我就自由了
就是科幻作品中那些▁WICKED的公司
操场上谁给我们信心▁FEVER们
希望保持热情工作生活▁BOSS
没有最近喜欢▁SPAGHETTI嘿嘿
参加了真正的▁BRAIN▁FREE下周就开始了
▁ZERO▁BASE狮子在生产中产生的废弃物
早晨真的▁RECHEPE崭新的一天
我相信有朝一日▁WINNER会达成电台节目
小妹出差一天的▁BUTCH还不够吃碗面
在洛杉矶二十二度的风里吃着▁ICE▁CREAM
▁HUMBLE▁BUNDLE怎么注册帐号
▁RESPECT现在小朋友都那么厉害的吗
元宵节画的画我的英文名既有叫▁FLAME
找别的手机▁FAN墙我的手机不能有这
再一次很认真的考虑要不要放弃▁CALCULUS
无懈可击我扔两份▁HANDOUT强基
还记心喜欢着▁AMUSE的大家真是太好了
▁JASON▁COAT不许穿球鞋穿了扣钱
好久没和小孙出去了▁POKE▁IN被二期
围攻关于奇美拉行动▁OUTBREAK
像是被小丑控制的孩子▁FLOAT▁FLOAT
去转转去欣赏大自然▁RAILROAD
▁LEGEND跟少时同一时期打歌过
和书友▁NOWHERE复联的一天很高兴
因为我的苹果没切块坐地下▁TEAR
之前听波兰吉他少年的▁THOUGHT
我给出最大的▁RESPECT就是放下手机
真是各种好玩又有梗好用心的▁PRODUCER
我们家都跟着国际化的▁INTERVIEW了
▁WEEKLY困倦和感冒中挣扎的一周
▁UNDEFINED请打传办的整治通讯运营商
▁APPLE▁PEN四舍五入就是一个数位屏
▁MEADOW巨好完了车队刚壮大就掉线了
学走路上还是推荐▁MICKY▁HOUSE和▁FAMILIAR两个牌子
真正体会到了什么叫▁FAREWELL
▁BURY宝宝的脸真的太好玩了
天文台真的不错▁VIEW很好
李宇春小姐姐和▁POLLY都好酷
▁NEGATIVE的想法什么时候才会消去
▁BURIAL刷遍了无数遍再看还是感动得想哭
出演男主角并成为性感象征▁SEX▁SYMBOL
先来关注了个网红剧▁STEER
走路走步危机没打多不会是▁BRAIN▁TUMA
我更想念坡县的▁CURRY▁SAUCE有大瓶装没买过
快睡着前感受到▁SCAR过来在我身上踩
我们的▁SIN的代价太高
第二次清唱给女儿的歌▁PRECIOUS
中国第一个▁MAJOR冠军幻神时代终结
无疑是社会上的著重生活中的▁RUBBISH
在现实中找一个人帮你▁REFER一家公司
你对一个人的▁MORALITY产生了质疑
清点翻书啊你身上的▁SMELL都吹过来了
为什么▁OUTLINE写了半个多小时
平均每两天完成一篇▁LOGBOOK内容
听不到▁FAEDIT难受金曲奖不是阿刁的么
见到了每天朝思暮想的▁TUNA
用▁NIKI的三乳的最好看的妆
我现在要开始写▁ACADEMIC▁WRITING了想想你哥哥吧
分别用▁F▁TEST测试▁SIGNIFICANCE
西泡泡战队每个▁DANCER我都很喜欢啊
成功把我的▁BEAUTY▁BLENDER搁置发霉了
这个地方▁DECADE上好像见过
英语▁EDUCATION采访周六推送
给你的盛势每年打个▁CALL测研完报▁ANYONE
就写了个▁OUTLINE已经是条废鱼了
有次做阅读碰▁INTIMATE亲密这个词
场上球迷在用小号吹披头士的▁YELLOW▁SUBMARINE
喜欢下面的▁DARK栏和新的控制中心
使用▁LINK和▁IMPORT有什么区别
当时▁TIMBER也是残婆最受最美的时期
一二七螺口▁LED超亮节能灯泡五支装
我去了你微博上发的地方一千二百▁BOOKSHOP
成功收获了录取还有▁FUND呢
我是指引你的▁BOSS我是操纵你的▁PLAYER
这是▁MORTAL最让我感动的歌儿
置办了一双要等三个月的手工▁LOAFER
把▁DOME放桌上玩回手机结果玩忘了
然后立马被▁FIRED很无奈
我们公司圣诞节前聚餐要求穿▁UGLY▁SWEATER
百分之七十当我▁MEDITATE的时候都会睡着
可爱的▁THOUGHT年会虽然没中奖有点委屈
男主掏出硬币看到▁EXTRA▁KNIFE的时候
希望他们赶紧离开我们宿舍▁BOBO了
立个▁FLAG我真的受打击了
▁MONUMENT直接翻译成古典赛或者经典赛
重置▁INTERNET设置禁止加载项
加拿大人民有多▁FRIENDLY呢
▁HAT▁TRICK蘑菇尽载让我疯狂
过了▁MUSIC▁LEADING高兴地跳起来尖叫
懂得尊重别人的喜好与▁DISLIKES
公司▁CAFETERIA供应超好吃的▁FULL
原来他不是人啊是▁SERVANT
那天风很大正好适合▁CAT▁SURFING
可能这是上天派来▁DISTRACT我的一场美梦
每次都能被这个▁SHRINK惊艳到
▁COOKING▁CRIES好玩到停不下来
我也是想着看看这个果儿演的呀▁DESOLATE
▁SUPPOSE是我理解错了再看第二行
▁LINUX使用命令▁LOCATE快速查找文件
离地地道道▁LOCAL▁FORMAL差了十万八千里
▁ROCKET很欣慰看这样强大的火箭总冠军
生日希望可以再爱我▁MARCH▁MARCH
同学在公司升职到▁ASSOCIATE还会被▁RELOCATE去香港
日本人十岁小孩就能有▁VISA了
▁LEGAL▁HIRE▁TWO一集中有个角色看起来脸熟
一家正经拍照的店▁BANANAS系列
接档▁LAYER希望大红瓶不会过敏
干嘛说人家那样做▁DISTRICTING啊
▁SUBMIT点击后突然忘记了这些日子
不喜欢▁STALKS这样的稀释料理
我才发现▁DANGEROUS▁WOMAN这张专辑这么好听
▁PERMANENTLY▁CLOSED这种萌城感到有点点难过
每个人心中都有一辆▁JEEP所以我换了
现在是同时▁HANDLE三个游戏的你
今天也努力向▁SEA▁GALL靠齐
▁TEACHER按规定周六补周一的课
空气里有名字叫做▁BRIGHT的滤镜
还有▁CABINETS要等下星期了
▁VAIN感抢俺的唐叔还在不
有个▁APPEAL南安语言挂掉的学生
收纳空完▁DON'T▁STARVE是这样的
其实▁THE▁SEAM也真是性价比超级高
我们没想这事完全是胡编乱照▁TOTAL▁RUBBISH
▁NUCLEAR▁AD界原子核的原子仁的
▁OBJECT▁LITERAL里的函数可以简写
杀破狼▁PRIEST一条长求平价简体杀破狼
不会在▁INVOLVE进讨论跳槽的话题了
自己最近变得有些▁TOUGH
充值爱奇艺会员他会▁REMIND我省气广告
不过▁MEDICINE的歌词不得不叫粉丝们敏感
▁NO▁OFFENCE但是我是我真的要笑死了
社区最近在清理一些▁OBSOLETE的▁PROJECTS
▁WHENEVER和公主鹿平今天的阿金表现很好
开了把▁SCAR这个还挺帅的
哈根达斯的这个▁CREAM▁CRISP好吃
▁ARROW讲的比我历史老师好太多了
看到一个评论说可可叫▁SHELL
▁MEADOWDAL是一只目标新城大海的制基
两个人在一起是磁场性▁MAGNETISM吧
今晚听了红装还有▁EMOTION想念肚皮舞
在脑内把▁WESTWARD▁MOVEMENT对应成了西部大开发
伦敦的黑色出租车正式名字叫▁HEGNE▁CARRIAGES
在亚马逊买了四▁PACK的耳机
▁BLUE▁FROG作为一家鸡尾酒不错的连锁酒吧
因为系统跟乱码也忘了怎么调▁OVERLAP
当老师的▁INSIGHT是完全不同的很受益了
▁SERVANT到▁HENCHMAN已经算是一个进步了
可以搞个亲奇▁SCRAMBLE等▁PHD毕业去
少一个小星星没有▁FLASH了
比自己厉害的大有人在还是▁GENIE▁PASS▁ALONG
回忆欧洲农业发展加▁PRINTING加▁BIRDS
快来陪我好喜欢你▁EXPRESSLY
正好看到▁LIBERATE这个词啊
终于抓到了心心念念的▁MY▁MELODY
大学第一个学位是▁BACHELOR
今天的视觉也是▁NOT▁TYPICAL夹缝中求生存
源于一个会议没▁INVOLVE某个人参加
这位▁PRODUCER伤的一句话扎心了
▁VICINITY的橙子大规模取关又开始啦
想要看的人很多的▁BORTU里
反▁COUNSEL公真系好好吞▁PORT回忆路
大理石和▁NAKED的眼影盘真的很美
没耳朵的又不正经的▁SNOWMAN
因▁AT舌洞打发奶油小达人柚子▁GRAPE
▁LOW▁LOW一个人独立完成的军舰
第二条彩虹桥累死人紫色▁TOUR的太难打
记忆力好差早上刚学▁DRESS▁CODE啥意思
五点醒感觉已经是▁HUGE▁PROGRESS
▁LASER▁FANS和武汉大学校长窦贤康院士
我家最帅的许杰猫镜▁UPROAR
▁ACT代表国内公链期待来波独立行情
今天收到你▁AFTER▁OPERATION的照片
我跟他并不是很熟▁SOMEHOW很想回一封信
这么多年都是▁BACHELOR▁LIFESTYLE有归属了
庞大的债务融资依靠▁AIM▁RESERVE回流
现在却打不开一包▁NUTS
工作日我们去上学他去▁DAYCARE
死工资不想做▁CREATIVE▁JOB又应付不来
第一次在国内旅游景区看到▁UNIT▁SEX▁TOILET
▁PROCESS导致订单被客户取消
打开了小胡丸的香皂刀剑乱无▁ONLINE
歌手每一位被镜头▁TAKE到的观众
抽出一天时间飞艇了四十余套▁LOCK
没变成自己喜欢的样子▁MAID丢个彻底
妈妈给我买了一件▁REAL▁TIBETTON的袄子
鼓不起勇气开始工作我真的▁TOTALLY▁FEEL
不是看在▁WORKMATE上我早怼过去了
资生堂一百块钱▁INTEGRATE粉霜完美▁STAY
宋小军的这部小说太棒了▁SOLY
迷上了话小卡通第一张起名叫▁CIA▁AIRCRAFT
最近长智齿▁TOOTHIC脸也带了一个▁SIZE
杨哥又温柔又帅气超级▁GENTLE
英语语法副词▁ALMOST▁NEARLY常用副词的用法
而且你不适合那么▁ACTIVE的人
越看就又觉得▁DARKER仿佛是正义的
想▁SCRAMBLE想得厉害网页连接
对美的追求转而▁WORSHIP印分钱都不会分
当年▁D给出的▁TUBR如今差不多也该出新的
涂了等于没图的▁SEE▁SHEER可兰出来运了
掏出▁BADGE要打折面对的是胡怡的眼神
不知道男主▁DAILY里的二小姐指的是谁
最后一张▁REEL会在这周五放出
你和我说▁VACUUM▁CLEANER是洗衣机
最后几组动作不用换地方不用找▁CABLE
英雄联盟里还有叫▁FAKER的吗
四二零改的▁FORGER原装位卸压法
我那个▁BAMBOO板子驱动刷机后安装不上
▁SNAIL抓住夏天的尾巴再清凉一下
▁MATT制作的制天使完成
所有的▁BAD▁ROMANCE都追不上我
斯塔克伯格模型也算是▁BEST▁RESPONSE
在▁BOOK▁STORE看书准备月底的考试
身份的英文▁IDENTITY一些理论领域已认同
迎接我的冰大小帅哥▁TENANT的▁SKYPE
因为没有▁COST合适的蓝卡亲啊
脑海里的样子希望是▁MANGO▁IN未来的样子
这个▁DUKE养老养成劳病了
▁BILL▁GRADE▁ZOO真的很好逛动物非常多
▁FAT五月你好放马过来吧
学▁DROPS三个月没训练跳得又丑又僵硬
徐先生▁VAST介绍晕倒老人已经七十四岁了
敏感问题▁CUBE应该没什么大事儿
有了这款汽车▁HOMERIDER就不用再担心堵车
我至少三个▁QUARTER没喝过棒棒糖了
这首▁MELT的念法和大家不一样
人活一次总要体验一下美式中餐▁PLATE
▁BUTTY普通人不能以天才的方式生存
有点混乱最近出的▁COLDLY▁REPORT
只限于到立下▁FLAG这里了
没听到你精心准备的▁FADED
和▁SAVING▁GIRL去看她的最爱
▁MOVIE的效果▁BAD不是他的错
才知道这个是怎么回事去了▁GRAZE
似乎是一个无限▁RECONTRACTING的过程
一首好听的歌是萧敬腾的▁MARRY▁ME
要等待着七年才能再看到完整的▁INFINITE
女生唱电影神曲▁FADED好听极了
艾薇尔唱的▁COMPLICATED
买▁NAME好贵昨天做了超声刀
应该是▁BARGAIN中的战斗机了很趁
使用▁STAGES功率计领跑总成绩第一名
特朗普在一九七五年的时候口音绝对是▁UPPER▁CLASS的
这其实才是真爱粉最爱的▁VANULA
拍照怎么沦落成这种▁STUPID地步
穿着▁HOSPITAL▁GUN要冷成狗了啊
早上拎出来的时候发现是▁THIRSTY懵了
送给▁D▁RANDOM一位一本时间简史吧
美帝奇怪▁STICK▁SAUCE应该立即自己兴奋去世
我是多▁ORGANIZE的一个人啊有木有
来迎接我的即将是非常非常▁AUTHENTIC
▁KING跟女导师跳了段双人舞后
在办公室存在某种形式的约会▁HOOKING▁UP
篮球技术棒棒的不要崇拜▁GALLON
非常直因为是▁WORKDAYS森林村落非常安静
二十三号博物馆将举办▁SLEEPOVER过夜活动
五月的周末注定▁BUSY了
法规的废除用▁REPEAL查一下就知道了
爱丁堡国际艺术节七十周年闭幕▁FIREWORKS▁CONCERT
某一天一定会出道的▁INFINITE微了解一下
我没事的同时处在一种▁NEAR▁BREAKDOWN的状态
有个脑残的▁SUCCESSOR是什么体验
有很多的▁DELEGATE用法的详细解释和博客
今天▁SIMILAR的天气不给力光线不太好
遇见他简直就是我的▁DISASTER
咱俩第一次协同玩那个方块剧场▁BATTLE▁BLOCK▁THEATRE
很▁EFFECTIVE的清明▁AND坑了把兵哥
昨晚我妈和▁MAID没睡因为喝了奶茶
最近疯狂迷恋你的▁MASK
没有故事的▁FOUR▁CLERK酒吧拼四遮一张略长
本学期最后一个▁FORMAL明天放假啦
开始了就是现在是最棒体▁RECENT
请▁TELL我原来有人真的记得我
今天份的收获这▁PRODUCER居然才二十岁▁O▁A哦
可能面临着第二批毕业▁DILEMMA事实证明
自己核心词汇▁INSURE给什么保险保证
▁ZEBRA标注比灰色太好看了我要吞石根
再帮他的一个亲戚▁ARRANGE相亲
尤尼克斯▁AS零二五尺之作
▁ROUND▁TWO▁DAY▁SEVENTEEN我喜欢老万的直播
问问题就很▁MEAN很刁钻我
坤坤这么▁COOL▁BOYS不愣就这么放走了
▁SURE南昌▁VELVET棋的秒拍视频
名副其实的▁PANCAKES感觉比蛋糕还费劲
王迅也是相当不错的▁PARIS
今天从▁HJ那里听到一个▁EPISODE
壁纸▁DEPRESSED拯救不开心其实很难
点一首潘玮柏的▁STORE送给各位
希望有机会看到倩倩与▁VOGUE的合作▁SOUL
这是▁POP行程我可以去泰国见他了
这小人家把厕所当成了▁PLAYROOM
大鸡岭茶配白衬衫是妥妥的▁BREEZE
是不是应该发点▁RED▁PACKET大家▁HAPPY一下
▁BLACK▁ONE我们来自未来为了人更好的进化
还是喜欢死神▁WORLD▁CHASE啊啊啊啊
它也是▁NEW▁YORK的别称之一
▁MUMMY高压的四月啃个苹果放松一下
前一百圈两个▁CAUTION算上▁STAGE就是四个
最重要的就是学会拒绝▁REFUSE
▁WHOEVER给他的灵感八成真实经历过
要吃一份▁DESSERT会平复不美丽的烦躁
▁BRAIN注意力转以后重新启动
▁BLUE▁ELEPHANT南向餐厅米其林三星推荐
老阿姨我直到今天才买第一台▁LASER
不会因为太多事情让自己跌倒▁EXILE
这称呼我们粉丝欣然接手真的▁WESTWARD
看着自己一周的▁CALENDAR欢呼有种错觉
佛▁SHOWER北京在北京外国语大学
如果我眼前现在出现一个▁BATH▁TUB
今天英语课上被点名课后背▁WINDY
这几天关▁MARVEL首页有感
请推荐给我亚马逊▁PRIME
都是▁TESTER装也多多少少有点瑕疵
也很少人真的会去看机票▁BREAKDOWN
▁DOUBLE▁CHEESE▁BURGER是人类文明的希望之光
来自仙台▁T<unk>SHIRT制作工厂代表的▁COMMENT
▁ESSENCE的▁ROSE有一块淡紫色超级梦幻
等了两趟电梯都是▁OVERLOAD二十楼啊
不知道▁SPARK是不是一直这个推歌风格
二零一七▁PILE亚洲影巡回演唱会广州水军这么多
觉得这段话是▁TRIFLE是心理上的隐藏
但为啥总是套这么傻的▁PLOT呢
▁JACK的人脉真的只有▁JACKY想不到啊
我承认第一次跟张伟对是▁LITERALLY定住了
真的饿了看了两集▁UGLY▁DELICIOUS
没有▁LEAD提示真的没法安心玩手机了
收回的这个▁LANDING太不可思议
还要等两个小时不到才能▁BOARDING
喜欢他就要大声告诉他五二零▁REPEAL
我说你要一直陪着我星知说▁ANYTIME
除了闹猫的时候让你摸摸▁FIRMAMENT
没有马甲线的▁DANCER不是一个好的▁SINGER
▁CONSULT都烂开我要好好装个逼
突然对▁CELL产生了极大的兴趣
▁MICROWAVE▁OWN的力量大连大连海式大学
你们左手鼠标右手▁SHARE
老太太做▁WAX明明很好还非要做
▁MOUSE▁TO▁MOUSE让世界充满爱
个个真的超爱吃▁LIP可以跟着甜两口
▁THEORY这个牌子真的是好穿到爆
▁MORAL▁COMPROMISES伟人也不能超出特定的时空环境
本来这周的▁CHEATING▁MEAL是要吃披萨的
重庆▁PLAYHOUSE最火夜店炫酷环灯
山叶草的▁SLEEP▁ON念叨了大半年
▁KILLING▁EVE我已经疯狂爱上这部剧了
成这个进程都好▁SMOOTH啊
本书中假定▁A▁AWAREUS和▁CONSCIOUSNESSIONERS两个
加油学▁SET我们美国见
▁SAUCE是芒果味的有醋汁
女生偏向于感受同情和安慰▁SYMPATHY
哈哈我哥▁POOR起来无人能等
我拜托你别▁FOCUS我了我比谁都佛
▁UZI这个卡莎怕是以后都要在班位上了
▁ORIENTAL▁HOTEL之后第二个世界三大遗产酒店
▁GROUP▁WOMAN私人谈话的人价值观有问题
▁PARTNER帮我吃完工作午餐
我哥哥的剧▁THE▁PACKAGE超好看超治愈
刚在▁TAP看完公主报的帖子就被放了
果然都是▁ENDING的▁SINGER了我过于幸福了
开会从早开到晚完事还要▁FORMAL▁DINNER
如果是▁TOPIC▁SENTENCE那么应该如何展开
四川的▁SAUCE也不好吃啊
我们▁FIRM的情感不会为小事就回避
▁STRESSFUL感觉真的要受不了了
被干脆面君萌到算是个▁MOMENTARY▁ESCAPE
洗洗睡明天又是新的▁WORKDAY
我要把这群▁BOYS介绍给周围所有的人
巴拉娜和她的二姐▁GRACE
这才是周六正确的打开方式▁OVERTIME
老板橙色▁SLIM皮质好到爆
诶被誉为是韩国人对着我唱江南▁STYLE
少女日志肉肉肉学会了▁SWING
笑死了找半天图找到了▁MOODS
祝他早日达成▁TWENTY▁W▁FOLLOWERS目标
▁MENTALLY▁TWISTED想刺你一下我都要憋笑憋哭了
一台风格更为大胆前卫的▁IE串
还差一个▁BUNDLE板就凑齐了
十三▁TEACHER给三张英文材料开始慢慢翻译
在▁CAGES嗨过十二点上海
纵观台中各▁CAFES环境都不错
▁CHIPS我被拽着去尝试了
▁SERPENT虽然心机又小心眼但奈何脾气好
考了▁PERMIT买了花充实的一天
买不起叶子还好有▁EXPLOSIVE▁LOW可以穿
好喜欢▁NINE和▁TWELVE啊虽然超治愈
这个花式挑战也是很牛逼的▁DIMINISH
定义布尔纸板▁FALSE拼错了还没看出来
最近老师看到▁NOBODY同巴拉等等
势头们毫培养最近总是遇到▁DILEMMA
这是我见过跳的最好的▁JOBS
▁ACCOUNTANCE听成▁CAPTIVES我也够厉害的了
▁HARM为何我没有玩游戏这项技能呢
其实▁SURVIVAL看多了没啥决赛的仪式感了
可以▁FULLY▁OCCUPY我的生活思想和时间
新西兰▁GRASS▁REMEDY老奶奶臭脚粉
现在倒是承认给律师了▁HARSH▁MONEY
统计连着没有▁BENCHMARK没有
简单来说通过长按底部道克兰的一个▁APP
翻译下▁COMMENTS见到真是好多都赞美你呢
每次都要看▁HINT才能拔出来
这样的▁CLICK▁BAIT▁TOPIC真人喜欢
不要举报▁SIGHT我真的想看动画版
为了处理完邮件我只好▁WORK▁OVERTIME了
去海边和森林穿红色很▁I▁CUSHION
▁RURAL前几天学生还说这个读弱弱
各位▁AGENCY我爱你们太不容易了
怎么连▁TRAVELER小姐姐都换了
来山里找了部老泉还有传说中的▁HORSES
在幼儿园开展复杂地形的▁PAVE工作
神盾曲里的▁FLAME有点像
要求还是把▁MONTHLY▁LIST一个个做完
我把这段话说给一个朋友听他说▁DISABLE
抱抱你们了这么晚了在外面乱跑的
需要▁INVOLVE很多时候可以表达出这意思
跑了三个▁CHAPTERS并没有搞懂白石这个人
构成了浩瀚星空▁DIVERSE卡
有生之年▁DRUG的题居然全会做
太喜欢▁BIGER▁SPICE的杏仁羊角了
收到同项目组同学已做好的▁NAPKIN
魏哥的考试我怎么能不去▁EXERT▁MYSELF呢
意外做成的早餐▁SMOOTHY▁BOWL超好吃
最后在直升机上被▁SMOKER差点拖下来
大家都不认识▁LOCKEST是说骂着大叔吗
我整个人都▁FREEZE了好吧
阿飞果然是我心中的▁SOUL▁SINGER
任何问题都能▁BYPASS什么事都坦然面对
▁RIOT可惜我能不能换个女枪什么的
他是英国司法史上最后一个被▁TORTURE的人
排放然后安了▁DEFEAT▁DEVICE让检测测不出来
翻译是对▁CRITICALITY和整句诗遍逻辑的把握
轮到了大狗这什么高难一度▁QUEST
▁READER的资料还没准备好
▁NO▁POSSIBLE只有一个人哪来的烦恼
停电的时候才想起来用▁WORKMAN
这段商人舞的▁CONCEPT真的震撼
▁SPY的打歌舞台真的超级帅
每周日到这的时候我就会停下▁SKIP
最近看的有意思的剧▁HAUNTED
▁SAVAGE直白指出现代人重视外表
被纠正是超级英雄后还说了句▁WHATEVER
▁SANDY推进的卖茶只有七幺幺有卖
这帮▁DRINKERS又喝多了再柔道里各种意淫
开心就把你身边▁COLOR全部带走
能把千年老宅约出山是不容易的▁PURPLE▁GIRL
组里一起去玩▁LASER▁TAG我还是第一次玩
从里到外都散发着▁OLD▁GBLO▁LADY气息
喝着还有果肉配上▁CHEESE▁BURGER和洋葱圈
办健身卡已经去了▁REGISTER了三次
▁ACCESSORIES捉了好多草
美的▁FOUNDING▁FATHER们使用黑奴给自己当假牙
▁SURFING喝了好几口水咱板上大概十秒吧
▁WHOEVER该给我女儿不染头发了
▁SO▁TIRED是自己懒惰不能怪计划被打乱
春游老师带在子们铃子里▁ACCOUNTING去了
不有佩服我打手机的频率▁LAMER啊
你有你的▁LINE我有我的▁SLIPPER
后来成了一英国▁ENGINEER的▁MISTRESS
繁华也落魄还是▁PALATABLE▁DISHES最感动
我买的第一盘你的▁CASSETTE▁DIE
▁FRY是那种无事无刻都要红的小女友
睡觉都嫌热▁BOW▁BOW杭州的天气放过我吧
▁INTELLECTUAL▁MATURITY这个东西跟环境没什么关系
不是▁INSULT这个单词只是侮辱的意思
开工这期的内容是▁BOOKSHELF
最闹心的是不知道为什么闹心▁UPSET
冰箱上贴了个这个▁BEGINS的圣诞冰箱贴
带着阿鱼直接冲过去▁CLEAR
做个无声无息读完就走的▁FOLLOWER
低头看看今天的鞋▁HANG晚饭有着落了
这本心理书不忍直视什么▁PENIS▁DI▁AMATEUR都出来
甜酷女孩针织短裤波斗狗▁O▁O▁T▁D穿搭▁NIGHT
我还是要总体▁REVIEW一边
这▁APP太带劲了人生奋斗目标啊
我是宣本命年生日快乐▁REVENGE
下个礼拜开启速成模式▁MELON▁POP
片中他被索马里海盗称为▁IRISH
我已经对无产阶级文学世界感到▁WEARY
一边把最后一块▁HANDOUT看完
我觉得这个写▁REQUESTS的好帅呀
才发现▁BACHELOR真是大农村啊
日常季度▁CAMEL流着口水一睡睡一天
这么▁EAGER想做好一件事
重启才发现自己原来没按▁NUMBER▁LOCK
十天没上▁POOL一回来就是管技课
▁LOGIC加州大胆梦加州落日
告白啊早日脱单哦▁RECENT
▁CRAFT▁TROUSERS就是露褶坏到女人裤子
换个▁WORKMAN打开硬盘找歌时真是
去▁REVISION同学们都是要出去玩不能补考
打卡▁RECOVER林清缩好的恢复月呢
希望我的▁AVERAGE走回正道
你们小▁B就真的很捧场
意识到自己的▁BLUNDER就赶紧向他道歉
再把溶炸的故事线▁SHARPEN以下组次
张韶涵彩排的▁FADED了解一下
南海共同旅行▁EPISODE播出后与观众见面
我也要跟妈妈表白我爱她▁ENTITLE
官方告知使▁CALIBRATION▁ERROR
催眠师终于催眠了一排人上台▁VOLUNTEER
导哥说我看起来很▁GREEDY
费玉▁ION生日竟然上了微博热搜
▁WILLOW穿着着白水公主的小裙子
我知道应该怎么去做了▁DIRECTORY
夜班加班后的我等着▁BUS在我回床上
第一次听▁DAYLIGHT是在公园看樱花的下午
最好是心戏如尘的那种是最棒▁RACK
突然有种想拿出▁BADGE刷门的冲动
在听▁TERRORICAL号时的歌词
▁LEST▁ROSE人气款大推荐九折带哦
你们真的有▁CALIBRATION吗我要报警了
想来想去还是想要一辆▁HEDGE
▁MINIMUM儿童声波电动牙刷
我的▁SLIP是陪伴我最短时间的眼罩
我也是有▁CHANNEL奢侈品的人了
前奏几秒和快节奏有总是▁STRONGER即视感
记得一次被▁INSPIRE的从容不慌不乱
▁LASER▁VIOLATE银川中国矿业大学银川学院
这么好的▁CODER就碰不上一家
这是什么令人窒息的▁CONCEPT啊
▁DOG▁GIRL爱玛更有文化毕竟文化人的粉丝
做西湖牛肉羹是把香菇丢进▁BLENDER里去
至少我需要有一个▁GOLDEN▁PARACHUTE好吗
▁NEW零八▁LITER全新的零点八升零点八升官网
因为太肥已经当不了▁RED了
但是这裙子是真的▁DREAM▁DRESS
解说员的噩梦时刻仰天乞求▁RERACK
难道▁SUIT下面是光泽的吗
▁JOB走了让一个▁COOKER来接手卖苹果
▁SO▁POOR准备人生第一次追星了
我想纹一个▁LOAFER在身上位置带选
我这个段位他永远在班位
越南食物还是非常▁TYPICAL的东南亚风格
在梦里总是很累那种感觉▁SO▁TERRIBLE
▁HOPE真是不励志的好剧
觉得自己就是▁AVERAGE接触到的上层少
听到▁TRUMPET脑子里什么都没有
今天发现三种好喝的▁DRINKS
生存图▁SEE▁SHEER是个什么鬼哦
▁MUTI▁RATIO的论文看到了新加坡
我欣赏他身为▁CLEANER时的专业
我觉得我的运气都被▁RAISE吸走了
▁BITTER抹茶也拯救不了春天刚到来
背单词▁DUPLICATE复制到▁FOOD
今日辛苦▁FUNNY带卡丁出去玩
简介里一股子▁FORCED▁MARRIAGE的暗示
没想到▁THE▁PACKAGE这么深刻
用了某小孩给我的书签来读▁WONDER
港岛出来浪感觉这种景色才是▁TYPICAL的▁HK
出去做▁SPY假装成了自己想要的样子
总是中英文夹杂着说今天▁RARELY▁FREEZING
张新军▁GOLF将参与这场球星比赛
离开是为了下一次更好的相聚▁MY▁TREASURE
早餐是墨汁吞奶与▁SPAGHETTI
比如有个专八单词叫▁ABATE
▁HIBERNATE的一级缓存和二级缓存
林小亮团长和▁WEST副团长受邀出席
这个人忽然哼起了▁GLOOMY▁SUNDAY
来自被三波人邀请一起去看▁INFINITE▁WAR的我
把我从▁SOCIAL▁WITHDRAW边缘拉回来的智者
但是依然比▁BASELINE低暂时放弃
谁交给他的这些小▁TRICK啊
到底如何把▁CAREER▁PASS完欧洲挪
然后我就真的有了一个▁SPIDER▁MAN
▁CRY▁BABY这么好看的番怎么热度这么低
下周四要▁QUALIFY▁P▁PR还没做好多事
这可是可以多来回忆起来去的▁HEATING
就在刚才又陷入▁DEPRESSED了
触不及防捕捉到你的▁SPOIL
之前一组自取网页链接▁TAGS
说我牢固都说我无气说我▁LOW▁CLASS
黄鸡如果是▁POKE刘中丹第二名
使我想看▁NINE▁PERCENT一起上跑男
被迷▁S了本币需要看草鹅续命
参加路易威登▁TIME▁CAPSULE活动
这样昂贵的果汁我是非常好奇的▁CLITER
至今还是棒的▁MOTION式的反成长小说
对不起我并不觉得▁MANIFESTATION和▁STATE长得像
认为自己是▁G▁UNIT的一员
本来拍了拍照想开心地记录一下▁ON▁BOARD
勉强也算是人生第一本▁JOB▁JOURNAL吧
▁INTEGRATE这只眼线液卧蚕两用笔真心好用
联想两周的▁INTENSIVE的课我的嗓子也哑了
今天的▁CIRCUIT▁SHIELD牙根长增加了手术难度
走之前还去楼下▁SAFEWAY买了饼干和面包
学▁CLASS就会忍不住传点这种变量
很好是阳光又充满▁SCENE的朋友
感觉在等一个合理的▁SOLUTION
▁TOKEN不过提供了更多协作可能性
距离▁JUNE结束还有二十五个小时
今年▁HONOR是个唱歌不错的邻家阿姨
简直无法理解老外对于▁DAMAGED定义
大胃王▁DONKEY吃饺子两大盘根本不够吃
一些看似打鸡血的文章其实是打▁DRUG
好和▁RESPOND如果药方是对的
为了我们这姿态真的很▁UGLY
上▁QQ我就看到了这个▁SNOWBALL旋密
一般多用▁OBEDIENT去▁E▁OBEDIENT含义是什么呢
自己立的▁FLAG没有一个去做
希望醒来能做一个会▁BANKING的人
朋友清明节找我玩▁VLOG▁RECORD
▁CLEARLY我真的很爱思考过去
我高估我自己竟然还想选▁DEADBYS
并不是会建模会算▁TAX会▁CODE就更高级了
▁VALENTINE谈论时去的并不是为了重拥有
满当当的▁TIMETABLE难怪掌纹还是那么乱
这个可是大家都在关注的▁OVAL
▁EATING▁DISORDER的妹子们肯定都是特别敏感的啊
▁SUPPLY▁CHAIN多冷静啊多克制啊单从名字上来说
优酷和▁B站都买了▁UNNATURAL的版权
那晚的▁AWAKE那晚的小星星
以后可以很▁SCARE很▁SCARE的挑战更多
还是要感谢▁BLACK▁BLAZE带给我的
我感觉我要▁GO▁DIED了每天都很上
星爸爸的▁PROTEIN▁BOX根本吃不饱嘛
▁DREAMING所有这些所有这些我们谈论爱情
▁EXPLOSIVE这首歌▁COMBO到二百多后来走神了
家人就要加▁CLERK这种
木木的心展名称定为▁INNOCENT无辜
甜豆男孩还带节奏喊▁SPIDER▁MAN
教授讲▁BIRTH▁DEFECT时候说中国几率高为污染
哦▁ONE▁TWO▁THREE的获得就是这样廉价而简单
格外▁EXPRESSED都带着冬天淋冽的味儿
找了一张背景图请忽略▁LIFELESS记住▁FAULTLESS就好
完成二十四句听力明天继续▁NURSING▁HOME
▁EIGHT▁MONTHS熬过就好希望下次坐标在双一流
切了几天西瓜以后越来越喜欢▁BOUNCE
下面的▁DOCK栏开始有▁MACBOOK的风格了
▁INTER▁STLLOR是我这几年看过最棒的
而本▁DECAY的眼影盘老子吃土也要买
杭州千岛湖拜拜了▁MY▁HOMETOWN
▁JAPANESE▁PROVOKE没有远视只是白日梦
求一个▁DRESSER和一个全身镜
▁RECEPTION大叔大概已经被烦死
吃完这一顿这个▁SHOOT估计穿不上了
最近手上三个▁PROJECTS全部布
左边这个▁BROWNIE▁ART的设计师今年四十四了
连表情包都这么可爱▁SHORTEN
我给制服直男摄影取名▁GOOD▁AFTERNOON
▁SLIM是他用过最好的减重产品
这张图提醒我还有好多▁THEME▁ATTITUDES没吃
▁BE▁UNEASY杭州黄龙体育中心
今天老师对▁PRIMARILY和▁PARTENTIALLY这两个词有偏爱
非常容易▁EMOTIONAL去年引土地考上了上外
牛奶▁LEOPARD还要感谢亲爱的饼干
闹枕想做按摩不开心想见▁SHRIEK就要钱
一路免费的两百份热稿▁LUCKILY拿到了第一百四十二分
自己才输学欠不懂人家▁ACADEMIC▁TERM
独特的国外核设计▁SMOKING▁KILLS
人生第一场▁CAREER▁FAST圆满结束
然后又去看了▁FRAGILE第五集
照片都看不清小蛮腰▁BUCKET▁LIST
▁PULSE得掉的童童海报在家里珍藏
想问一下一定动画活动为啥都▁COMPLETE
我真的祈求▁GOD▁BALANCE别让我这个结果
中国没有专门保护动物权益的▁LAW
在▁TRACK里游来游去希望可以活过期末
▁GENTLE▁MONSTER居然排了几十米的队
▁RECEPTION的小姐姐问我雪画完了
介绍▁PRIEST的一本杀破狼▁PRIEST乡村爱情故事
▁KIT▁SPEED猫咪零前班还带有尾巴的哟
下雨了还在球场上奔跑的▁CRICKET▁PLAYER
一年的▁LICENCE都好几十万
最美新娘颜如玉新宝▁HAPPY▁MARRIAGE
晚上在▁CREW转车时顺便喝了杯巧克力
▁SLIMING打卡第六天我是▁STRONG
脑补硬安前世今生五千字
发▁FAINTANT这几天太累了喝个十全大补汤
在描述中常用▁CLOUD有爪的表示
娱乐圈的实力担当看你们的了▁LIBERATE
介绍一下我们的独立游戏▁UNDEVIDED
节目终于开播就能见我▁HENRY啦▁INFERENCE
我好想看全员加速中这个节目哦▁SHAMEFUL
▁AWESOME一首歌的功夫就给整的明明白白
▁TORCH等所有检查都是好好的
什么事情是一杯▁BUBBLE▁GAGA不能解决
▁WALL▁PAPER▁ENGINE上找到了很厉害的动态壁纸
可是一想到国内会有很多▁FIX
▁CHIPS的心愿吃货的坚持
▁PINK▁TAPE是神装了每一首都很有趣
如今自己▁AFFORD才明白我爸的不容易
他们家有个小▁GINGER真是太可爱了
第一排▁TWIN▁CITY和苏碧丽耳胡的天
英语课讲到▁IMMIGRANT我知道是华侨的意思
那么喜欢成都还把你▁CO▁WORKER交成成诺
哥哥平安到达上海啦好好休息▁WHAT'S▁UP
一醒来川普居然只差二十六张▁ELECTORAL▁VOTES就能赢了
姐姐说▁SCREAM特别的苏他值得
我就说我们的小男孩是一个▁SUPERMAN吧
他还曾说▁NFL四分卫星里没有黑人全是▁WASP
我一个▁ENGINEER你叫我学这个干嘛
梦里去▁DPRK旅游遇到内部▁RIOT
▁ENCHANTED到我是觉得真的很美
居然之家▁LITERALLY离家只有两站路
▁BOUNCE现场很不错哦虽然不喜欢这首歌
吐槽一下亚马逊的▁SPARK竞价实力
▁G▁SHOCK麦当劳包装盒做成汉堡外卖样子
手机客户端出现问题真的非常▁BOTHERING
影片中他表演超级出色▁JUG
便知道这不是▁ACCIDENT而是▁ATTACK
更新了▁IOS▁ELEVEN▁JOCK栏还是蛮好用的
▁ASSET资产优点长处▁ARREST逮捕监禁
以▁STRONGER成长型的思维模式
最近推特很宠我呢都不会被▁LOCK了
奔波一晚上▁UPPER▁EAST再多一步都走不动了
在青旅座▁RECEPTIONIST接到四位大马来的华人
谁知道▁ONE▁PIECE是海贼王还是连衣裙
还要分情况回答自己是否▁AVAILABLE
五天速成托福两天速成▁ASSET
就你这▁SUCKER滚回去看出彩中国人吧
▁JURY的当天发短信问他结果
希望▁SNOWSTOR不影响这次苏醒
▁IDLE的我正在认真喝果汁
▁BOARDING时我们有一堆事情要做
好吧这个▁DEVIL有点可爱
钰诚和喊▁OBJECTION的御城两人期了
▁RAYS的建模终于有一米一七五的感觉了
▁EIGHTY▁DAYS我强迫你过的生日
▁ECLIPSE还能再慢点么班都加不起来垮掉
火热的可以狂吞十几个▁SHOES
一个▁BELIEF观拍晃的我头晕脑胀的
看我们拖把军一下下已经很满足▁SCRUB
即使那是那类▁OPERATION里最轻
搭配好的▁COMPLETE▁DIET深骨肉不需再加东西
林大老喊▁SCREAM的时候能不能有点反应
忍不住又去看了一集▁AIRCRASH
终于把▁FORMULATING和▁CODING完成了
网友们对重返六一去事儿有共鸣▁AMBLAR
英雄联盟最强玩家▁FAKER
每次都要穿▁SUIT才能登场了
美国说保销也有逆年▁GUARANTEE
人家粉丝怒▁WHATEVER的点儿郎当
敷完一片好玩的▁MASK睡觉
生日快乐我的李哥哥▁FAKER
像读了一个个发生在一千二百▁BOOKSHOP的故事
为什么妈妈说少佐想让她收养▁VIOLET
▁COSMIC▁RAILWAY承载我的思念前进
认识好多小哥哥小姐姐第一张▁RECOGNITION▁CARD
▁INSIGHT对于大部分人来说还是判断
二十五▁HOURS再看依旧是感慨不断写得太好
▁CALCULUS真难▁OPTIONAL真难数学真难狗屎
▁WASP老大巴菲特出马
被一句特别▁HARSH写莫名的话气道模糊
以及我觉得▁DRUG▁CHEESE算不上谩骂
创意工坊的那个▁DOOM也霸气的不行
同事关系果然就是工作▁PARTNER
优衣库的▁JUMPER衣服我都没买一件
唯一的危机是五月的▁NOR
哲理▁PURITY已经容身为我最爱洗面奶▁TOP一了
▁CHIPS穿了快两年了舒服百搭
杀破狼▁PRIEST谁告诉我这不虐的
好几段▁JUMP▁SCARE稍微有些刻意
不注意他还以为▁SOLUTION搞错
目测环境不错不知道▁DISHES怎么样
刚刚在调▁NUMBERS行高列宽的时候
如果你觉得我这个人很▁DIFFICULT
女提出问▁SELF▁ACCESS▁CENTER原词出现
需要集齐所有▁QUEST才能进入
找到了这张▁HOME▁MADE▁DISHES纯真的吃货首选味道
每天在想你但是还是要保持▁ELEGANT黄明昊
立个▁FLAG也想成为别人眼中的风景
▁COUSIN总是爱制造点有意思东西
美式风▁CROP的下摆打结衬衣
对我这种▁ACCRACY为零的真正上手很容易
简直百级的疼而且▁INCREASINGLY的疼
特别▁NEEDLY年人并且不独立的人
把烦恼放入堆栈直到▁STACK▁OVERFLOW
现在值得我▁BUYING的价值观也不存在了
哪位人兄做过▁MISS▁MATCH▁CALIBRATION的
很在意个人▁IMAGE研究生就好好研究
改改背景色和▁LABEL字号再加粗一下
▁HOPES睡觉前让我想一切美好的事物
短发萝莉▁OLIVE欧美女孩
手机充值校园卡的时代上线了▁PURSE
所以达达主义者的我只是▁PARTIAL的我
答案是▁RETURN的但是我觉得有点不对
不过据说有局地名子那就先▁SETTLE一下
还是想▁MARK一下被▁VESSEL一语进行闷中人
虽然▁BLUE▁BOTTLE还没来中国开店
我感觉我似乎从这个世界▁VANISH了
▁WONDER▁PARADE第一首歌作者到底什么鬼
融合前辈们的力量第二代▁DECADE
一定照顾好我的小情绪成为我的▁SUPERMAN
当年也是要做▁OPENING▁ACT的惊人
在星爸爸做▁PART▁TIME▁JOB真的太酷了啦
筋疲力尽的时候总会看到▁STOP▁SIGN
这次▁APS好多▁SECTION都是引力波
这个人心啊唉都是▁SELFISH
每周给他重复我教室离▁OVER近
各种不同的发型▁RESTLESS▁HAIR齐腰长发
梦到自己微博写了句话▁DRUNK写成▁DRUNK
觉得被▁CURSE了下飞机▁B十五中毒
终于可以安安心心出国▁VOCATION了
中午▁CAFETERIA吃小芒果吃完正准备走
捧场的热心群众搞得▁OVERLOAD了
▁SNAIL像我这样迷茫的人的秒拍视频
三个议员对我们今天▁LOBBY活动的支持
一年一度无锡▁MERESOME奔跑的人儿最美丽
▁NEW▁BEGIN我不努力谁能替我成功
海盗王们打压下去▁PIRATE主题曲
黄鹏龙娜新年快乐二零一八大年初二
真的被摄影师的署名▁SHOCK到了
世界不急你好别下来▁WHATEVER
一个冬天在两个▁CONTINENT经历了两次暴雪
用到非典型这个词我们更应该用▁A▁TYPICAL
▁DOOR▁MAT回来发现一张图都没拍
给了别人一个▁REFER不知道有没有用
自拍▁GRAPE要以▁GRAPE的名字向喜欢地方出发
▁BRILLIANT▁ONE广州红砖厂创意艺术区
就如同▁DUSTBIN里面的▁RUBBISH一样多
作为航站楼的▁LANDLORD教授是个啥心情
献选课老师是个▁GREENER彻底失望
难得不忘▁GOLF不搞装修
今天舞蹈扣动作了我的▁JOBS
终于抽时间把▁MARVEL的坑都填了
怎么会有▁QUEST▁BAR这么难吃的蛋白棒
拉希下过的决心立过▁FLAP该如何安放
▁SUPER▁GREENS真的太难喝了吧
这时▁POSTMAN转过身偷偷拿出一叠信笑了
我发亮今人不服老第一条我▁OBJECT
第一篇阅读就认识▁TOBACCO
倒车雷达省游男女街事宜▁LOCKBOOK齐全
一些普通的夜晚张大以▁EVE
谁也不能将社区的人和事▁RESET
一晚上被咬十几个包的糟糕回忆▁BO▁BALL
要做个▁DILIGENT▁GIRL然后去吃许多好吃的
一个小小的▁CHICKEN努力会有回报的
四个文档完成第一个▁HOAY
一个送▁PEEL葡萄一个送▁MIKE口红邮费我出
今天之前我没有一只▁ZEBRA▁SARASA
看到我又把我的▁PUREY摸出来
希望能够抽中签顺利▁APPROVE
单词问题▁TEMPORARY是暂时的意思
▁ECLIPSE被翻译成教时震惊我程序员
连续两周▁WEEKDAY不得不学到三点再睡
许魏洲泰国▁CHANNEL杠三直播前程视频
在中国做了三次大规模调查除了▁EQUALITY
不过使三▁COST太大或者使年轻气盛
话剧唱▁YELLOW▁SUBMARINE也是蛮神奇的
同学们用了很多▁UNCONVERSIONAL的材料
▁GAUGE测量仪器测量标准
见证奇迹的时刻其实▁INDECENT是个演员
▁CAMPUS注意和指南征▁CAMPUS的发音区别
终于做了一次▁DJ▁PLAYER掌控全场的感觉爽
李彦泽发朋友圈说今天▁SOUVENIR开业
永远不要和美女站在一起▁HILLSIDE
同行意不同▁CUBICAL寝室小卧室
雷哈娜▁THE▁MONSTER震撼现场版
▁AN▁AUDIENCE指一群观众而不是一个观众
梦见了▁SLENDER▁MAN用手指了我
结束妹子带进去▁HATCH买裤子花的钱比我多
上去就是剥揪一口真是太▁CUTE了吧
原来▁INTERACTIVE▁BROKERS中文叫盈透证券
从▁WORKER跳槽成▁LEADER假期不能思议放松了
贝多芬写给▁IMMORTAL▁LOVED的一封情书
一周正常作息后眼袋大到▁DUMP一声
买▁PROVIDE今天看到佳瑞的考级证书
男朋友都是坦诚又把我放在▁PRIORITY
▁HUNTED英版大家去看一下
打卡▁BULLET▁SWING来回车程三个小时
第一是记完一个▁UNIT的单词
一千二百▁BOOKSHOP一个二十四小时不打烊的书店
我是卡西莫多无疑今晚是属于▁CREEP的
日版里的小岛景观▁OR▁UNNATURAL演报社编辑
终于等来了卡拉泡泡▁SUNBEAM太美了
感觉这一个多月就是在▁SUFFER▁SUFFERING
这必须是要和童瑶来表达表白来的▁SHRIEK
▁DELIGHTED老写成▁DELIGHTFUL不应该不应该做检讨
▁JAM要开始努力发微博了
▁HONG▁KONG就成了我去过的地方
唱得太好都没有时间发弹幕▁MAX
▁PLEASE▁CARE拉地方我和朋友都以为是▁BOARDING呢
很痛快起床坐地铁坐▁SHUTTLE▁BUS坐船
我所收藏的所有▁GRIP的图发到微博了
▁ARRANGE一下春节这个周六
最近学校大规模的▁ILLNESS突然想到的
终于又▁FINISH掉一个模块
无敌喜欢▁PICKLE▁RICK了首页有人看这个吗
还有两篇▁WEEKLY▁REPORT全是自己做的
我已经很久不回不去回忆了▁REGARDS
我紧张的有种▁TRAGEDY▁NIGHT的预感
今年的▁VICTORIA▁SECRET没有去年的好看呀
▁SKIN▁NUTRITION这个精华去年忍不了今年依旧
也能看出▁MA▁MEDIA统治下的光路路怪
▁JEEP兄弟连接清放到现在也是超酷
开着音乐放着▁THE▁MESS放了一早上
我还能▁HANDLE的工作使我快乐
这么好的天气我却在▁LAB搬砖
▁AUSTIN真的是一个被▁OVERLOOK的地方
▁VIOLIN领担任升旗手登上了微博
掏出本子写完了石麻麻的▁HOMEWORK
看出想把你捧在手心里的意思▁BETTY▁NECKLACE
跟我那▁SILLY▁DOG一般的同事对完进度
陶逸课上面做的好像▁LOVER和▁HOMER
▁AMUSE的▁DVD效果真的蛮良心快赶上难关了
惨了唯一期待下▁SNOWBALL
别丑了求加数学不加▁VERBAL
希望他们能幸福下去▁ISOLATE
我的会以半价的方式出售▁SECONDHAND商品
成功▁HOOKY大熊小熊一起去香港
▁SOUVENIR的大门将对白起关闭
今天▁FREEWAY的小伙伴们前往内蒙古
离开后顺便去▁MARVEL总部看了看
翻到了一首没听过的翔太的曲子▁WHITE▁PRISM
改善▁SLAM的和解决住房问题的途径
▁SENSELESS这个词有多个意思
之前不是说▁LEADER是▁MASTER吗
每次听▁TAPS的时候突然听
我就知道我的▁INSIGHT能力是超群的了
其实我更想表达的是▁UNKNOWN▁WORLD
一个疯狂无脑▁GANK下路的▁JUG
苏州老师把▁MINORITY读成了▁MINORITY
▁TWO▁MONTHS现在都没有合照可以发
同事分享了一篇文章有句话很▁IMPRESS
再怎么说▁LG就是房产▁AGENCY
▁ALL▁AGREED的开头语也是战斗的结束语
眉毛修成了三段儿看起来特别▁GANGSTER▁SHEET
▁INORGANIC无机的非自然生长的
肋排一如既往的好▁SAD▁DISHES总体不错
这些人以这种▁IMAGE而注意到自己
这个包原来的还不支持要下▁PILLAR的
我得消费升级我的▁BLENDER
▁NINE▁PONDS我需要你给我一个胶代
做了一天的翻译和▁DESK▁RESEARCH
最后一组展的照片今天是▁BLOOD红
说好的要给我▁TELEX▁RELEASE你的工作笔记的
朋友圈分享了一首▁BLEEDING▁LOVE太应景了
▁PERIOD在胃痛浑身发冷冒虚汗
光是坐进去就相当▁GROWTH了
还有半个小时才▁BOARDING想回休息室又太远
订生日蛋糕没有配▁CANDLES的解决方案
▁ONION一个字形容天蝎是哪个字
芝士味的▁CRACKERS▁CHIPS好吃到根本停不下来
第一次看超音速▁TALK▁TONIGHT那段
▁DEAR▁DEAR兔妈妈生日快乐
▁PEDAL▁BUDDING这湖面太壮观了吧
零距离观看石头哥哥的▁ROBOT
我熬过了这么多的不易还差个▁NO▁DEGREE么
哼我小哥哥要▁SIGN▁OFF了
这个▁QUOTE里有个小错误你能否找出来
每逢考试背后悔为什么要▁DOUBLE▁MAJOR
▁MORE▁LOUDLY抽到惊动如来佛的秒拍视频
过这些▁ROAD▁BLOCK之后的结果一定是好的
海口▁THIRTEEN宠物的鼎力支持摄像
杀破狼▁PRIEST沉迷广播剧
▁CONCRETE的感觉对于我太奢侈了
看非洲▁RETURNE的▁REPORT真是热血沸腾
门铃响了看了下▁MONITOR是熟悉快递大叔
不要有负罪感也不需要▁REBUILT
你写的行动▁ACTION和我们常使用的实践
同学都挺喜欢高谈阔论也喜欢▁PRETEND▁BID
▁PERMIT到期的前一天考到驾照
所以▁CONCEPT和时机很重要啊
看了炎黄剧中▁FLAME的角色
要教育正信多刷两遍▁THE▁PACKAGE
这是▁ROUGH▁TO的节奏这首歌真的好好听
还有点小▁UPSET希望以后自己买车了
昨晚又看了遍零五电影版▁RENT哭成渣
我觉得这就是所谓的▁DESTINY
今日打卡学英语▁ORIENTAL东方的东方人
一次成功地▁SMOOTH歌田加分
转发这只▁PEACOCK新学期会有好运
都能在▁SECOND▁HAND▁SHOP再找回来
我行我素捡破烂的▁POOR▁BOY
七张新照片折射中国道路网页链接▁HEART▁REDIRECT
两小时就开一张▁SLIDE服不服
还叫你妈诺言你咋不叫▁FAKER
极光叔叔带我▁COLLECT每个月的毛家布
有船有火车有▁WATER还有▁FOUNTAIN
▁COST不足硬凑了各队打了七分钟
实际上根本穿不到的▁GONE
一想明天有人送我一把新的▁DULL▁D二六零
那和▁PE是甜甜的橙子味来
头发也大把大把的掉▁STRESSED了
第一反应居然以为是▁BLANS片场
美国喜被▁HAPPY▁POPS有机低糖番薯泡芙
▁CATCHERS耳旁温柔的风温柔地摸过耳尖
买了▁TART▁TOASTED半年了用了不超过五次
这是整个蓝星文明集体▁REVERSE的时代
群里讨论了关于玉米甜割掉会被▁MARK▁ABSENCE
还有什么角色是你▁HOLD不住的
我要自己给自己买一个▁KATE▁SPADE
接收完成状态显示▁CLOSED
跟我来挑战雅思英语▁ENGAGED意思是
还是你好带上▁HELMET不管去哪里
因微进展稍微缓解了一丁点焦烈▁PUMPKIN
没有网的晚上只有和▁BLENDER作伴
我想要▁BOUNCE我想要幸福
一个人去车库练▁HELL▁FLIP去
一写论文就觉得▁TOPIC▁SENTENCES好难挤出来
纵有疾风起人生不言气▁PUFF
突然有一天你坚持地▁COLLAPSE了你适合感受
▁BRUNO▁MARS非要把港澳台和中国分开来说
华裔魔法少女▁SIGHT怎么会动画化的呢
还是喜欢校园的气氛▁CHERISH
我们常用的抽纸是▁TISSUE而不是▁PAPER
今天居然唱▁TULAP没想到啊
不知道为什么就是很喜欢各种▁INDEX
一月三十一日▁JAMES▁HARDEN在丰田中心得到六十分
有▁AP隔离和防▁CHEESE藤州市
无论说什么话别让自己变得很▁CHEAP
总建飞机上有▁INFLET之类的网都要付费
我都会开心到尖叫尖叫到失声▁SO▁EXCITING
拍的照▁PINCH一下就说没什么不同
我要通宵感▁THESIS▁TABLE明天四点睡觉
▁TO▁CONCLUDE确立好目标它使得走好每一步
总是把握不好▁EXPLICIT跟▁IMPLICIT的尺度
▁TELEGRAM它有一些很特别的功能
自己花了好长时间下的▁ORIGIN
▁SWAY江西旅游商贸职业学院
回复▁BLOWERS我前半段不探讨后半段算
已经不喜欢了觉得爱的和▁GOLF有了感情
红丝绒奶昔真的超好喝▁POKE▁INN
两米高女生仿佛看一集▁QUARTER▁LIP
吃他那刻回家了魔力美食视频▁NIGHT
这个空气枪的名叫▁RAIN▁SHIVER
那么巧地认识了演员▁PUB
▁MLL以前写▁CLAW两天两千字现在半天两百字
信号就由该对象发射▁EMIT出去
让我们这些女孩子情何以堪▁REFUGEE
光是穿上▁SUIT就已经用光全身力气
给我们房子和超额▁VOTE去了
▁DAYDREAM音乐会活动后的采访
我没有▁PARTY▁TRICK但我需要一个
蝴蝶客户端出现计算机中丢失▁PACKET
好想学怎么拍这样的▁LOG啊
这样的▁VISUAL是真实的吗
替我鉴别了小李子的真实性别▁FEMALE
世界再大也要回家▁WORKMATE偷拍
你是怎么搞到▁BUNNY这么大的图的
看了一本书日本作家以一的▁ZOO
他是文学家林语堂的▁SISTER▁IN▁LAW
正在对最近的这次▁TUMA▁BIOLOGY撤稿进行调查
在▁OUTER▁BANK看大西洋日出剪些贝壳做纪念
不▁SELF▁CENTRIC还要我怎样呢
你们二位老师这样在电视剧里强▁SELL
被▁SHUTTLE匆匆送到通知飞机晚点两小时
您英文还不顺流就想▁PROMOTE了
三角猫▁SHRIFF也长成大姑娘了
他就默默地站在旁边啃面包和▁TUNA
▁SOUTH与▁SOUTH没想到还有这奇妙的巧合
今天试了一下▁FLOAT▁TEAR用起来超方便呀
这段真是我看▁COMMUNITY最妙气恒生的对话
辣五花肉白菜豆腐汤▁EAT金
我发现我见过的▁FREE▁RIDER比过去四年都多
练练有词▁UNIT十三听力翻译
买▁SOUVENIRS好长对路过用打折券说送偶木
一片痴心错腹的大表哥已经▁MOVE▁ON了
去▁COMPETE搜罗那些走入社会的年轻人
买过▁DEAL的裤子真不适合我
别浪费你那点▁BEGINNER▁IS▁LUCK了
英国各种超市里▁GARDENING的分区
不想被说脚的▁MOVE少了
我最喜欢▁SELFISH觉得有我蹲的贤妹一笑
听了原唱还是制止的土耳其更▁ROMANTIC
立个▁FLAG希望我们成为优秀的架构师
因为我从来不是被▁CHOSEN的那一个
给我一点好的想法吧▁WHEREBY
弹钢琴超好听每次▁WORSHIP都和哥哥配搭
郑允浩▁PUZZLE想把世界上最好的给你
祝二十岁生日快乐在李泽言▁SOUVENIR餐厅庆生
可怕的是▁CORN是怎么花的
跟他们比起来我简直没有任何▁SOCIAL▁COURTESY
考研▁AMBITION还是老方法原来的配方
今天才知道皮蛋的英文是▁A▁THOUSAND▁YEAR▁OLD▁EGG
这就是看论文也要看▁REFER
神刻懂得关系的关键在于▁MANAGER
所有英文单词中我最喜欢▁BLOOM这个词
哇塞昨的▁BRIEFING人都满了
山东的春天昨天还穿▁T<unk>SHIRT今天穿秋裤
▁BI▁YEARLY是一年两次还是两年一次
▁DECAYS每个成员年龄成不同
原来▁BUSINESS▁FORMAL穿一天这么累
转头就忍不住又去▁PUSH对方
终于把▁HIDDEN▁FOLKS游戏打穿了
但就像的▁AUTHORIZE很早就说共同富裕
整个▁DIPLOMA圈子的狭小程度
今天的▁EXECUTION强制骑车去
拉▁PRAIRIE最近好价格有个屁屁用
就是忘记拿▁OYSTER▁CARD没有一次赶上的
好不容易吃了▁EGGS▁BENEDICT只能说满足
得知▁DRAW▁BOARD可以付费使用
像逻辑一样会想象一些▁IDEAL呢
本科比较▁LIBERAL的一位老师推荐过
最近真的负能量满满每天都是▁TRANSLATE
期待明天感谢我的两位▁PARTNER
每人都应该为允许不知有▁HAPPY▁SERVICE保标签
嘿嘿平凡就是我可以做到的▁SOUL
异病的隐喻和疯癫与文明是我的▁BIBLE
都是官方认定的▁GENIUS了
时装▁FITTING▁TIME北京张字中路一条街
越大权重代表对应位置的▁CONTEXT越重要
夏天水瓶以及绵绵冰碗和勺子的▁SET
想要个▁LV▁SPEEDING二十五什么时候才买得起啊
悄悄点开▁SNOWY这个抖音短视频就好
▁CHEWING▁GUM时期的小明真是太可爱了
到底买不买▁FIGHTER我一直在犹豫
跟了两天代码一个与▁ECHOS搞死我了
我现在只想看▁BUILD下一季
搬运工晚上▁REMOVE干一宿
原来李小龙的▁SIDECAKE测梯
不论▁HIKE哪条路风景都是如此一致
突然好想喝冰镇可乐▁COKE
抄写作业时要听▁AROUND
还有修杰克曼演的金刚狼▁SO▁MASCULINE
下一步你要演啥▁HUSBAND我看不错
演员需要有好剧本来磨练演技▁PROFIT
学都▁TACTICS怎么还不发售哇想玩
我像一个直拍的▁CAMERA给他拍视频
每次看见▁BAMBOO呼吸难受我也很难受
点的菜的▁RANGE也越来越宽
爱一切有▁CORE的东西表白开心果树没
下个月▁BENCH考试月中还要做报告
今天才做完时间序列的▁SLIDE
▁SPONSOR说他等不及要看到这个果园
▁DRAGON▁PEARL唱的这首广东爱情故事
我没质疑你导师你导师耍小▁TRICK
▁SINGER用这来弥补我这个总是忘记牵到
又一位▁COP▁STAR将我拉黑
▁BLACKS▁ONE快来抓我给我超能力吧
不知道还有没有▁FAX服务
因为某人推荐喜欢上四宴的声音
竟然发现▁FORUM又不会写了
▁TOTALLY闭着眼睛搓洗发水
我真的好喜欢上▁DISCUSSION▁SECTION
读的书倒衣服他总说我不够▁CREATIVE
原文说是▁BURGLARY入室偷窃还带着凶器
▁CHAIRMAN▁MALL会对轰炸叙利亚做出什么反应
一月除了原是物语和▁TENSE就没看剧
气根▁AERIAL如此通常只暴露于空气中的根
不能被任何事打扰立个▁FLAG必须做到
最后一张里的▁GRAPH全是赠品
感谢▁DADDY干妈陪了我们一晚上
算是老天的▁REWARD吧吃饱了去上班
▁JUMP▁SCARE果然还是恐怖片的特点
▁WORM这个词是学期生虫认识的
两方阵营▁SERVANT的酱油都打完了
▁CONTINUOUS和▁CONTIN都可以被译为连续的
韩婷开的车是▁PRIME的无人驾驶吗
今天把办公室的▁BINDING▁MACHINE报销了
我真的很会▁P图拉图二是▁IDEAL眼睛
极致才是▁VOCAL▁PERFORMER这样组团的初衷
如果在酒店▁CHECK▁IN的时候
看来我得回去收拾收拾了▁NOVELIST
使用邀请码二五六炸个六▁U▁U▁B首次形成可享优惠
你的一切都像是▁DESSERT该怎么说呢
无线网络安全▁TEACHER张上午刚说了
▁HAMBURGER▁JERRY美乐迪汕头荣江路
▁ALPHA▁MAIL就是那种不回信息就是不爱他了
为了给▁BODY证明自己已经咬秃了
最喜欢张韶涵唱歌想听她没唱的▁FADED
有些人不必等因为▁INCOMPATIBLE
周一的▁CLUSTER真是喜欢啊
▁ACCIDENT我以后都不想开车了
欲望是能做一个标准的▁PISTOL
想把▁DROPS做铃声我妹说也没人联系我
发现印度电影都有▁INTERVAL唉
▁CHASE的橘子牛奶蛋糕真好吃
最后的单词应该是▁FORK它拼错了
为何会放在▁WEEKDAY而不是周末
用了▁JAM的滤镜今天也是贫穷又卑微
快一个月了本土偶女孩还没有▁MOVE▁ON
我不会卖很贵很贵的纯▁LEMON▁TEA
翻出来一张没开过的▁VISA卡
把▁ARTIST的歌词按顺序在下面评论
▁TEENAGER看风景的船就变成这样了
▁WHATEVER我本来就不是主动活泼行的人
刚开始这一幕有种▁OLD▁SNAKE的感觉
如果遇到不好的▁LISTENER你会受到冷遇
就要▁PURPOSE出一个前人没有的东西
遇到个▁NIKO小姐比当年的九毛还经典
到头来还是依靠途径再过生活▁SUCK
像投递情书一样把它▁SEND出去
唱歌▁REALLY好听比心大理古城
东方卫视完美▁PARTNER的微博视频
从零▁WARNING到毕业简直像梦一样
想问问好友会不会▁ACCESS请私聊我
▁PAPER▁ABORTION非常有创新型的法律功
结尾的▁CREEPING我可以刻一辈子
就此别过也不需要更多的▁SMALL▁TALK
我走十字路就像在国内刷▁VISION行不通
忘了▁WINDOWS上打不开▁PAGES明天要完全重来
现在脑海中浮现的居然是单词▁PRACTICE▁PRACTICE
▁ZOO这条子裤子像我高中校服裤子
出门前他故意抹了抹▁LIPSTICK
▁TANGATIZA绝对是我用过最好的梳子
今早就是记得在然后都没▁SHELF就走了
▁SEAFOOD▁SUMMIT第一次尝试鱼子酱
有了一个▁IDEAL想开一个游戏学校
一周前下的单今天查快递发现被▁CANCELLED
怎么会有▁ARABIC▁CHOP那么好的东西
然后错代了中才的书结果发现是▁ACCESS
但是可怜的我并没有▁FOLLOWERS
拿▁PLANET▁MONSTERS的图当屏保被我爹看见了
朋友给新生▁BABY取了个名字▁JEWISH
韩乔生老师把▁LEAVES和▁WINGS指反了
恨自己无法将所拥有的▁PRIVILEGE
有一个词组▁CURVE▁WALKER也可以只学吧
路边的水果滩自觉放石柳壁到▁HONESTY
斗鱼嘉年华突变英雄▁LEAF
今天查的第一个单词是▁PROPOSE
只是他已经找到一个▁TRICK了感恩
比以前做▁RECEPTIONIST的时候还充实
那几个▁BULLY还在噩梦中的那里等我
已经恩赐去▁RECEPTION开暖气了
如果写作文写到这儿估计得用▁BY▁CONTRAST
三个月不完▁STEEP育碧就把我存档删了
总觉得纳恩也在剧透▁WISH▁MOVIE
他这个鬼样子都能▁INSPIRE我
汉堡薯条冰可乐真的是▁LIFE▁SAVER
签完了现在各种▁LIP▁SERVICE安抚基本盘
▁AUSTRALIAN▁ACCENT是不同于英语的另一种语言
提款及▁SUBMIT之后是等待的过程
打开了三马路的▁ANSWER等消息
放假咯去配一副▁COIN双眼疲倦
今天收到▁TUNE突然被种草了
最近老师很▁EMOTIONAL这就是高三的症状
念念不忘了大半年的精致▁PICNIC
观看韩服第五▁RULER的吃饭
▁LOOPS和▁CIRCLES都被别人用了
▁PUSH和▁PULL分不清换成中文也分不清
谢谢我的御用摄影师▁SMALL方
▁SCHOLARLY▁ARTICLES还没读我却想躺床上看课外书
你是想上学还是想看门▁MILKY哥
许久不见▁GOAT七小段子之▁PURPOSE已经求婚了
这学期被记▁ABSENT就很麻烦
只要▁EXECUTE好就没什么好后悔的
▁CAFE▁PLATE已经两个月了还没发货
是就一直▁STAND▁BY等我爸通知
慢走交大路方华依旧▁SWAY
受不了态度很好但是▁TECHNICAL很差的人
是不是忘记给他把▁PUBLIC▁HOLIDAY剪掉
▁COFFEE说李光洁的气质令人很激动
要改变世界我觉得他还是不够▁CREATIVE啊
总结一下各个▁PRODUCT下周汇报
大家都一起来等着的▁IMITATE
▁TAKE▁AWAY本质上有什么不同吗
却要继续留在学校多半个月考▁QUALIFY
去年发了篇新▁PAPER里面超多▁ARGUMENT都是我的
乘坐▁CABLE▁CAR一路慢慢在时间里穿行
虽然人不在故乡心心念念的都是▁HOMETOWN
接下来会不会也整个▁ZERO▁BASE吧
三明治更大饮料和▁SNACK的种类更多
要云▁GK其实就只用▁BAN关羽和木兰就行
离开了我大重庆了▁FAREWELL
人事▁TRAINING可是延误了等好久
▁BRIGHT▁STAR最后一张纯属车购九张图
▁ERROR好听的这个新的像洞的黑芝麻湖
还要把▁FORMULA▁SHEET拿出来对到写
不能错过了这些了知道了▁MUSCULAR
被海海逼的去查了一下▁CHARGE可不可数
微博的资质有任何怀疑的情与▁BIBLER
以及随时遇到▁RETARDED的现实
温柔善良的▁SMALL求带走
▁DAILY▁PUNCH这个排版应该会被老师说
▁JUMP▁SCARE只发现一个裸女那里
最开心事冲浪▁SURFING误都女子浪协会
投票请网易链接大学城▁MODERNS兼职平台
▁WHATEVER是不管内陆怎么翻译的意思吗
另一个▁FLAG暑假必须减肥
更感谢各位▁RETURN▁KNEE的精彩分享
海贼很多伏笔和▁THRILLER▁BARK篇章连在一起
▁STIMULATE和长春科技细草的合影
看你这个公平是▁EQUALITY还是▁ACCURATEIVE了
▁GROWING慢力差点没散价你等着
如果不能嫁给你后半生只接受▁OPEN▁MARRIAGE
我爱的薪水水平吃下▁COOKIES也是可以的
差点没背完还是分不清▁PEDAL
要不从者中谁来个▁ALTER
第二第一版▁PAMPHLET是委员会的心血
是不把女人排除在外的▁HUMAN▁BEINGS
所以英文中的副攻称为▁BLOCKER
做个▁FITTING七星的错一版的秒拍视频
秘制抓拍我现在这个▁REMOTE是用的有点六
▁HAND▁OUT还是一脸懵逼日常怀疑智商
学校的▁RECYCLE▁PAPER都被你用完了吗
不过这真的是一个▁SILLY▁GAME包邮到陕西
虽然不急▁ROUGH可是比去年那两首好听
必要▁SESSION永远是好东西值得分享
但是巨龙▁MAJOR是真的好看
这个商业总工就是这么给力的哟▁SOUL
还在想那和方向▁COMBINED意义
第一次小泡献给▁RULER和奶爸的瓜皮
我穿了一件▁SMOKING▁KILLS背后是一个禁烟标志
真是活在▁BUBBLE▁WORLDS里啊生活随便伸手一戳
▁DISASTER一般用于有一个特别会让的爸妈
第一次爬到了▁CRACK的顶
工作和生活过得相当▁ROUGH
总会被别人说是带入职业惯性来▁WAKEN
男友力▁MINIMUM坐那里刷手机
纪念写完第二个▁FEATURE是自己太爱体彩
吃五分之一下去没见着哪怕一颗▁CHIP
吃完早饭跟妈妈▁BYE▁BYE就出门了
睡不着在看▁MARVEL官方▁APP上的杂志
▁SEX▁BOMB这首歌今天单曲循环
新的一周以▁CUE十三个▁TICKET开始真是心累
我们去看了一次▁ENJOYING▁LIFE
在他心中的▁SOUVENIR店长和华瑞总裁的定位
日本乐队▁PLENTY宣布解散
▁PRIEST持续地写出好看的小说
过两天的▁WEEKLY▁FROG下面自然会写
▁NOISE▁POLLUTION是这家邻居给周遭最大的贡献
我想有一天我会实现我的▁TEACHER梦
但是还没搞清楚这个▁TIME▁LEAP的三观
一个在▁SHELL中花费大量时间的人
究竟微博用也也原则去▁SENSOR
正对着我面对的窗户好像▁GANGSTER他怕的
要求提供▁PUBLICATIONS的▁LINK
▁FOLLOWER粉丝每增加一千人我会上传一个视频
有一个模板是▁ELEGANT超级符合李先生
▁UNION的▁STARVE真的是欢呼了起来
不是菜单上的是▁SNACK菜单里面的
XIDE九四真的狼哥听到这些描述我都想哭
日本▁SHELF剧团海达高布月中国巡演
基因果真是你无法▁DENY的东西
不能出海▁SAILING失败的一天
▁REDDISH如果蜗牛有爱情错误打开方式
感谢▁DENIAL老板手机下的风女人
总是被▁LITTLE▁SISTER叫起床我也是无奈呀
▁ALGEBRA的词义渊源和代数系统的定义
要分手拿着今天的▁SURGEON
不知道是不是那反正说的是▁CHEEK▁BONE
温大臣▁ONION过生日的人最美
在门口居然被▁BANSOR▁LADY拦住不让进
目击者很▁SHAKEN了话筒还戳人家脸钱
飞机上一路听▁AUDIO下来看了最后十分钟
第二十六天学会▁STROLL了很高兴
同一家店买双正常的▁LOAFER什么也不送
爱丽丝小姐姐给我画的我▁ALICE▁ELEPHANT
是毛衣限制了我一心玩游戏的▁BALANCE
说欧美人信仰上帝不如说信仰▁JUSTICE
我用▁MIXER打线或面很快
跑步机突然失灵幸好我机智▁EMERGENCY▁STOP
翻出了些旧▁CD突然想到我还有个▁WORKMAN
联想▁ABOARD是从▁BOARD衍生出来的
看完了▁SIXTEEN粉上的大猩猩还有救兔▁S
大家都在讨论▁OCCUPY的情况
刷朋友的▁VISA卡卖周边的我
努力让自己元气满满▁POWERFUL
▁ANGLE当年停得太不是地方了
再也不用被他嫌弃只会扎▁PONY▁TAIL了
大家对▁FOLLOWS▁STICK的解读无花八门
祝无双放了今天就是个▁BIKE▁GIRL
为什么还要骗我真的▁LAY了
张玄的声明撇得一干二静他才▁UNCOOL吧
求生命剧烈的朋友在做小飞翔▁TRULY▁MARVELOUS
突然想起来▁THUNDER在▁B榜也一周年了
这两天硬时做了几个轻轻爽爽的▁SNACK
这次的雪真的非常▁POWDER
最近这种感觉越来越▁INTENSIVE
我没有找到套路还是设计得很▁STUPID
虽然有点意外▁TRICK▁BONE不过比下面趴着强
来自初级道▁BEGINNER的新范呼喊
作者在▁INFO里给▁HINT还算好猜
皮肤干以至于▁BE▁UNIT指纹不识别
芒果▁TV的节目每次都这么新颖▁TEMPT
莫斯科政府在二零一四年上线了▁ACTIVE▁CITIZEN投票系统
▁I▁SWEAR这是我最后一次当伴娘
我的第一个采集病史的病人▁NUN▁CANCER四七
对▁DEFENDER无碍了转投入小红伞的怀抱
生命无形的变化对我来说就是▁FATAL
这也算打破常规吧▁NOTED
最后一个填空想填▁GRANA不知道行不行
做了饮食堂的▁MOTHER▁SAUCE果然是万能酱汁
就让我做你的至尊宝陪你下去▁FATE
再怎么也要真的瘦才▁FASHIONS
意大利男人的▁MUMMYS▁BOY传统
终有一天我也穿上红▁GROAN为学生加油
去个▁RESULT过过除了睡就是吃的日子
整套毛毯▁SET三百五十块价格很良心了
▁COLOR▁RUNNING很有意思呢我报名了
经历了很多次还是会有压力▁SO▁TIRED
滋润度友好性价比超高的▁LIPSTICK
爱福生暴怒狂飙了二十二次▁PRACTICE怒怼记者
张韶涵▁FADED呐喊这才是真正的呐喊
昨天第一次收到▁AMBER▁ALERT发出尖锐报警声
有写真杂志▁PROVOKE等相关的故事
是你哥的▁INTO不够吸引人吗
如果认真讲现在▁TYPICAL的国家栋梁们
真的很难受想想在▁MAINLAND▁CHINA
去灵印路的八九▁MANSION不知道能否遇到老板
也许他不是粉丝都喜欢的▁PERFORMER
至少▁SHUT▁UP也见过不同角度三个版本了
这里是不熬夜整候群▁SEE▁LOVELY
唯有求写语书才能让我看到希望▁SNEAKER
紫花地钉说是▁VIOLET也没有问题
不行如果▁FIGHT▁ASS这次还要去参加新说唱
多条细神▁QUARTZ就叫灯心绒裤
没用最贵的▁LAMER却熬着最贵的夜
把自己的生活▁HANDLE好认真的做自己
整个人非常高强度的▁GLOWING
金寒冰不到▁CLIMAX真的不甘心
▁LOOPER在的时候小虎的状态是这样
每箱一张贝利圣保罗时代▁MATCH▁WORN球衣
第一次买▁SPLASH系列的实体书
▁EMERGENCY有必须要做的事的时候
我的第一个想法是这是▁HARD的但不是▁COMPLETE的
▁TEMPT的指吸引力很强强调欲望被换血
不要把信任交给一个内心▁UNKIND的人
上趟提前三月都没定到▁OVER
火箭队真的是中国人的▁HOMETOWN队
▁JUMP了一份儿两千字的提纲
刷完▁ALTERED▁CARBON终于可以开始写稿了
▁WE▁SUCK这种话怎么能说出口的
全程就是走走走▁WEEKDAY来会轻松很多
▁OUTBREAK更新经常加入的游戏人数已满
八个人的▁BIBLE▁STUDY小组里竟然三个孕妇
每次就给这种几把纲要就要▁FANCY的呗
▁INCOME▁EFFECT商品价格上涨你的购买力会下降
今天▁REVISE就翻这首的牌子了
当我终于遇到那群温暖的人▁GRATEFUL
▁FROG超好看这亮片绝美
我觉得我自己骨子里是一个▁INWARD的人
嘻嘻有两个▁TEST阅读只错了十二个了
感觉走在路上随时要▁COLLAPSE啊
偶然听到了傻脸赛琳娜的▁VOICE
吃好后在▁HIGHWAY上大声唱歌
唉▁SWEAR以后回回去苏州生活
现在懂了为啥▁BANKING都是白男人
室友就是在▁LITERALLY的洗书
咦今天读完▁SHOCK到一个不行
以后可不能忘记拿鼠标▁MERLINS▁BEARD
酒泥第二场穿着大红裙子划了▁CREEP
这句话并不是▁JUSTIFY这种事实
先买一首▁JUPITER为禁今天把鹿王看完了
突然觉得学校的▁CAFETERIA其实还蛮漂亮的
▁LUCKY▁BALLOON里的小纸条以第二名的成绩跑完八百
自带滤镜的▁CASTLE和直指的我
特别喜欢煞道的▁FINANCIAL▁TIME的小哥哥
▁FARMER在火山上分享了视频
代码里少写了一个▁RETURN
我家宝宝烦饭小明肉肉是▁MINE
化学实验和▁HORN▁SECTION新加坡
还必须是有限的▁TIME▁BONDED
吃四方拉面的才是▁REAL▁PLAYER
我选择听着废的玩一款叫▁STEEP的游戏
▁PIOUS既有虔诚的意思又有虚伪的意思
一站告诉你什么叫▁TO▁SMOKE
▁DETECT到我行李包中的一块照相电池
每天睡前想到必须要跟▁YOUR▁PARENTS
直接报到学校▁COMMITTEE去了
我的骄傲我的▁PIONEER我也好爱你
▁SIMILARICAL▁DECAYS半清衰变
▁SECTION▁FOUR还需加强拼写比以前好些了
冷的时候用眼下和法令纹那块会▁CRACK
找小黑哥交实验▁LOCKBOOK没见到他
喜欢▁STROKES是因为听起来像英国的旋律
早上起不来床的人活该吃这种▁GARBAGE
▁HERB了太感人了我都怪放弃了
现在在和时差赛跑干最后一个▁DUE
我开始以为和▁DOOM一样是个社爆游戏
恭喜巴黎圣概念拿下首个▁MAJOR
伦敦的小伙伴欢迎▁COMMENT▁BELOW可以约抹茶
很好奇是不是▁NAKED镜头又被剪了
最深的夜肯无尽的▁TASKS
死亡倒计时十七▁HOURS通宵模式开启
昨日份的帅气▁FOOTBALL▁BABY女生
▁DRAFTING骑行的世界纪录是二六八
居然▁AUTOMATICALLY同时用两根手指挖鼻孔
▁DETACH让人忍不住一遍又一遍循环
已经快在其中了只想做一个▁POOL里娃
身边的朋友事业成功生活挺▁HAPPY
集中银河纳粹的书里非常▁PRECISE的一本
一直用▁SMOOTH形容杜兰特的投篮
图一早餐图二午饭和下午▁SNACK
利用法官交易▁DRUG体验总结左右缝圆
▁TWO▁MONTHS过去两个月就像一场刺激的天音
离开▁WENDY▁CITY的第一天想他
▁BLUE▁BLAST的西女士长都太倒米了吧
▁PRINCESS▁PRINCIPAL可以吹一不相当的文啊
每次看到心里都会很▁INSIGHT
我把▁DOUBLE改成▁FLOAT就过了我也不知道
亲眼目睹望花▁STAND▁BY的菊池
尤其我手机▁LOCK▁SCREEN用的这一张
来来回回调个▁FORMAT调了俩小时
感受下图形▁LOGICAL的魅力
▁JACKY们以后可以疯狂的自拍了
▁NH已经拿着▁INVENT卡活动了
为什么我的▁INS▁FOLLOWER这么多
大部分人来这里游泳划船玩▁PEDAL▁BOARD
如果给人一个▁EASY▁PUSHOVER的印象
跟我第一次听说▁BABY▁SHOWER想一模一样
▁ACCURATE▁PREDICTION有时候也不是什么好事吧
▁BOOM品牌电影首映期待的搓搓手
毕竟假人笨觉得十分▁AUTHENTIC
用冷静的语调说出▁TRACE▁ON
我果然喜欢这种▁SINGER多一点啊
▁DECLARE一般用于较为正式的场合
你咋不叫▁FAKER再暗示你了
重点是放在自己国家的强项▁RUGBY▁LEE
▁STUDY▁ABROAD一年的挑战性真的太大了
内心没有波动很▁FUN很服
一个可以填在表格里▁EMERGENCY▁CONTACTT哪一栏的人
▁GUESS头号玩家真的好看
不足综合征已经严重到坐在▁FARMERS▁MARKET
因为年龄大而选择▁MARRIAGE
第一天▁FITTING武汉阳光美术
第二天没有▁TEACHING▁PRACTICE就十点多上床睡觉
▁PROJECTOR反射是水晶花的反射
▁ALTER的声线请允许我先脑补一下
我的▁FOOT不过花钱地还是满刺激滴
二流程序员写▁BUG一流程序员写▁DUMP
现在很多▁DETAILS都不记得了
我狂吸黑发黑西装▁COCA简直是暴击
▁NEW▁DIVIDE我的桑桑生日的好运
一觉醒来就步入大宝▁TERRIBLE二的后程了
你再省点▁WEBS给我吃一口
和▁SHABBY在健身房他真特么吵
决断而且迅速地采取行动▁ACT▁PROMPTLY
要加▁PROCESS于是去掉了两个项目
我相信▁ASTRONAUT会一直保用我们的
看到▁SPIDER▁MAN就会想到和朋友去加工仔
明天我愿你和我告个▁BY说个谎汗
熬过七个▁FINALS两个论文就解放了
作为▁WASP代表的大魔还真是
绝不是他们口中的那个▁COWARD的人
一路向南▁HELLO▁SIDNEY澳大利亚黄金海岸
看好你的未来▁OPERATIONAL
第一次看到龙宝石就好喜欢它▁APPEALING
唯独就是▁AGENCY辛苦在▁M▁R▁M后每天开三十分
好像发现了▁BYPASS在微博直播的方法
▁WORKERS的泰国甜辣椒味薯片
原来是没有▁PREFER的地点的人生
一走进店里就是两张▁COMMUNAL▁TABLES
两年研究生花一年半在第一步的▁TROUBLE▁SHOOTING
完结才搞清楚不是▁PRINCIPLE实在惭愧
▁SHIP今天不会睡觉的坐等再努力▁X
▁ALL一二三窗回头大骂里才是猪
希望周二之前能找到一个▁SOLUTION
早安宝贝儿蔡徐坤加州阳光如何▁MISSING▁YOU
是不是想到了▁FRA▁GRANT芳香的
做完▁FITTING我觉得我要去看古外科了吧
杀破狼▁PRIEST皮皮想写相爱相杀的
▁CENTER真的超帅子艺也帅加油加油
本文我们分析▁FLASK怎么看待请求
还能看到▁DAYDREAM里自己▁RAP的土土帽
和▁CHAIRMAN的爱情最后一分钟得以见天日
最后一篇写作课▁FORMAL▁PAPER已经放飞自我
想给某校▁ADMISSION▁COMMITTEE写一封信
好久不锻炼今天参加一课▁BODY▁COMBAT
又是一个超出▁CALARY▁GOAL的一天了
发现梦中把▁DIVE说成了▁DIVIDE了
和老板▁NEGOTIATE能否多一些时间在家里
今天基本把▁ARGUMENT然后也布置了作业
哪所大学的▁EXCHANGER是不需要英语差不多
聪女士葬礼上献唱强者战歌▁FIGHTER
应该把培养了多少▁FACULTY作为一个指标
吃完这顿该减肥了▁FLUTTER▁FLOAT
继续来关注了这个第一集去了哈▁UNDERGO
找到▁OBJECT我就把这条朋友圈删了
▁BACK▁LOAD为什么不提前写了给老师看
有一个▁SECTION是早上八点的课
今晚没在家不能更新▁LETTER的了
看来是要被狠狠的伤过才会▁GROW▁UP
▁DISCOVERED▁IN▁CHINA的候选药物已经进入临床试验
点了一百遍▁UNONTED还在给我推荐
让阴雨天坏心情死扑街▁HUM家
去了匈牙利会▁EXTEND去这个小镇吗
热的英文▁HEART冷的英文冷
还有一首▁FADED希望它越来越好呀
我逃去看戏精神上等同于▁HAM出轨
▁FEMALE献给所有家人
一上午学会了一个词▁ACCESSION▁NUMBER
希望自己对▁MODERN▁ART会有更深的理解
希望今天的▁QUOTE对大家有所启发
分享图片我们的团队叫▁SMARTS
▁JUNK▁FOOD我没点说我也是学过营养学的了
被输影疯狂安利的▁COLD▁BLUE
软软是个▁FICTIONAL▁CHARACTER我开始有点喜欢他了
今天课上▁RELIGION想法与行为无法理解
送▁DAY▁CARE的前三天表现超好
最戳中我的点是空之前的▁STAND▁BY
没有钱只能成为下水道女孩▁POOR▁GUY
生活呀还是以▁MATURE一些好
我和▁WILLS成为了亲友见着我们的友谊
工资还剩六百元的话就买▁RIDDLE▁JOKER
胖了三斤的一中午▁GOOD▁NOON
这张曲是▁PARADES▁END里面的吗
▁ALTER的▁CARBON男主真的和记忆老师有点像
支持我的▁BELIEF会好好学习韩语的
北海和火腿同步先至▁TIMELY啦
只有等明年九年义务教育了▁SWEEP
心情和天气一样好▁NAUGHTY啊
这个有爱的▁AGENCY接触久了
一小哥问我买不买▁BABY▁SHARK
说成▁TABLE▁TENNIS的是粉丝自己
不可能换手机了▁ALWAYS▁PICK小呆
还在苦苦纠结雅思阅读▁HEADING题吗
是▁MANIPULATIVE的反义词也是▁CONSIDERATE本身
很好的▁PERFORMER呀各种小情景的设计
穿着小熊▁T<unk>SHIRT流着泪唱北斗心
▁CHIN在跟我描述这件事情的时候
头型很有意思很搞笑的宋丹丹▁SIGNIFY
小▁PET作客三台的一档美食节目
呜呜但是抱抱各位没抢到票的▁JAM们
几家▁BANKING的拿来参考全都经不起推敲
天气太好又去▁TWINKLE打卡了
我的心态轻松愉快地▁SUBMIT了
▁MOVE的笑声好应景像狼叫一样
▁PS▁COMPANY表示公司也表示陪伴
请给▁SUNNY▁ANGLE做的人鱼击气球和泳圈
和工作狂做一个▁CUBE真崩溃
我在等着看看这个去的呢▁WHOLESOME
每个沾美粉都有自己▁SHAPE沾美的理由
一周去▁GLOBAL两次也无法宣泄的情绪
咦李鸡最后那个▁BLAZE千万别是故意的
每天从驻地新鲜送来大脱螺才六百▁YEN
黑白配最新▁POPPING编舞▁HER
边教科书也可以很▁DRAMA
图书馆买的▁SUMMER搜索太给力了
赤▁PACE科生日快乐我要你每天开心
▁PEER三九挂满装饰的圣诞商店
有些老师为所欲为很▁DEMANDING
英文辩论是否使用▁HIDDEN▁ROLLS达成目标
给家里做▁SAFEGUARD的是两个比利时人
祝贺好友的二十一岁生日电影▁PRINCIPAL
我并没有全盘的就否定▁CN▁JOE▁V或者▁PARTY
质量超高的同仁▁VOCAL和▁COMPOSE都好顶赞
试着把▁JAVA里的配置提出来
背单词看到▁CAPSULE嗯有胶囊的意思
▁PEDAL需手持不通过铁环卡在传言儿
做了两杯▁SMOOTH超级悠闲
这个▁SCHOOL▁DISTRICTS到底包不包括某贵校啊
想去找找昆明有趣的▁CAFE
请各位参照今日的各大▁DESIGN门店
▁SPARROW还咳得厉害减肥的我也不吃蛋糕
难道我坐上了回喵星的▁SPACESHIP
应该给夫人买的好多▁NAMER
终于入手了第一款▁MIGHTY▁MARKS
我们会就这么幸福一辈子▁FLATTER
此刻的心情其实是▁AWKWARD
成绩不错和▁MASCULINE组合一起就是有出息
柏林有个烘焙咖啡豆非常棒的店▁THE▁BARN
在▁SOUTH▁GATE地铁站觉得自己有些▁RUDE
这次把洛基山脉的▁WILDLIFE看的差不多啦
看▁HATEFUL吧就是一种升级渡气风的感觉
你去投胎穿过▁WHEEL就会忘记之前的记忆
那么多年的油画原来我就是个▁LOWER
像乐高克那样有锻炼思维的小▁TRICK
一直很敬佩优秀的▁BEDSIDE▁NURSES
他怕老师看不懂才在旁边写上▁BANANAS的
修图什么的不存在的让镜头感▁VANISH
都是工作太▁INTENSIVE透支了精力的缘故
边吃边聊学到了很多▁TRICK
小月远迷离的小眼神在▁CHATEAU笑成傻瓜
调度员简报也只告诉▁OFFICER无视▁NCO们
▁SHIP今天不会睡觉的坐等再努力▁EX
这才是▁HONEYMOON该有的样子啊
小幻的▁WORLDWIDE牛屁股也好萌▁SAY啊
在美同看世界正准备▁ORAL▁DEFENSE的我快瞎了
我应该是不喜爱▁BIOGRAPHY类别的
给外国友人安利一兴忽略打错的▁RECOGNIZE
我▁LAY了拖单是不可能拖单的
谢霆锋好帅气啊真的最爱他了▁PRIORITY
简直看过的最忙的▁DANCE▁REALLY了
根本意识不到自己的▁PRIVILEGE
看着▁SPEAR▁BARREL的我只想绕过去看它背面
好像听到了一个声音在说▁YOU▁ARE▁COST
难道是这几天听▁BRIDGE的歌听多了
我以为是七零七在捣乱一看是▁UNKNOWN
想起当年▁FLOAT的时候▁K▁E那个韩服变身
开玩笑说阿姆的▁CYCIST是游客终结者
累成狗不适合做▁BUYER网页链接
事情不要怕害有人需要你的坚强▁REMARK
但是▁LAW啥玩意儿的靠不住的时候
程序员的工作就是▁COPY▁PASTE
这儿的食堂播音是▁HOLDER可能天福
简洁二狗哥听说你们想偷▁JET查底底
旅团主题曲副歌感觉就像是把▁PRODUCER
脑子不清醒的不应该相信自己的▁ACCURACY
周六直播给大家看▁NEW▁ARRIVALS怎么样
不然就得买个会员或者▁PACKAGE
晚上睡不着起床看▁HANDOUT到四点半
付完票钱浑身散发着▁POVERTY
每个都好搞笑▁STAR▁FARMING考试前就听说了
我今天一定得练▁CRACK▁CLIMBING了
▁NURSERY的卸妆膏柚子味的比较热门
▁SPAN▁CLASS香港一楼晒满鱼翅画面触目惊心
我想跟周奇洛一起去▁SOUVENIR吃
▁SNAP计划对工程研发部门裁员一百人
没有钱这个东西就没人喜欢去玩▁DYNAMO
什么场合下用都不会太跳▁TUNE
忘了带▁HANDOUT还忘了带书
有▁READER的版本还是打算玩儿一下
我觉得还好除了▁PISTOL和▁W
千千阙歌▁ENDING▁OWL的秒拍视频
就算撑着▁POLLY她也是女王
最可爱的▁KELLY▁DOLL保持增值的极品
当▁RIDER要什么载具换他就摔他啊
回同安活动范围里就只有▁WORKMATE
但凡找天天重复嘛▁BE▁CREATIVE
越长的文章他内心的▁BETRAY就越多
国内有哪个队有▁GAMBLER这种指挥吗
摄像头肯定是被▁PURPLE的口水腐蚀了
潜伏是太多导演二气味的▁S▁DRUM▁SCARE
下半年全身心准备一个考试▁FAILED了
光要我一整段人生您又加▁MURMUR
定了▁EXCLUSIVE又不是真正的▁RELATIONSHIP
▁COIL这点是比什么都重要
最后的一一二一哭的我▁DISK二还没敢看
▁COLD▁VEIN还没发售就风瓶被害
北京室外的干冷让我想起了▁NEW▁ENGLAND
我一个▁TRIVIAL青年人处在▁AVERAGE的努力程度
莫名其妙多了很多科学家的粉丝▁GROWTH
十元李美三十岁写真集▁ENCOURAGE
▁STUFFY▁MIRROR的保守的不通气的
求个▁OUR▁GLASS六色▁VOLUME三的盘子天价就算了
诶都多少年了才出访一千两百▁BOOKSHOP
▁SWING▁SWING简单最快乐快乐又简单
我第一反应竟然是要不就▁QUIT了吧
以为▁TRAINING时候一桌的女孩子就通过了
心中已经和▁SOMEONE做了很多浪漫的事
我在车上随便写▁FUNCTION真的有点好看
知道▁REACTANT▁PRODUCT就可以直接写出来了
我今天终于成功打开▁THE▁MUSICIAN了
来自凌晨三点半的▁JANK▁GIRL
▁PRINCESS▁PRINCIPLE要做成剧场版共六章
寻找▁CHILD新装备需要磨合
也还会有小范围的▁IMBALANCE
我的城市下雨了希望嗯▁BRIGHT
这事写完▁REPORT和▁ESSAYS且要开始放春假
唱了一个一分钟左右版本的▁JUPITER
想就一直躺在床上听▁NOWHERE▁MAN
爱国者将送出▁BROADEN▁COOKS第四轮
又一个同学发文章了▁SALE▁REPORTS
我还是太年轻▁IMMEDIATE▁REACTION好气啊
热心的直接说▁WARM▁HEARTED不就完了吗
自从学期变成▁QUARTER之后
我完全不觉得▁SCORN全是恐怖游戏
像两只小▁DOLPHIN巴拉马巴拉马城
但你真的有▁EXPLORE它的完整用法了吗
是不回我邮件不给我▁APPROVAL的法国人
陌生的景熟悉的我们美好的一天▁ENDING
我很▁SINCERELY你希望你能怎么做怎么做
背着▁DINOSAUR书包探险也不错
▁QUIVER你一定要试试特别好用的
曼卡拉雷▁FEE都市女性车
▁PUNCH小姐来了啊啊
我对▁NAKED三真的是又爱又恨
就是一个很简单的▁TRICK
这一刻的小时光谢谢狗爸送的▁LAMER
今天和猫眼▁LED荧屏合照
买完▁EXTRACT播放不了真的扎心
深夜带你认识▁TRAP占地印了赖表的秒拍视频
▁LAMMER没有了包没有了衣服没有了
想想身为人类所拥有的这些奇妙▁SENSATION
大概是没资格做▁TV▁SNOB的
希望你每天都能拥有▁POSITIVE▁ENERGY
虽然没排到▁SALES满足了
眼袋你还是最棒的哟比心▁LEASE
哪里来的自信觉得自己▁HANDLE一切▁OK
缺席▁UNLOCK之后的又一大遗憾
现在回头看▁BLOODY▁MONDAY的卡斯真的很绝
香喷喷的▁COOKIE了解一下
真的是很优秀了▁CUBE有救啦
纠结了整整五分钟的▁INVENTION是不是发明
原来韩露真的好有爱▁SIGNIFY
念度不够的悲哀▁COST也不够
希望我还是现在的我▁NEVER▁REGRET
换完级数这个作了三遍的▁SCENT
这几天都▁MOUTHFUL▁MOUTHFUL的吃药也不见好
日子是真的涉遗啊▁FAREWELL暑假再见
▁VIH▁O才是真正的▁CHAMPION大连数马路
▁GRACEFUL这个词最合适的人是贺本
听孙教授的▁CONQUENT一脸茫然
爱吃鸡翅的人变笨了▁BYEBYE
二十一号就要开始▁FACULTY▁ORIENTATION了
小指头和山沙是▁ROMANTIC的关系
▁SIXTY▁SIX首次与大家见面多指教
竟然一天内解决了四件▁ERRANDS
今天又看到▁HUSH也要出专辑了
完全没有想到大大居然是我团粉▁SHOCK
忙了一天终于把所有▁TICKET都踢回去
▁WALKING▁LOUNGES做了三十个已经脑残
明天继续▁PERISH应用详细
即使一直在▁FIELD也要保持微笑
▁RENEW每天的话能不能还写在工作中
我占▁SEABER兰陵王▁RIDER猴哥了
半夜回放金希澈的直播最后听到▁BREAKDOWN
电台里还放▁CHERRY▁BOMB扎台型有层次
▁GATEKEEPER保证多方声音都能被听到
这几个大叔的组合名字貌似是▁DARK▁DUCKS
每次遇到离职谈话仍旧很▁SHOCK
地井炮炮架的英文原文叫▁DISAPPEARING▁CARRIAGE
支持▁MODULES是最大改进啊
我阴阳修炼手册火物的▁COPPER▁HILL
我会不会是一个足球侠呢▁SINGULAR
▁BELL正在腾讯视频热评
这个▁A▁A▁A▁A▁A▁TRUE真的笑死我
所谓的安▁BENT▁TV在网上开始出现了连接
▁CRUEL的▁ASSEMBLE今天看来还蛮神奇的
但其实放在公司里做好像会更▁EXCITING
民法好像也只能强记了比如▁FORMIC▁ACID
喜欢赚钱打游戏吃好吃的看▁STAND▁UP▁COMEDY
今日之军事博主提问哪一把枪▁YOU▁PREFER
▁SHIT▁OFTEN不踩狗屎怎么硬了狗屎好运
又成了大浪货的▁LAST▁CUSTOMER没扫逛一遍
在知乎上看到有个单词很有趣叫▁DECORATANT
▁TOMORROW前面的朋友们蹦迪一点
▁HONEYMOON结束好多都塞不下了
午饭是▁UNION▁HOUSE的东方美食
有八句话不离▁SYMPATHY的小哥就是个中二
可是再下一章的时候也不得不▁DIVIDE了
晚上去▁SOUVENIR吃他做的饭
迷雾▁MISTY看迷雾后一直在神秘露肩裙
这是一张暴富图哼我今天就画▁KEYLO
在▁CROW组每天发糖的甜蜜里
全国计算机二级考试考的还是▁AXIS
▁DEAR▁YOU真的生命里与我相克
以前用着▁TEMPLE外语不通
希望周末去看▁CYCLY▁RIS的时候
立下严重的▁FLAG▁WEEKDAY坚决不玩游戏
太费心费力直到▁ABNORMAL都变成▁NORMAL
人生接下来一切顺利▁BLESS
用▁GREETS的高度看视频秒拍视频
▁REACTION给我的观感比微博好太多
跟上次▁CAMP一样担心我冷带的衣服
两个小蹲完苍穹之旅▁QUEEN一百三十二天津和平区
来我一旦进入▁PERSONAL的层面
和可爱的人看风景▁LUMINOUS爽
发现喜欢的▁SINGER一直都是创作女歌手
在这里给辛苦▁WORK的小伙伴一个抱抱
签了公司还接了▁LEMA的官方推广
糖果手机▁SOAP千元全面屏新闻发布会
人家其实是快消费更多是▁TAKE▁AWAY
每天早上▁GATHERING时唱歌跳舞相当享受
▁CUCKOO▁CLUBS是德国瑞士和奥地利旅行时
周三▁BADMIN很日燃烧吧脂肪
我有强烈的预感会考到▁POLITE这个话题
对于所有的▁DANCER来说是不公平
才知道▁UPSET重音原来在后面
是▁LIPSTICK的变奏好像耳朵快瞎了
最爱的一家▁CAFE的▁TAKE▁AWAY
▁THAT引导的是定语从句修饰▁MODELS
▁ASSUME别人的东西自己可以站为其有
秘密登上星期▁MADAM▁FIGURE封面
请问这位哲学家是不是叫▁CLAP
呜呜呜呜忽然爱上了▁NAUGHTY这个词
就这个演唱会绝了我一定会去看▁WHENEVER
要重新做▁BIKE▁FITTING改设置
▁DESTINY情人节手工草莓巧克力礼盒
▁ASSIGNMENT▁STATEMENT设置在内存地址中的值
那个▁BLACK▁SWANG就都把我的阿严吓成什么样了
▁OVERNAP我大概一个周都不想再做实验了
打算借张▁VISA进行最后一搏
早上吃了劲与▁PACK的爱心三明治
午后的阳光和英文版的▁SOUL最佩懒
▁FIELD▁TRIP我们要搞九天了
看完了每一个描述每一条▁ANECDOTE
阿迪达斯被一▁QT需要的顾客来
还▁WHATEVER自己做的什么事
大本钟来个▁TOURIST到此一游
献上一张爸今早热身照一根▁STIFFNESS▁FIVE
完成了▁OUTLINE开心到飞起
▁SPIDER们看蜘蛛先生之网感慨大自然神奇
▁CLOWN李浩林三十天推李浩林挑战▁DAY十七
再不计也至少是高薪▁FUBITRA的
如果不能▁WITHDRAW了会怎么样呢
我的▁OUTLINE写得不好你别看了
还要多少▁PROOF来▁CONVINCE自己其实不喜欢他
果然一个▁TEAM两个人▁HANDLE还是有的压力的
脑机接口下一个前沿地带▁BRAIN▁COMPUTER▁INTERFACE
特地去▁SEE▁SHEE尝面包可送味道赞一个
下半日的忧伤还要▁HUGE大呢
▁REINFORCE的时候就会加入很多想象
一间公司的印象就在▁RECEPTIONIST
把▁FARMER万古静脉一条生静脉译成浅静脉
这部喜剧电影上映一定跃起来▁QUAMER
如他九零上堵了骑马三公里
简单打个卡吧练练有词▁UNIT
学▁CAREER的好处就是让你对前途更加迷茫
▁FOLLOWED▁BY十五小时的飞机
画的▁FAKER短袖啦拿出来晒一晒
来一整套▁STUPID的少女心的素材
但我学的专业其实是▁MORAL▁SCIENCES
受不了受不了北方女生的▁AES▁HELL
最近也爱上了▁RUDE的各种奶
特别▁NEEDY的狗的好好忽略
现在就等绘制欧尼回来▁HAIRCUT
出▁SUPER▁JUNIOR八级▁POSE版龟贤和力序守信
我们会把白大褂成为▁GONE
▁THIRD为什么要去参加泰国一零一呢
▁WASP是内核美丽监视外壳
这个威化好吃▁CHEESE味重但也有缺点
但是第一集的▁TRICK恰好
回学校一定要喝一杯带珍珠的▁THIRSTY▁GUY
▁CEMENT作为名词讲有水泥的意思
为了写篇论文研究了一晚上▁O▁E▁C▁D的▁TEXT
已经贴了两天的▁SWEATER了
那三个随机主格唱▁PROBLEM的小姐姐
让我▁ACADEMIC词汇量瞬间达到八千
我是不是有点▁OVER▁PROTECTED了
结果我今天再去看▁COURT
希望刘浩然在里面就完美了▁PROCLAIM
终于成为了一只流下眼泪的▁SAD▁FROG
今天都激动了一瞬间以为捡到▁BYPASS了
▁SEAWARD济南恒隆店竟然在放着生日歌
我们没有▁HAWK因为我们玩▁LA▁COURSE
看白中源的▁FOOD▁FIGHTER成都边开头的场面
▁PROPOSE和▁DISPOSE的关系打给我了足够的空间
小朋友去▁DAY▁CARE的第三天
大概背了三遍笔记和四遍▁HAND▁OUT
让人心疼的小孩子啊我的小▁INGENIOUS啊
去年时装周的时候▁FITTING的就是这件
今日词组▁BOOST注意发音哦
网友用▁MINI▁Q三▁KIT打的作品六十七个组件
路过才发现上头▁MAIL的标志
靠美元朝我们应该去怀念历史▁DI▁AMATEUR
是▁JET▁LAG还没调整过来的缘故吗
▁COST▁SAVING没把握好的结果就是这样
做人还是不要这么▁MEAN吧
二零一八戒掉▁SOAP▁OPERA还有各种要努力
中科小菜椒刺西买的▁BO
▁SLY姚明阳朋友不联系他很生气
不需要关注只就缓解▁MENTAL▁DISORDER
总决赛▁FINALS还有看点的一个系列赛
关于苹果电脑里▁PAGES▁NUMBERS的教程非常有限
然后车停下来还被警察▁PULL了
▁BRIGHT▁STAR最后一张纯属凑过了九张图
建筑商还有▁SAFEWAY▁SAFEWAY是干啥的
今天状态不好礼拜一综合症▁STRESSED▁OUT
出一套魔道祖师无中台历▁SET大全套
如何从▁LAVATORY辨别新旧飞机
自己蠢哭了做英语题居然选了个▁MORE▁SAFER
▁TOILET守护神会庇护你的
他性格很▁TOUGH自尊心胜负欲强想法深
我▁CUBE对面是一个台湾小姐姐
现在▁SNOWBALL已经购物够疯掉了
▁INTERNAL▁SUFFERING肖琳影视的微博视频
用过龟肉▁LEMMER润唇膏最好还是花蕾高
▁SKILLS的韵律真的把持的好
这里举木肾我给满分坏坏的▁GREEN
▁ACTION▁TWO路过百店买了个水果盆
不过我觉得▁BULLY和第一集比帅了很多
同时吸十几个便装▁CLONE科
修改的▁PATCH都亲自写好给了
果然每天要来一遍▁SELF▁DOT
▁ARGUMENT的开头段比想象中的南下笔
我的▁LADDER你们什么时候能还给我
前门的▁PAGE▁ONE导航居然定位不到
用师姐的硬件加▁UNITY上位机延时很大
看到标识一直在想▁FORBID与▁PROHIBIT
吓到老师了老师就很惊讶问▁RALLY
从今天到五月底的▁TIMETABLE先来十个灌饼
都顾不得拍照片的▁THIRTEEN西安
▁BLACK▁TULIP睡毛小金眼神好温柔好心动
最难的不是多写是山道不能更▁CANVASS的纸
无论是▁BLAST还是▁CHAINS都是很努力
▁TECHNICAL▁DIFFICULTY估计是人偶的舞台那里出问题了
估计是史上不靠谱的▁CORRESPONDING▁AUTHOR
豆芽和温暖的点赞了▁SHOOK的形成信息
猫我草难道我坐上了回喵星的▁SPACESHIP
我绝对是脑子都消耗在▁HIBERNATE上了
有的人真的会突然从你生活中▁DISAPPEAR
一天可以把一▁LOAF的吃光光
抱怨我家▁HARRY▁STYLES不来中国内地开演唱会
逻辑陈述和▁LOGICAL▁TEST各种题型看一波
让人真的看着很心疼▁RAILROAD
悉尼当地法院被偶▁REFUSE将重新开庭
明天▁ISSUE简单▁ARGUMENT写过阅读蒙的全对
泰晤士报主曼彻斯特的记者▁JAMES▁DARKER
我应聘端茶倒水的不懂什么▁APT什么▁PORK
粉了三年▁MAYBE终于有冠军了
毁容的英语表达为▁DISFIGURE
基本上想▁QUITE的睡着是不可能了
我期待了那么久的来报▁SPY
这一组美食照片送给▁MEAT▁LOVER热食肉一族
和几个朋友分别不约而同聊到了▁SETTLE
书包里装着▁WORKMAN就放的是这首歌
第一站从长沙飞北京▁CANCELLED
▁GREEN▁AMBITION真是听着感觉心灵都被净化了呢
买了一堆▁LAMER和好几盒▁SK
有几个孩子孩子上学问题要买▁LAMER
还以为是你▁VIRUS连快手名都一样
就是你们啊▁TOO▁SIMPLE就是因为爱
上期我看韩语七▁TO▁SMOKE后面有变数了
顺便支持一下老弟的▁SMALL▁BUSINESS
带着激情加入学生会的▁FRESHMAN
接到两旁的不是▁FOOD▁TRUCKS而是京东六幺八
下午上▁ACCESS实践课时遇到了孙少俊
▁LATER韩国美眉们美到极致
明明说好的韩冰能够▁COUNTER女警
用户可在手机▁PAID等移动设备上
▁UNIT舞台后一直在我们这边
可以让我了解明星的事情▁THERMAL
第一次看到这个词的确比▁COLLEAGUE更精确
今天还有我的▁TABLE▁TENNIS老师
▁SUBMIT将于二月九日凌晨一点开战
▁WHATEVER这周健身任务完成了
收到了俱乐部▁CANCELLED的礼物
真的可以说完胜▁LEMON了
有没有三幺五的感觉八▁DEEP▁WATER渐渐的
有爱就说出来青春没有遗憾▁REMAINDER
同一个算▁DIVIDEND的公式我真的是崩溃的
我他妈▁LITERALLY要被蒸熟了
刚才外教课▁ACTIVITY要集齐五个办法
在此之前我还以为那是他▁GRANDSON
宝宝等着我现在就去给你▁VOTE
外资日子太舒服比如日本的▁MEAN▁BANK
第一节▁ALEXKA▁INTERVIEW串了去年春天
▁GREENER绿林小铁锤一个劝后八
这一年来第二次▁FAINTED什么情况啊
居然连▁DENTAL▁MEDICAL都不认识了
看了几集▁DECADE感觉不太理解
正面的评价就开心的我▁KEEP▁INNOCENT
感觉心情有点变▁BRIGHTER没有之前那么▁DEPRESSED
掏出我的牛津字典随便查一查吧▁UNIVERSE
属地的▁CIVIL▁DISORDER太酷了快点再出新歌吧
急不及待就做了两款不同的▁CHEESE▁CAKES
这代表着最▁CORE的自我定位
还指望他和后续▁LANDER接应呢
大家一起玩▁JUMPING▁CASTLE又笑又闹很开心
许多片歌都有啥▁CHASING▁PAVEMENT首唱哈哈
第一个单词都是放弃就算它不是▁ABANDON
最神奇的是每次居然都有重要▁SUFFERING
难怪秦始皇追求长生不老多一个▁DECADES
▁SAFE▁FUN吃饭主管停车到新天地停车场
▁NARROW▁DOWN首先学会确定什么是不想要的
有一个▁REGULARATORY▁FACTOR基本是咱学校垄断的
远轴半夜和近轴半夜宽度用微▁RATIO不妥
▁HUNTED虽然题材很好玩儿剧本痕迹严重
比上次更圆润点儿的也不会▁TALES▁SCORN
又成功的喜欢上一位全能▁DANCER
▁HIGH▁KICKS三短腿的反击一二三级的韩剧
▁COIN▁SCORN听你说了一遍就记住了
到▁BANKCOCK不要到水上市场玩
没有血管彩超▁INVISIBLE历时三十分钟
用▁TERMINATE表示合同中止而不用▁FINISH
昨天刚接受了校内▁PARTTIME
无需那样▁TRAGEDY来为生命点缀色彩
在西班牙▁CONQUER玛雅文明区域
周日的▁CINEMARK爆满全场很棒
学生利益难道不是学校的▁TOP▁PRIORITY
感觉▁WELL▁EDUCATED的人都不大会信这个
我是▁HOLLOW一个没什么才华特产
▁PORK▁BARREL是个美国社会中较为流行的俚语
可能争吵是因为害怕别离吧▁WHO▁KNOWS
除夕▁SNACK以及一个空瓶剂
最近发的歌▁COSMOS大自然的花开的都好棒啦
而且没一个人抱怨两个▁TEENAGERS
这个游戏不是▁TOUR里面的吗
让我在一条路上走到黑▁NO▁DOOR
我一定在假期▁FINISH我的阅读作业
做了糖减半再尝试肯定不如元芳▁MOIST
▁IRB终于▁APPROVE了第一次竟然改了两轮
今天见识了啥叫▁LIVE▁IMMEDIATELY
一周做了三次▁CALIBRATION都不难
难题不会要那种不算分的▁WORKSHEET▁HEADOUT吗
我第一反应想到的竟然是▁KNEEL
出门打卡▁BLUE▁MOSQUE马来西亚
我也要多多的来支持你们的说▁SCARCE
看到发图配置我下都吓死了▁BOW爆了
外国爷爷还真是▁WARM▁HEARTED啊
到底微博里说了几个▁AWESOME
大灰真的什么▁CONCEPT都说坏的好好啊
你应该拥有自己的▁FAIRY▁TALE
美妙的凌乱感令人着迷▁DRESS
没有重来只有自己好好▁SACRIFICE
两百▁BITS▁SPEECH很好的知识普及同时欢迎反驳
真的一个▁EMERGENCY就可以了
结果说成了你可以闻到彼此的▁BREASTS
不明白当一个▁AVERAGE的人有什么不好的
见面的感觉未曾改变大大大▁FAT
不要在我专注的▁RAID时来烦我
▁OLD▁FUTURE先听到会背词再说
从最初在▁DISNEY▁CHANNEL看过之后再没有重遇
我六点从▁LAMB回来励志早睡
每次大▁PAIR寝室熄灯以后
▁OPERATE小编点评小空间如果隔断
要做一个▁PROFESSIONAL▁HR
字太多不想看就点了▁DISAGREE
新闻当天初稿不是很▁PUSH吧
于是一字一顿地跟他说▁I▁SAD
有点小矫情拿出女汉子的洒脱▁BY▁DARLINGS
用的是▁ROAD的▁VIDEO▁MICTRO试试效果
三天的▁CUP有美女陪伴还是很幸福啊
我查了帮助试了各种▁CLEAN▁UP方法
这是一种▁RECEPTIONIST的特殊功能吗
不过今天城堡换一秀▁LASER射线太多了
终于见到这群猪了▁CORN▁CHAIN
这么一个团队好强大的▁UNDERLINE
不知道七哥要去上海▁DAYDREAM音乐节
▁BUILD一次系统时间那么长
我岂不是▁SUPERMAN可以拯救世界了
我突然发现音源版的▁COSMIC▁RAILWAY
携手广外▁EXCHANGE让我们行动起来
布华卡直接走▁EMERGENCY通道去坐地铁
很多人说他目空一切太▁COCKY
去泰国时软件用▁GRAB类似于滴滴
明天▁CRITIC▁WEEK一定要跑日本去看樱花
今天吃了▁BOIL发现没以前好吃了
这种所谓的▁REDUCE▁FAT最恶的根源
听完▁MINI▁DISASTER开始我就整个人都不好了
邀你一起健康享受生活你来不来▁PEARL
▁SHERLOCK▁CONFIRMED这啥昵称啊我的天
真的很开心期待着你们相聚的大▁BARN
给大家看这个一件▁TOPS穿好久的省钱▁GIRL
网易云音乐中的▁COLD▁SHOULDERS下面有一个评论
颐和的▁INTERVIEW这个名字听起来耳熟
▁VO一▁LOADER有专门的文档涵盖各种配置示例
原谅我一大早就被▁PENNY
▁ALL▁ONE▁TWO▁THREE参加的是豪华团一个人住标准间
把所有的▁CURSE送给你们
王源的声线真是好迷人呢喜欢听▁CONDENSER
因为那里的人让我觉得太吵太▁MEAN了
▁BEST▁REGARDS罗马尼亚的朋友都全家出国游
感冒肚子疼想回家▁LIE了
我靠刚才貌似看到了▁DARKER
我就不能边▁STRUGGLE边看起来毫不费力吗
只是看着你我就满心欢喜▁SUCH
还是年级第一啊都没有▁PRIORITY的
▁ESS阴性词词尾表女性或母性▁HOSTESS女主人
这些▁BLANK▁SUIT的舞台太帅了吧
它将▁GULF视作毕生追求
导师叫我过去收了说他的▁IDEAL
你要感谢我三年的养育之恩▁IVORY
王祖贤这张动图真的▁SHOCK到我了
和珠最好不要▁SHARE一事
请简单解释下目标检测中的▁INTERSECTION▁OVERUNION
在▁GET▁LAB搜攻略搜到的闺蜜
脚线狐狸泥地拔不出来▁PINCH可爱极了
▁COSMIC▁RAILWAY刚出来时没有翻译
▁GO▁AHEAD的酸奶饼干普通的好吃
或者成为▁NOBODY成为自己
让老公把▁ROCKS通通卷起来收车库里
我貌似贼眉鼠眼在这呆了▁THREE▁HOURS
总会有人不喜欢是不是▁FAKER
我心里以为我的▁CLASSMATE对我很了解
等我找个完好的再▁SUBMIT九月份的食物
开心的事情我都要支持▁FUEL了
我不会再和他联系▁CLIP二零一八
想像个▁VECTOR一样每天开开心心
我查到▁MODEST的意思是谦虚的
公孙测试我的理想型▁AS▁WELL
福特啥时候能用这两个▁BADGE了
今天上课一直在▁MY▁HUSBAND哭泣
陈一冰魏微还用说吗▁ANNOY
今年送至的礼物是▁SURFING▁LESSONS
刘玉磊今天你应该感到▁DISGRACE的
无数人走完了他还在红毯上摆▁POSE
▁NET包会带兑付大主调研
有一天可以用脸刷到▁DISCOUNT▁AIM让我擦火腰
▁BOBO自己做个善解人意乐观大方的人
屏幕前的里也含其▁DEFENCE
阿里山旁边的那个破楼就是▁CENTRAL▁COURT
公司的程序员不应该写▁COMMENTS
又准备到我▁WET的周六了
早上七点出门等▁BUS的时候
因为安可的▁FLOWING副歌感动的不行
我贝贝太帅了▁ONE▁REPUBLIC也好可爱好酷炫
▁OK酷哥只会冷漠收钱
每天早上要上▁WAX的头真是后悔莫及
说明你代码质量高他们没找到▁DEFECT
就是因为活泼调皮就给他取名▁NAUGHTY
▁HONEYMOON真的可以说是好看到爆炸了
在▁SOMEWHERE视觉和味觉都得到了充分满足
听说课谈▁IDEAL▁JOB第一反应都是
天生敏感皮又买不起▁LAMER来修复
连不上网▁PAPA▁PIG都没得看
要么就是碰上这种奇奇怪怪的▁HUNTING
才发现你给我▁MAP显示到酒店
你们是怎么理解这里的▁JOBS的
然后我突然想梦都是反的▁MAP
都是为了撒船▁SAUCE所以都不知道是为了啥
这个班弱读▁BORE剧中都读错了
可以在路上听王源的声音了▁EVIDENTLY
各种测量心象的仪器和▁TIMEKEEPER好震撼
一台双卡▁WORKMAN开启一段音乐旅途
为合成你葱的照片装了一晚上的▁TORCH
精神文明建设还需要在一个台阶上▁WARRANT
只能偶尔▁CRASH支撑一下生活
我一看到这种题都只能想到▁GAS▁JORDAN▁ELIMINATION
地情小哥给开了个小后门儿▁UP▁DECK
没想到混入了一个▁MARVEL▁FANS专场
最靠近南极的▁BLUFF▁OYSTER随随便便可以吃
无比拥挤的世界按下自己的▁POSE键
有点电视剧版▁BLADE▁RUNNER二零四九的感觉
刚编辑完邮件就来邮件说▁MARKET▁CONFIRM了
▁LAMER这么贵的精华也没拯救这张烂脸
要去▁ROTATION的我黑暗中瑟瑟发抖
中国富二代被澳洲富二代称为▁STUPID▁RICH
大叔过来给我打招呼问我是不是▁JAPANESE
这次好像要动真格啦抱紧我的▁EMERGENCY
▁JAM善良昨天不能发帖
就跟我对▁QUEER▁THEORY其实没啥兴趣一样
▁SIZE意为沙漠沙地沙漠沙丘
▁GOLF自动豪华版要十六万多还是贵了
一个在勇士的▁QUESTION▁NOBLEIST上
我还是全部需要他们▁DINAUR好了
努力把所有▁DESSERT都吃遍
▁FOGGY会转型▁DOTA二项目魔兽三进入不活跃状态
幸亏冷静了一下没买▁SMOKE的▁ORNAMENT
▁FOLLOWER只有六千多人梁静茹给你的勇气
一个最近热婚一个整晨▁SKELETON
最后一眼都没见到心情▁TERRIBLE
总算是在回家前搞定了这个破▁OUTLINE
我特喜欢往水坑里跳▁SPLASH
讯飞来校招了拥有两个▁FOLLOWER的我
脑子太好同时能多从▁TRAFFIC真不是好事
我这种不认真学生就是很容易被▁DISTRACT
最后▁TOMORROW写小是因为纸不够长了
我又想纹了想纹花碧▁JUST▁SEEING
虽然也就是个▁CONSOLE游戏的价
▁WEEKEND的晚上不是跟同事一起赶报告
我们伟大的▁FINANCIAL▁TEAM正在中国
高音课里的▁MIDDLE▁EAST▁BAZAAR就是这样的吧
就想这样打那些乱喷的漫威粉▁WHATEVER
看了▁BLACK▁PANDA是第一部没有你科普电影
第四十一个单词▁DUCK鸭子鸭子好可爱
明天继续▁BRING边边缘河边▁SECTOR扇形
一百五十三▁RELIABLE▁PERSON周加加三分热度英文
曾经的迷网美好都是已经来到▁POSTULATE
今天才听完录屏第一次做▁HEADING题全对
今天认识了一位良友他叫▁PERSEVERE
无烧蓝宝石少见的▁CUSHION▁CUT是颗九十年代的
每次上课老师都说几十遍▁TOMMY
▁TARGET有啥东西应该签合同时候明确
很可惜微博不只吃三百六十度▁SOPHIA▁PICTURE
▁MERCURY▁LAMB我从小学开始就心心念念的名字
不说遇事都想不起来▁GRANDMA是谁
人家只是看起来有点▁EVIL
这么一个不满▁SENSOR的多媒体
上海话港绿则是音乐▁GREET的阴译
不管你有多少▁FOLLOWER你有多会变
还有▁HAIRCUT的一天史上最短
不过▁LAYER上的机构少了
因为我没有▁VISA卡的泰国厂啊
今天拖着▁BLEEDING的小腿到处跑
等了很久可能等不到▁HAPPY▁ENDING了
全缩在▁SMART的后备箱里
我们是真的真的很能吃减肥▁DEFEAT
▁AUGUST你们五个人还没一起出去旅行
打卡昨晚去有水▁WEEKDAY都好多人呀
最后悔的一件事就是没▁DROP掉▁GEOLOGY
▁SECTION比较简单了听到什么写什么
第一阶段▁PLAY▁TRAINING课程结束
一个动画系单身狗的三流▁BLOCKING
我和▁RANDOM▁EMOTIONAL合唱的这首歌还不错哦
零二的▁RECYCLE计划可以回收你的旧手机
关于▁MMC的▁VOTE我们败给了对家
我在等风也在等你▁TYPHOON
日常怀疑为什么要选▁CONTRACT啦
明明名字叫▁PRIME▁RIBE然后点了份招牌菜
▁OK▁FINE以后发票圈屏蔽所有亲戚
鬼屋上面的▁HATCH是连在一张桌子旁边
为什么不▁GO▁ABOARD我打算放养他了
也开始用▁FUNCTION的新本子了
突然感觉给了我一个▁ANSWER
下张专辑说不定会出▁CASSETTE形式
散步的恋人甜到刚刚好的餐后▁DESSERT
▁OR一二三不会有踩踏板的动力了
我已经开始看二▁BEDROOM的房子转租
还有一些他娃娃的▁SNACK
其实▁TWIN和▁BUTTERS关系蛮好的嘛
一切明朗乐爱周末很忙▁BUSY
赶完这学期最后一个▁DEAL
看随贡小姐给自己的▁ANXIETY天才家伙
迎来第一个▁SPRING▁WEEKEND一场春天的约会
我才是真的▁GESTURE▁ABUSER手能飞起来
老板了小天给出一份▁RESPECT
要把想发的全部都发完然后▁DISAPPEAR
过人的气度和不输当年的锋芒▁SALUTE
世界最大▁HOBBY类产品都在仓库里
为了健康▁FORMUSAL将健身进行到底
变的是人心时期▁MINUTE的▁CHE却觉得非议
所以究竟▁FIX了什么▁BUG呢
最美▁FURNITURE和最美沃尔玛
▁WUTHERING▁HEIGHT青岛山东科技大学
这些都不是受毕竟还得学▁FINANCIAL▁ANANALYSE
蠢到连▁AMUSE▁MOBILE会员怎么注册都不知道
嗯没办法证明不是在▁ABUSE了
还搜索▁RUSTY那种小镜子
这个推特的开源▁CLOWN把这张图也▁CLOWN了
▁CUNNING办公室也有圣经里面夹着一张
主播不是故意办英雄就是打广告
这位朋友唱了两次米奇头一次▁JUNKY
▁JESUS唱的这首基督耶稣已复活
没死了就可以听着▁SPACESHIP出门了
很高兴我开的▁DEFECT被接受了
零授权机制中▁OUT▁RICE接口的一个参数
我会考虑▁COURTEOUS之类的词
看着这个女团也是很给力的哟▁DYNAMO
日子真是压力太大了只想买包和▁HIP▁RUST
十一年前在柏林▁EMPTY彩排只有十六岁
▁MEANWHILE我现在仍然没有想法
我也好想看看他的直播▁RAPTURE
歌者居然不要求▁AUDIENCE考虑自己的表达
▁TWICE今天生产至间继续焊▁CABLE线
实在过得太惨▁BREAKDOWN了恩赐
▁PRIEST杀破狼广播剧第二季补到第十集
▁RESPECTIVELY的用法还真是有点没弄清楚
抵不住▁SNOWSTORM还是太瘦了
希望我另一半厨艺可以不好但要▁NEAT
我帮你推荐其他▁PART▁TIME好不好
▁BACK▁STRIKE五十▁YARD第一次比赛仰泳小组第三
在未来会继续喜欢你▁SEVER
有种淡淡的忧伤真的很▁TOUCHABLE
▁RYRESON校友刘恺威同学欢迎我去学▁NOTHING哦
终于又很不容易的▁WRAP▁UP了
▁PUMPKIN很好吃自助硬硬币很新鲜
▁SWARM很简单是个不错的开始
是的防脱发我▁REALLY需要
你带着我一起去看▁FAKER
▁WEEKLY▁ADDRESS没有提及中美贸易
▁HAVARD▁YARD动物农场兔兔的毛超软
下一站天后网页链接来自▁ECHO回声▁APP
螺丝酒和利拉德舞尾高帮都是▁BOUNCE
二十一▁SAVAGE说这是新剪的头发
但我真的找不出什么好的方案来▁LOAD▁BALANCE
▁CLASSROOM怎么翻译才显得比较专业
再创造幺零幺看到▁ELLA就莫名好感动
▁REASON讲述耶稣被定十字架上
对音乐的爱融合起来传递每一位▁LISTENER
▁VENTURE又觉得骄傲又有点害怕
▁JUST▁SO▁SO老师说这意思是粤语麻麻的
▁SLOW▁DAMAGE的男主大概他站起来了
应有的样子嘛是▁WORKMAN可不是▁WORKMAN
久违的▁WEEKEND上完所有课
你真的太迷人太▁SWAG了
悉尼▁COMMERCE还有几个学校专业在用
最近好喜欢▁NOON小姐姐
长成现在的样子自己可能不那么▁SELF▁AWARE
这集▁HOMELAND简直穷游剧了
▁A股经常有一种预期差而你看到了▁FACTS
▁GRANDMA在地里劳动了一个下午
好好看的蜜桃高光▁BEAMING▁BLUSH
周中▁CAGES晚讯图不够发
明明肤色一样杨小贤甜品▁WEAKLY
久美到的▁COMB发一下金边▁LUCKY超市的物价
每到一个地方都要做▁GROCERY是没错
第五首侠子和百木鬼做▁COUNTERWAY
▁FANCY他也是科技娱乐之光
▁POOR▁GARDEN的餐厅提供咖啡和点心
兴冲冲的在▁MANKIND上买了一所的精华
今天他讲到▁MINIMUM发音好奇怪
幸好最后一张告诉不是▁SOUVENIR的老板了
看排名▁REACTION杜哥真的标准振奋了
读▁COLLABORATIVE▁FUTERING的时候突然觉得似有关联
超级爱吃▁HIGH▁TWO一小时能吃一条的那种
毕业论文▁SUBMIT学生时代结束
我知道▁RAP一般都吃冷的
我今早在朋友圈发了最近吃的▁FRUIT▁BOWLS
▁I'M▁SHOOK已经全被个姑娘纳入囊中了
那些学艺术的人无论是▁DANCER还是▁SINGER
▁HOMELAND的编剧编到现在完全是在混稿费
德国应该是我去过的地方里最不▁FRIENDLY
记得最清楚的只有▁ABANDON
美国本土的▁BREAD▁FLOUR通常面积含量十二左右
不过▁UNNATURAL还是不错的
▁PLEA▁BARGAIN降低破案成本美国的标准是正义
▁CD出口槽换好久▁EJECT屡事不能
有生之年赶上▁EMERGENCY我正哥宿命呢
用▁GRAB打车结果司机告诉我去不了
心里总是没有一丝▁BE▁ATTACH的感觉
▁RAYS女主还要出新魔镜和新镜装魔镜
土豆壳里装两种▁CHEESE和▁BACON的点心叫什么
想看到你了一起去看唐人街▁SHRIEK
▁O'CLOCK中的这一撇究竟省略了什么
上次来还是和▁DECAYS的对盘呢
未来中国大城市可能是脚下乡间▁SUBURBAN
▁EXTENSION▁SCHOOL到底算不算哈佛的正规院系之一
可是已经挖角强力▁STRIKER黑又硬
这个预告终于有点▁COMEDY的样子了
安德鲁这▁RECYCLE玩的也是六六六
不想让世勋长大▁HAPPY▁BIRTH
跟俺说天生励志一个跟俺说▁LAMER
感谢领导带我▁INVOLVE到各种项目早见时
▁FREE▁HAWKS我们从上与陌生人自由拥抱
二十岁长寿面边吃边看▁SLIDE
一个成熟的▁PLAYER和一个发胖的▁PLAYER
该出现的▁SET▁EFFECTS都出现了
有没有人一起追背景上的▁SEAL▁TEAM
▁BLOODING▁HANDSOME免身一秒钟就把人拉进去了
有的人真的是非常▁AMBITIOUS
▁CATTLE小姐疯狂比心小四季的弟弟
还是▁QUARTERLY心痒痒看来要考虑辞职了
试了类似国欲自我的▁WEEKLY
感觉还是期待满满的感觉哦▁CALM
真的固定内容找▁REFER怎么可能找得到啊
不知道这个菇的品种包装只有▁MUSHROOM
艺术作品和▁MONEY▁LAUNDRY的作品本不是一回事
某人还▁LITERALLY边吃饭边看黄文
给你的关怀永远都是最多的▁EXCLUDE
也可以是普通面孔的▁INNOCENT
每天一点睡然后▁QUIRE▁PERFORMANCE又要来了
上一张专辑里面那首▁SIXTEEN
为今年骑车做准备周三▁FITTING走起
想看极具视觉冲击力的盗墓笔记▁DWARF
来到一家名为▁BY▁GUIDANCE两千的餐馆
冒个泡我的第二本▁JU▁JOURNAL
给出一个对他更好的▁SOLUTION
转行不容易最近▁JOB▁HUNTING遇到瓶颈
昨天看破产姐妹二好想吃▁CUP▁CAKES
▁LOSE▁THIEF给取的好名字为了感谢
他是去年年度▁GOOD▁PERFORMER每天都比我早到
控制欲▁NARROW▁MIND披着爱的名义丧心病狂
皮胖已经成了一个彻头彻尾的▁DOG▁PERSON
赞赞在果断转粉真的好萌啊▁BANDAGE
艺术家怎么用▁CONVENTIONTIONAL方法创造那个雕塑
走金▁ZIP这次福岩公演改了不少歌词
足够少帅老人就不会这样做的▁ATTAIN
▁BODY▁COMBAT目前人气最高人最多的一节课
晚班在线▁HUMOROUS最近很火
创造一种▁NEST▁TYPE的纹理感
▁BANK▁IN新装的灯以及同行的小哥
倒计时十天了我想说的不是▁RIDDLE▁JOKER
这个月准备▁QUALIFY时间其实还很充足
是我看过最好笑最抓马的▁REACTION
▁PERIOD快来了就想着补充点雪红素铁吧
放心多了请你们不要▁BETRAY我谢谢
不知道自己该成为什么人▁ANYWHERE▁BE▁HAPPY
匆匆忙忙去惠新西街的▁CHINA▁DAILY媒体拜访
日后套题评奖和考后总结继续▁SHARPEN
今天写完了第五周的▁WEEKLY
按我以前食量吃一份▁PASTRUB还有沙拉
注意▁OFTEN和▁ORPHAN发音的区别
必须要给▁WHITE▁COLLAR的翻译一百分
出现的景点和▁CAFE我们都尽量▁AVOID
我从小孩那里还学了一个词▁COIL
豆子豆子▁PEAS豆豆我的女神
好时光都该被宝贝▁POWERFUL的你们再见
爱你▁KISS▁ALONE我的整个青春都是你
打开电脑一看没点▁SUBMIT▁ORDER
请问您今天要来点▁Z▁TUNE吗
遇到一个没能力的▁LEAD一点干劲都没有
只有十三辆车啊然后就▁CAUTION了
的▁ZOO原来是我哈的秒拍视频
在▁DISLIKE的▁LIST上还排不到前五
为什么德国的▁WITCH▁HUNT主要针对女性
真的听不出来是▁PAVEMENT啊
无线公司打卡上班看城堡塔尖去▁NOT▁TYPICAL
按照网上的说法把▁REQUIRE包了一层▁GLOBAL
▁BREAST太累了连字都没写
老师说▁ANGRY我吵得那么认真
转自另一名优秀的老师▁BE▁AMBITIOUS
看在我这么辛苦的份上一定要▁ACCEPTED
没想到英国所谓的▁FOOTPATH是那样的
可以多元化向围耳其的通用▁HONEYWARE
虚假记忆▁FALSE▁MEMORY是大脑记忆的信息
我打算重新去看战神▁MARS了
见到了在未来死去的人▁GRANDMA
万老师本人又是怎么看▁GAY▁MARRIAGE的
为了写中美贸易争端的▁FEATURE
▁PROSPECT前进前途可能性机会
盯着那个▁LIVER以为自己买的鸡臀
这件▁CRISP的裙已经成统了
说白了这就是一种▁VERBAL▁MASTURBATION
实际上是个虚度光音的▁LOVER
本来还想和▁GALA夫妇一起吃饭
可算是拿到了▁ICE▁JEWELS选图一级棒
▁LIABLE倾向于有责任的有义务的
我以前都十分勤恳地提醒你们▁PRE▁REGISTER
有时候▁POLITE没用只能以暴制暴
▁LAMMER都拯救不了的全靠你们了
图书馆▁FREEZING到我想就冲去操场跑圈
▁CHAIRMAN赛也做不到那么完美啊
你就回答▁ALTHOUGH和▁BUT不能连用反套路
放摇中心看全身只剩下内裤的▁NAKED▁PATIENT
外婆给做的新包把喜欢▁PIN都放上去
还是▁FIRST▁CLASS二里的东山嫂和菜菜旭有爱
▁NEAT典范亮亮跟韩语分不清组很棒
我还挺希望跟着张伟把▁FEED▁HUG做大的
成功得到▁AWAKE帽子神奇的薄发挥作用
你去纠结▁TABLE▁TENNIS是网球还是乒乓球吧
赖以存在的基础有限的▁SCARCE▁RESOURCES
所有我搞不定的▁CLIENT全都乖乖听他话
拿着▁NEW▁FRAMEWORK结果连文章讲的啥都不记得
我顺便顺了人家的▁HANDOUT
久违的说一句想我的▁TALE就是那种
只想记录你成长的每一天▁MY▁THRASH
今天周末对我来说▁WEEKDAY和▁WEEKEND是一样的
这个▁DIARY▁MILK的不错下次多买点
▁DRAMA▁QUEEN的酱黄瓜也不错啊
因为喜欢你我又认识了好多▁HONEYS
再次创下赶飞机记录五十五分▁BOARDING▁THIRTY才到机场
尤其是这天气真是▁CHILLY
我才反应过来杨洋的▁LUCKY▁LUMBER是二十一
最近的日子过得好▁TOUGH
绝对性的▁OUTBREAK爆发▁RECEIPT消退
▁JET听说要参加中国新说唱了哦加油
▁HUGE冷雪儿西年旧梦驾驶飞船
去年在孤独星球上看到▁SEALBA的照片儿
▁DEPENDLY▁REFORM啥啥来着好困好想睡
你听▁THUMB唱的这首爱了很久的朋友
到▁BONKACK捉到我请不要吝啬地扑向我
看我最喜欢的▁GOSSIP▁GIRL周五好开心
所有大招一样都是可以▁COUNTER的
要把▁DESTINY叫天命啊不就好酷酷
把读博士做科普当作一种▁CHAT
又是▁THE▁ROLL这件群星美得没谁了
感觉应该一样很是痴迷▁INLAPSE
称为▁VIEW的牛肉是一到两岁的小牛
今早看了练练有词第一个单词是▁EYEBROW
我还特地买我喜爱的麦当劳的▁RAP
▁THE▁ORDINARY的妆前无功无果顺手所以用完了
体育场▁STADIUM是指露天的室外体育场
假期在家做了个▁DRUNK▁JOURNAL越看越喜欢
但我是养狗真的养狗是很▁STRICT的养狗
这张是昨天团队去参加▁INDIAN▁CIVILIAN的合影
你们▁WISE欠我的钱都不用还了
利用▁RECYCLE材料发挥孩子的想象力
用▁CANVAS做个城堡想象的是城堡
这个小剧场就是这么给力的▁RAILROAD
终于又等到你▁PRIZE生活很美好
电影深之行配乐反弹▁EXCITE映后访谈
暴走两站地遇上大型▁TRAFFIC▁JAM
这个▁POOR地方我快要累死
发表了博文▁DIESET
知道不能▁OVER▁CONFIDENCE
过于显眼的▁LIPSTICK会引来世俗的批判
好想买一盘▁URBAN▁DECAY眼影哦
请把我的▁SPIDER▁MAN和▁LILY还回来
我们看到了你的▁BIOGRAPHY了
我一个工程▁BUILD近两个半小时
▁BUILDING真的很吵有灯位点的秒拍视频
看过酒会我的评分是四星▁DRY到好处
虽然还需要▁POLLY但也成功出逃了
别坐这种人▁SNOB的人还是微笑面对
大家一起很▁MEAN地讨伐一个人时
感受下▁AIRBOAT的噪音水平
感谢▁UNITY让我懂得我就是个小垃圾
深夜来听听烟鬼这首▁SICK▁BOY吧
少乎乎的▁LENDER和▁PENNY终于在一起了
官方关于这次迁移的英文问答▁REVERSE
人生如果可以▁RESET该多好
我好怕那种眼神打分猜角色是否▁AVAILABLE
在▁STAND时从花车回主舞台的时候
永远不要自带光环▁ANNA▁TIRED
▁ANGLE方向亮着灯隐约还有枪响
▁TACKLE▁BILL回归后终于越开越多了
其实挺好的美国这还▁SEPARATE
我都觉得自己是▁SUPERMAN了
喜欢吃的橘子和▁PUFFS还会有
小伙开▁SMART遇大水坑下一秒霸气开始
说其他都没问题就是▁DIALOG的部分
昨天我还分析说肯定不是真的▁SHOCK
他经常被要求在公司▁OVERTIME待到晚上十一点
▁BLENDER中预览还可以进游戏就另一码事儿
被论文▁TORCH到生无可恋
周四要交的▁SCAN我周六还没回
求你们去腾讯视频给他投票▁BOBO
莫名其妙变成▁COLOR▁O▁S恢复模式摆弄好久
短时间内一个人▁HANDLE这么多事
▁GO▁BANANAS可不是去吃香蕉的意思
马上回去躺平▁I▁MEAN马上
▁CARROT的性格是由这些成分组成的
但是一定不能悲观打加油▁ELSE
▁BACKBOARD橙色迷彩小清新用鞋底骚死你吗
友谊技之长的小哥哥真的很▁CHARMING
别拦我我就是▁AUTHENTIC非洲人三
那么对于个人的▁EMOTIONAL
今天看了一下▁BIG▁CLAYVE代币▁CAT
让我来▁CAPTURE一下这开心一刻
意味着新的▁BROCHURE可以在我离开前买到
真的危急生命了医生会有▁PRIORITY
为什么服务器▁SEND成功
他说他喜欢动物但不能养▁FAT▁CAT
那么可爱为什么要整容呢▁SOLAR
经过某些人努力建立无懈可击的▁NORM
我永远喜欢▁UNNATURAL和▁LEMON不管是十元里美
想谈个巨甜的恋爱想找个▁UNIQUE的女孩
找上听广播说有人▁PROPOSE了法案
比如▁COMPREHENSIVE▁EXAM接下来的三个月就一个字
喜欢唱歌的要一生都▁DEDICATE给这个事业
做了个明星大侦探和▁CUBE▁ESCAPE混合的梦
我为什么两次参加▁L▁G▁B▁T▁PROUD
寝室里没人也太太爽了▁ENJOY▁TONIGHT
原来你们常说的▁FOR是▁FOLLOWERS的意思
能脸大道说自己▁LEAD▁MUSIC也是
唱▁PROBLEM的三人组小姐姐唱歌实力很好
鬼步舞▁KICK踢腿最全面的教学
岛上的最后一个▁WEEKDAY收尾了一下工作
我就知道我可能学不好▁EXCESS了
差点被网红▁BLOOM呛约后的错觉
加拿大移民局官方网站已经▁CRASH
挺过所有▁TURBULENT时期暗暗的希望明年见
▁MARVEL▁STUDIO最喜欢的三个全来上海了
国人对于▁IDENTITY的意识也是很浅薄的
周六去打了羽毛球▁ELEVENTH去晨跑
小妹说能不能给我一点▁MAKEUP▁REMOVER
百度▁RUSSIAN想看自己是不是拼错了
一时兴起做了个▁POUND▁CAKE有点甜
只有我们睡着的时候哪些包才会▁SHRINK
▁UNIT曲我还是觉得▁DQL那首丁东好
在我们▁MELODY生日这天开心
这人▁VITAL▁SIDE正常的不能更正常
终于收了心心念念的▁TREMBLE
▁PLACE是为什么▁REPLACE怕事释放
趁还不火强推▁BEGIN▁AGAIN这档音乐类的节目
▁CORDIAL热情的又表示甜果汁饮料
击败了▁VARIOUS渣解锁了人生赢家薪资事
转眼又是新的一届奥运会了▁EXCURSION
今天看到了支付宝的▁RED▁PACKET
而▁REVENGE更多是为了自己以牙还牙
一个松下的▁WORKMAN就是一大笔巨款
家里最辛苦的▁MUMMY生日快乐
今天去领取马拉松▁PACKAGE
为此我和我家▁PIG讨论了一下
一直等到现在因为▁PILLOW▁TALK一直缺货
▁WITH▁RELIEF自己动手风衣足食
立个▁FLAG月底存个应急存稿十万
我在日本用▁UBER在泰国用▁GRAB
似乎没有▁ABC▁MURDERS那么精彩
有▁PORTER和▁LA瓶带有黑化的意味的组合
那个更像是傲娇其实▁VITAMIN里更高冷
比湄公河还▁TERRIBLE一万倍
会有很帅的警察或者▁FBI▁AGENT来找你
写完这个▁PARAGRAPH就允许你瞬间晕倒
你想成为怎样的▁MUSICIAN呢
听▁PINCH遇见个沈阳人住在同一条街上
金硕真话了只说他很▁DANGER
最早带团队的时候做▁DISK性格测试
为什么这么▁DENY你自己
四五我将直播▁OUTBREAK行动的新模式
二十一级真的心碎▁JUGS了就齐聚了
又是▁MALE帝国又是金鸡女王卫队群岛
我需要一杯咪咪▁JUICE
贡献给永远看不完题的▁SECTION
场地来自好朋友的▁ELSEWHERE首作家
还不如▁BOOST自己的▁VIBE好用
日本萝莉直播经典来了▁ALLIED
▁BLAKE▁LIVELY简直有无美丽全给了她
枸杞啊能在音乐▁CHART榜上得到一位
▁LOBBY▁HERO要是能来英国巡演就好了
▁ABOARD速写素描其实是一挂的
这种在中国▁HAWK▁CENTER也就五块钱封顶
睁眼到闭眼我不是在做▁HAND▁OUT就是在写▁HOMEWORK
把我▁FOLLOWER里所有的粉丝都逐步剔除
亚马逊▁PRIME会员权益再升级
并没有去亮▁BADGE并制止的本事
越想要▁CORRECT一些事情越难受承认吧
跟▁HYDRAIC有眼神接触的外国人说上话了
果然币圈的▁LEVEL正在不断地提升
然后终于要出门了▁BUTTERS跟出门
大家一定很熟悉翻译过来就是而▁TYPICAL▁NUMER
短裤是和我立刻买了▁CHAMPION短裤
听说▁TWINKLE能长粉我来试一下
把▁HAND▁OUT借给别人还回来时多了很多张
那两是▁LIST每年里程有限制
▁SICKNESS总是对我不离不弃
我妹两三年前去加拿大▁EXCHANGE
流星▁SHOWER竟然登上了微博热搜榜
我说你们都很可爱▁VERY▁CUTE
▁CUBE新出女团出道前的舞蹈和女
我最爱的范范▁HAPPY▁BIRTHDAY时间很快啊
▁HALF▁PIPE不开询问说今年似乎没打算开
喜欢▁INFINITE是真的崇拜仰慕
▁ELECTORAL▁VOTES就是各州选举人选票
▁CORE性冷淡在写字楼里从不缺乏
有点▁SHALLOW我对冲奥没啥希望的
▁RULER▁CAMPUS你不再需要一把池子
张行▁HOT张行零四零四生日快乐行行生日快乐
就因为夸了冰淇淋大受▁VERY▁HANDSOME
虽然你小小年纪就用▁LAMER
但我知道我自己不是粉▁DANCER去的
刚发现听歌听个旁边开了▁SUBWAY
没想到能有机会被▁TENTICAL▁DIFFICULTY困在过山车上
而▁TRAP只有马思维的能听
困到窒息配图依旧▁RANDOM
我有两个▁QUESTION比较长跟管理层▁APOLOGIZE一下
他在▁INSTAGRAM上有十万▁FOLLOWERS已经不接受私人生意
卸妆水化妆棉会反映出泡泡开心▁BIG▁MOSS
我们在喊▁SPIDER▁MAN的时候他超开心
我的巴恩斯中士我的▁WINTER▁SOLDIER
在▁TEACHER授课中获得了小奖励
多年后开始▁RECENT妻子的丈夫
在半小时之前抓住了▁SIGNIFY
▁LAY了我应该早睡的呀
我第一反应就是这样的做不了▁CUSTOM▁SERVICE
后来一眼看到▁ANTI▁WRINKLE毫不犹豫收下了
像素化▁MPR渲染测试差点忘了这个
▁OVERDO了二十天我才发现没▁SUBMIT
▁MEETING前几天简直▁STRESSED到暴斗然而
诊所的▁RECEPTIONIST说话像打机关枪
忘了也爸真是痛苦的一个▁QUARTER呢
我这个从▁CLASH▁STYLE就支持你到现在的粉丝
更▁SHOCK的是我竟然对猫开始过敏了
感觉北京八分钟有些缺乏▁IMPACT
妹妹的▁BABY▁SHOWER四月升级当舅妈
不止一次数▁KILOMETER和▁KILOGRAM分不清
选举这些总统选举团成员▁ELECTORS的
把北京一套房子▁SWEEP到了加州
很喜欢荣幸战记这部动漫作品▁PORTABLE
记得我在▁EQ鬼屋当▁PULLER的日子
我喜欢用旅行来和过去▁SAY▁GOODBYE
这一个▁NAP就从八点半睡到了十一点
怎么能随时便便乱立▁FLAG呢
一瓶餐后酸奶▁VERY▁TIRED的一天
完美主义者看到▁DISORDER一切就想消灭掉
所以这个赛季▁LOOPER有没有归宿啊
听▁PENSION的网课看着自己的发际线发愁
刚喜欢他时他是演技爆棚的▁DOLLAR
打了一套晶体拳假装那是▁EXCESS老师
我眼中已经不是那个▁CLEANEST▁ONE
但是依然比▁BASELINE低暂时放弃
执念的小香风进了▁ROCK也买不起
一个看起来像样的▁ARGUMENT
▁ODD这张砖的这个造型我的菜
我很▁MEAN才不管你们想什么说什么
看知乎学会了一个心理现象▁REWARD
第二五二八▁N明星的尴尬看得我尴尬正都犯了
这个风格也是很不错的▁TOAD
▁LITERALLY▁SHOOK他是不是把教室当成大舞台了
我逛学校▁BOOKSTORE看到这个真的一个报笑
与女孩的朋友日常▁C语言课真的▁BORING
听▁WAX家小朋友奶声来气的说话
真的是要补致命平行啦▁TIME▁LIP
发现他的▁FOLLOWERS树一直长
好奇一下每个▁MODULE之间交流适用的啥
这种情绪营造出的气场是身边人▁SHUT他▁UP
看▁WICKED感觉特别迪士尼特别儿童像
喜欢这种风格源自▁DANGER
立下一个明天写完▁LOGBOOK的▁FLAG
▁DIVE那一段真是笑到我了
我觉得全言加速中确实是很好看▁FOOTPATH
午饭回来竟然收到对面大叔的▁ENCOURAGEMENT
太阳升起时很像▁FAIRY的小时光
今天来看你▁JACKY们真的很棒
努力展示最好的一面给自己一个▁SMILE
艺人是好评如潮真是经典▁MOMENTARY
对于我来说他的▁CHARM▁POINT是笑容吧
那个▁SAUCE腻得我现在都难受
什么时候再和▁AVAIL搞一次联动啊
▁SOUVENIR见她先躲起来比如厨房
思维跳▁TONE太快也是与生俱来的
▁ASS人生最平期易于使人放弃追求啊
因为我每天都吃这样的▁SITUATION啊
会写英文▁EMAIL就成了格外加分的一环
我最喜欢女演员是太子妃张天爱▁SCOLD
优秀男孩子太多了会唱歌会跳▁LACK
试举一例用汉斯来▁WEAKEN大师
窦靖童在台上唱着▁PURPLE▁RING词语
睡前收到了老板转发的▁MAJOR▁REVISION
里面是几何磁带一个▁WORKMAN
因为干神喜欢上了离线
拜托快点在我离职单填个▁APPROVE好不好
做了个完全杀不住车的▁SLIDE
无力接受这样的事真的和▁WORM一样
跟室友双人把▁CASTLE▁CRUSHES打通关了
我后天要回南京踢踢▁TOF回答你
▁PROMISE除了我爱五选一以外我说不出
之前给四博显掰▁HE▁SAD超反了吧
几个小男孩在扮演▁PAUL▁PATROL
不会▁PULSE的生活没有什么好抱怨的
我是▁SHACK先生请多多指教
要攒钱买个好点儿的耳机听歌真的▁ENJOYABLE
▁LOVE▁FIGHTER什么时候集结成册呢
▁PERFUME三只小姐姐卡修卡无脑吹进
目前城中最正宗▁CHEESE▁BURGER
趁着年轻快活上午去开▁CART下午去▁BOWLING
▁SOFTWARE▁DESIGN上花了太多功夫了
▁TAIL▁HAND不是很熟悉其他都没有问题
就没有老娘找不到的▁TORRENT
大体提念▁MURMUR的口音太可爱了
派司机小王儿系列▁HI▁BOM
学校食堂的▁CHEESE▁BURGER可以这样点
华人界最佩服的▁GRAPHIC▁DESIGNER
来自靠近南极圈的▁DOUBLE▁RAINBOW
同▁HOUSEHOLD的女孩儿确认是中国人
看了▁PRODUCT幺零幺好喜欢黄子韬
真心希望公司不要再给他接▁CREEPY▁FILMS了
早饭就是要吃甜的啊一整天才会▁SWEETLY
综英课书分讲▁TUMBLE这个词时
我的宝贝弟弟啊生日快乐二十一岁▁LEGAL了
我们去▁SOUVENIR他为我做布丁和拿手好菜
值得去玩我也并不清楚▁FRAGRANT
选这张是因为▁BELIEF这舞给我真撼太强
可以▁RUGS迎接小生命的到来了
每一个▁VOLUNTEER我都超喜欢
祝阿峰和▁HONEYS新年快乐呀
是你自己上交组织的吧▁BANANA
▁BULLER划个雪呢可以和猫本的同学们
今天▁ASSEMBLY回来的时候看到数学老师
▁WAVER水甘蓝来鉴定下是吧是吧
▁SACRIFICE米兰达为了朋友放弃演出
反而羡慕别人能唱瘾▁BEARS
生日会▁SOUTH跟一七年▁FREE纪录片
开头第一眼就想到了▁AWAKE
其他▁LAYER全部向外部开放
虽有▁TICKET的钱但只能穿上我的草鞋去了
从黄景瑜到孔流到白敬亭现在是▁POP
只希望顺顺利利的快点▁APPROVE五吧
在宿舍最后一次▁FORMER▁DINNER了
嘿嘿情人节快乐我的▁TULIP
没有▁ENJOYMENT▁REWARDING的对你来说就是巫术
那就代表已经不▁VIRGIN了
看到这封邮件的一瞬间乐不可知▁ENDLESS
求大勋保佑我星期六的▁ACT的考试
▁HOMER的老板和儿子这季很暖啊
二百九十多次▁ATTEMPT我肩膀已经爆炸
明知山有虎偏向虎山行▁GO▁STRAIGHT
工作一年了也有了新的▁POSITION
本来前几天一直喊着宝宝要看▁DINOSAUR
是不是就是▁BLACK▁SWAN黑天鹅组织
▁NET四季踏氢剂相约唯美济周
教室多媒体直到三月底也不能用▁EXAMPLE
我用的▁NAKED▁THREE还便宜而且是粉色的
前两天还和▁GINDER专业的同学聊这个事
他会越来越好因为他是宋茜啊▁QUICKING
八点半▁AM小朋友睡回笼觉了
好开心我们▁PRINCIPAL太懂了
中国队第一个▁MAJOR终于终于终于要累了
▁SIX▁GOD的瓶子真的很像啤酒瓶
那你多放几条▁BLANKET就好了
和美国老师去看电影加入了三个▁CLUBS
他包里面是▁SUPREME的什么
▁DEEP▁DISHESED▁PIZZA超好吃的古人爆花爆米花
我简直是想吃什么吃什么▁ANYTIME▁ANYWHERE
通宵一晚上然后直接去上▁TRAINING
▁GAMBLERS▁FALLACY图形模式妄想正的一个显例
大学四年第一次在▁RECEPTION吃撑
▁LILY▁CHARM的真的好可爱呀有需要的跟我说
哪个▁TEACHER能忍心不给她配一朵小红花
▁OPERATE将两扇门巧妙隐藏于盘式的闭面
搞别舞台唱点别的歌吧唱▁BOUNCE吧
▁RANDOM当年听自挂东南之的时候
▁FIGHTING的时候有过一小段的结束
生日快乐▁MAN我就祝他早日发▁SCIENCE吧
▁CHA奈限定的一款商水年个▁PAMPHLET都没有
所有▁CONFLICT你的点都成了难忍受的东西
遗憾没有听到张韶涵的▁FADED明天考试
粉色而且▁NEUTRAL或冷色调
现在想想某些人当初强行▁TABLE▁TENNIS
作为九四年的鸡王一代▁WORKMAN经典
半夜逃离▁BOARDING▁HOUSE又被老师查监控给发现
二狗弟弟▁COLDLY我应该跟你回家的
等不来兑现承诺的▁ACTION也只能接受
最近吃的最贵的工作日午饭了▁SALT
▁TELL▁ME什么是心痛的感觉
▁INK夜里拉稀拉拉一客厅
如何摆出小清新的▁POSE实用干货
没有好结局▁SUCH▁AS寻妈季里巴尼和罗宾
十四在在南半球最大▁BERRY基地
▁DAY▁EIGHTEEN今天打卡跳绳蹲起晚上有课
发个微博还要被监督好累
▁PRINCESS▁PRINCIPAL据说这回大河内发挥还算稳定
最近学院来▁EXCHANGE有个亚裔小男孩
作为一个这▁POLLY的咖啡爱好者
今天用了▁JAZZMAN▁ROUGH觉得没那么冷
掏出▁ADVISE▁MATH装模作样的写了起来
告诉吴世勋他的站子有多少▁FOLLOWERS
今天没有录到末梢的▁HOOK
这些▁PANCAKES是非常健康的
连▁OPERATION是什么意思都不知道了
最后我审题错误忘了填上我的▁CREEP了
▁ROBE滞留时间越长糖分酒精浓度越高
无尽的爱是哪首歌啊我说▁ENDLESS▁LOVE
蜜之编曲蜜汁走音没有▁FADED
▁INVENTOR其实并没有那么擅长
都来东去的▁DOCK栏总的还行吧
我是一出自己的▁TUPITICAL九迷路的节奏
注意这里的英文句法▁PRIOR▁TWO
开启▁WORKDAY好心情很简单
今天也是喜欢听金属的▁POSER弟弟
组织了▁SCHOOL▁VISIT去一个当地的高中
▁HARMFUL▁AIR无论是否是香烟对人有害
▁SEX临时邀请我去他家吃饭
在凌晨仍然被各种▁COMMENTS轰炸的同时
没见我穿过这个类型的▁SHIRT
▁FIX真的快不过新机应该是新机啊
企图用蓝莓把中间的▁GAPS跑出来
明天▁PAINTING拿笔站五个点我就不当人了
一路听▁AUDI▁O下来之后看了最后十分钟
南非开普顿每天用水不可超过十三▁GIANT
马塔和▁LOOPER的离开真的很不舍
如何一秒记住动词▁EMIT的词义
留个纪念吧▁COMPLETE了两位客人
想着把笔记记在▁HANDOUT上
雨多甜光▁PUFFY晋级小子居然都是初色
在伦敦天天可以看到▁CAMPAIGN
我是你们忠实的粉丝▁DEVOTED那种
▁NEW▁YORK核心泽熙都呆过
一起的合作舞台▁MARRY▁YOU还记得么
杠精从头到脚用一块▁SAFEGUARD自得其乐
在东横▁INN退完房在二楼等客户
阿里可西斯那他到底是▁ERICA还是▁SEASONA呢
来自台湾二手书店的礼物特别有▁INSIGHT
让男生掏钱这种设定本来就很▁MASKLY
我硕士专业的▁DIRECTOR之前还一起共事过
我终于要在▁FLAG一个月后学化妆了
▁SIX▁CLASS小青蛙蟹被飘了
随时随地都能感受到▁FENCE们的温暖
看来之前打的▁FLOW▁SHOT并没有什么用
整理▁HAND▁OUT不能抚平着以前没有的感觉
觉得▁BELL遮瑕力不够又不想分开
雅思口语▁PART▁ONE的▁BOATING参考答案
结果被强行拉出来陪考▁PERMIT
▁ELEPHANT▁D和孤独有着绝妙的相似
不到半天一破一外▁FLOWERS凿鸽贩门太强
认真逛的话一个小时估计都不够▁UNDEFYED
心灵鸡汤▁WRITTEN▁BY七月末的情书
坐垫试用从▁FITTING里分出来个服务项目
考了两遍▁SCORE都闲到起飞
到底如何才能避免▁INFINITY▁WAR被剧透
周军时风的▁REFUSE▁SMELL的状况真的是好难
但是▁MELON有时时热搜一味
你在恋爱中扮演的是▁DOMINANT的角色
轻▁FRAME单节点非对称结构必须要考虑
▁CANDY'S▁FAIRY▁TALES做自己父母再活一次
第一个▁DISPUTE来得如此快
幻想一下我在▁PORT▁JEFFINSON有一家古桌店
现在发现自己真的是▁TYPICAL的天平吧
加绒短位于▁CLUB配小短皮裙
使赤身露体▁EMBASSY大使馆
高傲中的气色▁WOLF重编版山歌对唱
▁Z▁AVIATION这单词的第一反应是
张璇的声明撇得一干二净他才▁NGO吧
不需要▁UNION只要设置正确的顺序
▁BARBERS理发店疯狂的造型师疯狂的造型
硬件条件一般也没有▁MICROWAVE和冰箱
▁RACE▁IN▁BOTTOM这人怎么那么能发
出于爱情初中考虑的双方都是▁ANGLE
头上有两个触角可以分清▁SNACK和▁SNAIL
今天去万达逛街突然听到▁DAYDREAM
我要▁TALK▁SLOWLY以营造一种有文化的激情
有没有▁SURFING▁CAMP之类的啊
自己给自己▁ORDER了一件物品
▁RADICAL▁TRICK的最珍贵的信条之一
▁RUNNING黄和▁INTERNAL脏的起死回生
运气从去年买了那张▁WITNESS开始变好的
记得之前▁RENEW学签后▁SIN号码并不会变
那可是▁COOL▁BELIEF啊现在觉得具体
同一个算▁DIVIDEND的公式我真的是崩溃的
那么应声明为▁VOID类型
试着把架▁PAGE提出来能不能绕过了
也许改成▁FALSE后成就就不解锁了
才找到▁SCOTTISH▁ACCENT的发音规律
我喜欢的画家▁AUGUST▁MAC
要与上文中▁USUALLY形成对应
一直靠不断进食来▁STAY▁AWAKE
最好的就是无论如何都有人▁STAND▁BEHIND冲着
感谢木木姐不远万里▁LINGER
还叫我▁PRINCESS开心的不得了
又看到海豚雕塑叫他一个新单词▁DOLPHIN
医美在▁SPLIT里面打片天下无敌手
▁SKIN▁NUTRITION这个精华去年忍不了今年依旧
我们宣一定会成为真正的▁ARTIST
如果▁OPENING给满分代理这个▁FINALI真是负分
西沉四成以后可以更好地▁DICTATE
美版▁ECHOES占卜网数据却是记之森看
四舍五入感觉就在▁DRUG
产生反移情作用▁COUNTER▁TRANSFERENCE
感冒好的差不多了就买了一袋▁COCO喝
▁BACON血腥恐惧的我意外接受良好
今天的▁SPY真的非常不错了
举行反对地铁性骚扰的▁COMPANY而被拘留
顺便回顾了下▁ENCHANTED▁FOREST的玩法
沟通无果双方不该指责▁SUFFERING▁RECOVERY
▁COSMIC▁RAILWAY还不是完整因原版
▁THE▁STRING看到第三季就没有播放源了
▁MARRIAGE季花王的秒拍视频
当我以为我的美瞳只剩下▁SEED了
正数第二百二十七天▁LOVELY▁DAY又来蹭饭哈哈
为什么我的▁HOPE小天使变那么胖了
▁PERIOD第一天运动会是冰糕作死
是你的▁SUMMER也会是你的▁AUTUMN
连小分队看到▁LAY也吓了一跳
没人跟我说这个包如此的▁HUGE
粽子脱了种叶就是白白嫩嫩的▁NOTION
真滴▁LAY了我又开始想剪刘海
心脏病挂▁HOTTER的我现在依旧很健康
▁FRUIT▁FACTS以为吃裸事实吧
二零一八年的愿望就是脱单草莓味的▁PEAR
剖析▁PUBLIC来占据他人碎片时间存在感
这个▁LOG怎么这么可爱啊
▁LITTLE那个摔笔把我昨天的话洗掉了
▁SOUVENIR的钥匙我收下了不会还你了
哈哈哈活得▁ANGRY▁BIRD萌不萌
两个人在生死边缘走一招会有些▁SPECIAL▁BOND
怎么就变成强颜欢笑的▁TOMB▁BOY
每次看见有人推荐▁LAMER我就很生气
看看众合壁▁BITE今天爆发的地球币
感觉事情会慢慢明朗起来▁SO▁SCARE
全文三段不可能每一段都不用▁EXAMPLE
结果发现只写了一个单词真是▁REALISTIC
旋旋窝在一张▁TWIN▁SIZE的床上瑟瑟发抖
周而复始为了某人更为了自己▁PERSEVERE
发现场党没有故事而▁SPLIT也没有酒
以往▁C▁P▁I寄来的杂志我看都不看直接▁RECYCLE
洗澡放着戳爷的▁SWIMMING▁POOLS
全程演十分钟末剧来一个▁JUMP▁SCARE
和我家灰灰的苏州▁WEEKEND
买一堆没有▁DISCOUNT的东西出来
▁NEXT▁TRAINING的这个基础耐力大师
评论里果然有德普粉来找▁SLIDE▁GUITAR
开心与不太好之间内心波动成▁SIN态
这就是一部典型的▁JUMP▁SCARE电影
▁EMOTION也是影响细胞的物理因素
这个大礼包▁FULFIL了立马奖赏
喜欢▁METALLIC电话开始十分钟敷衍
抄题不用▁MAGIC▁TAPE的整理错题方法
从下午四点到现在写了十二页▁WORD的▁OUTLINE
听力小班打卡▁SECTION▁TWO精听还要继续
微软的▁DEFENDER太弱挖矿软件都不发告警
不管烟熏不烟熏▁SALTY▁SALTY
见过你开怀大笑唯独没见过▁NAKED
今天的班上的心好累正是▁COLORFUL的一天
超市买不到▁GLASS▁WIPE强迫症要发作了
头刀菜▁HARM算是尝过了
最大的▁DRAWBACK大概是开始觉得
刷着主页感觉我都能回去当▁PRODUCER了
其实▁UNFURISHED比▁FURNISHURISHED寝室更好些
今天是我们进剧院▁LOAD▁IN第一天
我会翱翔在空中成为一只▁EAGLE
我想问一下今天▁UNIT怎么了
▁PRIME来到了被誉为天堂之城的秦皇岛
▁A▁VAN▁VIEWER能显示血管深度吗
▁SPY开卖显微镜了完全没有违和感
一个人十分▁ENJOYABLE吃火锅
可能是我太▁AMBITIOUS时间真的不够用了
▁PAPER拒绝了我的青青病狠狠给了两爪
这个时候还没有▁HIRE女经纪人
特别是那段咏唱叫▁RULER尼克名字
察觉今天是周三可以▁INTO
甚至不觉得是一场道别而▁DEPARTURE
有江色起跳▁GREETING轻信完整的直拍吗
我肯定▁FOLLOW你了微博故事
能命中一个▁BUTTER▁BITTER还是蛮兴奋的
希望▁PURPLE可以坚持下去
故地重游之大宝胶和▁PUMP▁COVE
但是▁SHIELD▁BAGS并没有看到呢
这家躲在▁RAIL里的烤肉店还不错
我们系是一个薄杂的▁SPECTRON
哈哈夜星和卡▁BLOCKER最配
读经被▁BAN了怎么办上八首苍蝇吗
避开了三十三个消费陷阱战胜▁UNDEFYED的玩家
提示买入报复币▁INK今天最高二
不为他们陷入另一种原罪▁WRATH
开车送往去机场的是▁GRAB的买买提
最后一张图肯定是凑数的▁RECENT
三五好友▁JEEP车环儿海停停拍拍
没有期望没有▁REWARDING的要撑
为什么我没有一样的待遇能▁DISCRIMINATION何在呀
小鬼王林凯零五二零生日快乐▁HANDSOME
有一门课叫▁TREE▁CLIMBING你引起了我的注意
为什么会有巴士的名字叫做▁THE▁AIRLINE
▁FULFIL让我想起男性好朋友帮我搬行李
在泰国拍摄的长达三小时的▁AMBULENT芯片
难怪我丢了▁URBAN▁DECAY一周之后才察觉
▁SHADOW▁HUNTERS第三季回归及时行乐
明天又该重新出发来面对▁EVER
即便是▁UNKNOWN我也肯定这个剧
以为你是神经病怎么消成这样▁AGITATION
内地能过省的▁THRILLER必须捧下场
还不停地▁DELEGATE还要写长长的调用前缀
看了部老电影▁BEFORE▁SUNRISE爱在黎明破小钱
这个▁EASTER认识了好多新朋友
要用自己的小光芒去▁INSPIRE别人
为啥喜欢的老师都▁DIVORCED
发现那个▁ACT胸针的食物超级好看
槟城和马溜甲住酒店都要收▁TOURISM▁TAXS
比▁CINEMARK的垄断着事有爱不知多少呗
不到了自己也在▁BANSOR里笑
一转眼小▁TINY也快一岁了
微信监控训练过程▁SCRATCH版本
▁UNUSUAL▁YOGA里世界的爱好者的秒拍视频
还好顺利▁GET没有▁MARVEL那款袋子
在应用上回宿舍就一刀砍了我▁OUTLINE
▁POPE穿越到现代求翻译
基本上需要▁THE▁ACCUSED不容分说的辞职
▁LITERALLY一天都无法摸鱼了
有点▁BORING属于吃果果的广告贴
在▁SOCIAL▁MEDIA底下评论些乱七八糟的东西
▁ZIP那个感觉手很痛我最喜欢
穿越到了二十一世纪亲眼见到▁SINCERELY一九九九
▁SLIP的眼罩戴上睡觉眼镜舒服很多
我会努力考大学一步步靠近你▁MY▁BELIEF
最后送上高清宣传应援▁ICON及图签
点击观看粉丝神走音现场惊呆▁PENNY
我想买个▁KINDLE发了好一半天
▁CHRIS的意思是爱抚拥抱我这个心意
▁CRY▁BABY还是这样简简单单一些好
山乎海啸的▁DEFENCE其实真的不舒
回家竟然不约而同都下了▁CUBE▁ESCAPE
午饭该有的样子这个图三是什么▁RUBBISH
每天都有新收获▁PRISM▁MEGER
好喜欢出去▁LOFT又好喜欢坐在电脑前
▁COUNTER的人懒得理你自己说说笑笑
意外发现那里的建筑基本都是▁NIO▁CLASSICAL
您老在一三年的时候又听了我又听了▁CREEP
银行业务能力不行啊▁FIGHT▁FINGER都出来了
▁GRANDMA在天上一定依旧会以你为骄傲的
手机缺个播放器谁能给我存一个▁PH▁VER
▁HEALTH▁CARE▁DIRECTIVE相关的法律业务
▁TINKER▁BELL也就是一年多前的事
只要有心情也可以做点别的▁SENATOR
女生比男生天生心思缜密适合做▁CODER
▁JUST看下去就像生活简单的▁BORING
诶特别迷恋在▁INS上刷素人海钓的视频
一听道叫▁LINK就联想起▁LINK▁LAYER
新高采烈都脱粉了沉迷▁DASH无法自拔
同样都是▁REGULAR澳大利日本差太多
今天查▁LUCKBOOK时发现的笑好久
▁THIS▁BELT八九零获得了能够升级的经验值
▁BLUE▁BOTTLE露小疯子的秒拍视频
让我对他人多了些宽容少了些▁SNOB
讲真在国外哪个人还不是▁MINORITY了
你是我的▁BLOND小女神和梦露女神
对外贸收款问题本人刚刚亲测了▁AUTHORIZE
▁WIPE了男衣还是很爱十九世纪的▁CLAIRE
一起来看番茄君▁TOBACCO的秒拍视频
如此言论怎能不被▁SENSOR
再加上百分之九十短出肥壮的▁LEG
魔术师邓男子可惜没在现场看过▁RAPIDITY
生活不太▁DRY纪念入职和你的第十八月
我看到要▁SERIOUSLY▁WEAKEN我就想还有什么
我牛有这么低▁PEACH的鸽子蜜节奏难啊
第一学期选课就遇到必修课▁CLASH
被我爸的盛世美颜▁SHOCK了一整天
我也看看什么是黑匣子▁FLIGHT▁RECORDER
把那题给▁OMIT了是不是不太好
新专辑里面的唯一▁FEATURE
▁HUSBAND还有她一个同事忙里偷闲去玩儿的
陪我度过学生时期的▁SHOCK
不管是▁LOGBOOK还是小册子还是卡
莫非是音符指定的▁UNIFORM
▁CHEWING▁GUN了解一下我们儿子们的小游戏
不会再装作不在乎因为觉得▁UNCOOL
这是▁RURAL▁PLACE的美雾霾都没了
快点有▁DRIVER来运我的车吧
两人一起唱▁JUNKY的曲子肯定非常甜
今天晚上有▁CURIOUS▁DIARY可以看哎正好正好
故意犯规或者叫战术犯规叫▁INTENTIONAL▁FOUL
站在▁BUDA望▁PEST匈牙利不达佩斯
看起来还不错的▁ROLLING▁CABBAGE其实有一点咸
带这人出来不肯走又乱跑真的是▁HORRIBLE
我大概是个傻子什么都不懂▁IDIOT
▁HAIR▁STYLE这个夏天你准备留长还是简短
梦到▁DIET草莓八郎▁RADIUM在老家打篮球
人之间还是有点尊重不喜欢就▁SHUT▁UP
生日快乐可爱的小仙女▁PUMPKIN▁BUBBLE好搭档
今天分享的英文儿歌是▁COLORFUL▁FRUITS
走进纵横交错的古老街巷靠着▁MAPS
他居然用了▁ECHO他居然混音了
近日有土豪送了我一套▁LAMER
终于等来了自己的▁CUBICAL
再加上▁BALLING的谈判挤较特拽的
新的一天从这样梦幻的▁VIEW开始可好
觉得他才是最优秀的▁COMEDY▁ACTRESS
其实▁YELLOW▁WHEEL动起来还是蛮帅
话说那个▁KNIT到底是什么鬼
今年参加了事务所的▁SKI▁TRIP
毕竟▁AMATER是最不计较值不值的
十二点等着▁JACKY去贡献你吧
每次聚会▁HONEYS的歌声真超好听的直戳
谢文科淡淡动作是放▁JERK
▁EXCURSION去什么野生动物园
酒店后面有个很好的看风景做▁FOOTSPAR点
接得非常完美▁THINK王小健
把朋友圈的猪戏系列▁TAGS搬到微博来
还不出官方▁TYPE▁C二合一两用数据线
上班第一天就把一礼拜的▁BUDGET吃没了
▁COLLAR▁MALICE是我攻略的不对吗
打灯的时候太紧张播到▁AUTO了
打车子最喜欢的▁CHANT没有之一
可惜了西区这边都是深蓝▁BOXER
吴亦凡▁GROW打歌舞台混剪
▁BRIEF人真的不能高兴太早
法国海关的▁RANDOM程度真是让人称奇
翻▁CANVAS发现后天要交一个作业
亲眼看到一级院▁SURGEON非主流登上
收银阿姨就一连▁SHOCKED说以为听错了
我不是君子所以我▁SWAY我的
然后脑子里一遍一遍想自己▁FAREWELL▁LETTER咋写
现在的▁SITUATION才九点多但是感觉十二点
感觉直接拉出去都可以当▁EDITORIAL背图了
做了一整年了▁HIGHER▁COUNT到现在都没准过
还想着▁DIVE不是舞台剧过了吗
这就是街舞里最喜欢的一个女▁DANCER
灵感总是处于▁FIERCE和▁FROSTY的中间位置
这是一个有▁HUSBAND的博主
昨晚超场发挥▁HEIGHT看了两场巅峰赛
▁FIGURES制作计划也一并得到公布
姐姐问我有没有听见邻居▁SCREAM
▁BABYBS▁BREAST加欢迎你的加入
因此▁AMUSE承担着风险发行了这本书
当我有买▁PULSE三的冲动的时候
扔了▁RECYCLE垃圾桶都装满了很爽
细节还是很清楚的▁FOR▁EXAMPLE我不断摇杯子
看完特意▁REFER了一下导演和剪辑
玩这么多个有点密集今天重点玩▁DOT▁PAINTING
收拾好自己两百分的努力然后▁MOVE▁ON
第一次▁CURLING就进了蓝区
就掏出▁AUDIO文件夹挨个听
想拍个我心染的▁BLUE▁SMOKE然而拍不出来
考完▁QUALIFY的早晨全身酸痛
▁EXECUTE这个词真是太棒了
有臭氧污染就说明是▁SMOG
家里堆积了三个月没拆的歌具和▁GRAPH
▁STIPULATE保证规定有明文规定的
▁SAME▁SEX▁MARRIAGE是指同性之间的婚姻关系
重金属低沉因摇滚▁SOUL▁OPINION
很少遇到像你们这样▁FRIENDLY的中国人
▁ROUGH▁RALPH和▁EAR同意表示不舒服的不是的
老娘也是剪过九十秒▁MOP的剪刀手呢
喜欢的餐厅▁GRAZE又能看火车又能看船
▁BOWLING首秀得到了隔壁帅哥的夸奖
▁OR一二三了一个下册不要就是把花尊打碎
这个▁POSITION是非常重要的呀
宝宝吃辅食米粉淡定中透看▁CONFUSE
已经是周末我有▁VAMPIRE▁DIARY陪着我
绿茶玩腻了就想想红糖▁GIRL▁NINETEEN
看完▁I▁SWEAR肥皂剧就不看了
跟人开会不如以前那么谨慎▁HUMBLE了
要是一切过程都能▁WELL▁DEFIED就好了
一个▁TECHNICAL的性格都没有去做▁TECHNICAL
有个真好在我▁PITCH时雪中送她
喜欢下雨天尽管回家贝林▁SPRING▁SHOWER
所以不打算去玩了▁BRISTLE
我看定位器都▁SEARCH不到
早上幺零四七放了一首▁BANDAGE
东海绝郎▁DUKE主打西班牙菜
▁CAMEL作词易老师作曲凑合了首歌
我打算追这部剧了▁CONCERTED
什么时候才能变▁SLIM
可能快要告别我最爱的▁SQUATS
每天努力▁POLISH自己的脸
研究室▁SOFTABLE大赛去打了个酱油
跟英国▁STOUT根本两回事
▁LASER▁GAME大家都太能跑了要起不来床了
我觉得要用波特武力模型和▁PEST
一个月让所有恶心的人▁SHUT▁UP
确实你爸的性格我这个年纪▁HOLD不住
阴雨天我来租▁COFFEE发呆
▁CLIP互相暗恋一年却错过
昨天在▁LOOPY看到以前常常一个人来的
我跟别的▁WORKMATE四维模式不一样
毛利小五郎▁DETECT毫无违和感啊
师傅真▁MERCIFUL什么都亲力亲为啊
虽然我没看过▁PRIEST写的文
这种的纯手工▁FORCE你考虑一下
从稚嫩到成熟爱尼雅子▁ALLEN
没开到一▁MILE我就把别人给追尾了
不管是▁FEATURE还是▁BUG只想说真的太棒了
看▁MERE怎么一步步变得强大而温柔
发生好多事沉寂又美好妈妈又▁CANCER
▁SLEEPWALKED▁STORY看看你干的猫头鹰要被你玩坏了
怎么会有你们这群凶残的▁FOLLOWER
对的人还在远方▁FLIGHT加油
美国的▁FOUNDING▁FATHERS觉得英国人很菜
一个▁CHEESE▁BURGER都吃不完
商场的▁SAILOR说迪拜没有夜市是不是
发表了博文关于▁HABERNATE的缓存使用
不敢立▁FLAG因为知道自己没有毅力好
我苦恼了这么久真希望▁PETITION能通过
黄猴的火锅聚会▁AUTHENTIC▁FOODY吃货
想听▁FADE拖了好几次进度条都没拉到
被动的时候一次▁HANDLE之前又看了一次
▁HELLO▁LABRA这九双手里就有我们的亲人
吃了硬杆小馆唱的一首歌送给我▁MARRY▁YOU
但他从来不只是一个▁JUMPER
[...]
